{"version": 1, "special_tokens": ["<|endoftext|>"], "vocab": {"0": "\u0000", "1": "\u0001", "2": "\u0002", "3": "\u0003", "4": "\u0004", "5": "\u0005", "6": "\u0006", "7": "\u0007", "8": "\b", "9": "\t", "10": "\n", "11": "\u000b", "12": "\f", "13": "\r", "14": "\u000e", "15": "\u000f", "16": "\u0010", "17": "\u0011", "18": "\u0012", "19": "\u0013", "20": "\u0014", "21": "\u0015", "22": "\u0016", "23": "\u0017", "24": "\u0018", "25": "\u0019", "26": "\u001a", "27": "\u001b", "28": "\u001c", "29": "\u001d", "30": "\u001e", "31": "\u001f", "32": " ", "33": "!", "34": "\"", "35": "#", "36": "$", "37": "%", "38": "&", "39": "'", "40": "(", "41": ")", "42": "*", "43": "+", "44": ",", "45": "-", "46": ".", "47": "/", "48": "0", "49": "1", "50": "2", "51": "3", "52": "4", "53": "5", "54": "6", "55": "7", "56": "8", "57": "9", "58": ":", "59": ";", "60": "<", "61": "=", "62": ">", "63": "?", "64": "@", "65": "A", "66": "B", "67": "C", "68": "D", "69": "E", "70": "F", "71": "G", "72": "H", "73": "I", "74": "J", "75": "K", "76": "L", "77": "M", "78": "N", "79": "O", "80": "P", "81": "Q", "82": "R", "83": "S", "84": "T", "85": "U", "86": "V", "87": "W", "88": "X", "89": "Y", "90": "Z", "91": "[", "92": "\\", "93": "]", "94": "^", "95": "_", "96": "`", "97": "a", "98": "b", "99": "c", "100": "d", "101": "e", "102": "f", "103": "g", "104": "h", "105": "i", "106": "j", "107": "k", "108": "l", "109": "m", "110": "n", "111": "o", "112": "p", "113": "q", "114": "r", "115": "s", "116": "t", "117": "u", "118": "v", "119": "w", "120": "x", "121": "y", "122": "z", "123": "{", "124": "|", "125": "}", "126": "~", "127": "", "128": "", "129": "", "130": "", "131": "", "132": "", "133": "", "134": "", "135": "", "136": "", "137": "", "138": "", "139": "", "140": "", "141": "", "142": "", "143": "", "144": "", "145": "", "146": "", "147": "", "148": "", "149": "", "150": "", "151": "", "152": "", "153": "", "154": "", "155": "", "156": "", "157": "", "158": "", "159": "", "160": " ", "161": "¡", "162": "¢", "163": "£", "164": "¤", "165": "¥", "166": "¦", "167": "§", "168": "¨", "169": "©", "170": "ª", "171": "«", "172": "¬", "173": "­", "174": "®", "175": "¯", "176": "°", "177": "±", "178": "²", "179": "³", "180": "´", "181": "µ", "182": "¶", "183": "·", "184": "¸", "185": "¹", "186": "º", "187": "»", "188": "¼", "189": "½", "190": "¾", "191": "¿", "192": "À", "193": "Á", "194": "Â", "195": "Ã", "196": "Ä", "197": "Å", "198": "Æ", "199": "Ç", "200": "È", "201": "É", "202": "Ê", "203": "Ë", "204": "Ì", "205": "Í", "206": "Î", "207": "Ï", "208": "Ð", "209": "Ñ", "210": "Ò", "211": "Ó", "212": "Ô", "213": "Õ", "214": "Ö", "215": "×", "216": "Ø", "217": "Ù", "218": "Ú", "219": "Û", "220": "Ü", "221": "Ý", "222": "Þ", "223": "ß", "224": "à", "225": "á", "226": "â", "227": "ã", "228": "ä", "229": "å", "230": "æ", "231": "ç", "232": "è", "233": "é", "234": "ê", "235": "ë", "236": "ì", "237": "í", "238": "î", "239": "ï", "240": "ð", "241": "ñ", "242": "ò", "243": "ó", "244": "ô", "245": "õ", "246": "ö", "247": "÷", "248": "ø", "249": "ù", "250": "ú", "251": "û", "252": "ü", "253": "ý", "254": "þ", "255": "ÿ", "256": " t", "257": "he", "258": " a", "259": "in", "260": " the", "261": "  ", "262": " o", "263": "re", "264": " w", "265": " s", "266": "nd", "267": "er", "268": "ha", "269": "is", "270": "ou", "271": "on", "272": " b", "273": "it", "274": "ed", "275": " ×", "276": " of", "277": "en", "278": " f", "279": " c", "280": " m", "281": "or", "282": "es", "283": " and", "284": " to", "285": "ing", "286": "    ", "287": " p", "288": "ar", "289": "ll", "290": "at", "291": "an", "292": " in", "293": " d", "294": "as", "295": " l", "296": " h", "297": "om", "298": " n", "299": "ic", "300": " he", "301": "×", "302": "×", "303": "â", "304": " ha", "305": "le", "306": " be", "307": "hat", "308": "ot", "309": "st", "310": " g", "311": " I", "312": "ion", "313": " e", "314": "ow", "315": "al", "316": "ut", "317": "ve", "318": "se", "319": "ent", "320": "ly", "321": "im", "322": "id", "323": "ld", "324": "ce", "325": "××", "326": " th", "327": " re", "328": "gh", "329": " that", "330": " was", "331": "ir", "332": " on", "333": "et", "334": "ur", "335": " it", "336": "ver", "337": " y", "338": "ith", "339": "ay", "340": " T", "341": " wh", "342": " u", "343": "        ", "344": "××", "345": " for", "346": "ro", "347": " as", "348": "ad", "349": "ct", "350": "×", "351": " is", "352": " with", "353": " we", "354": " his", "355": "ri", "356": " you", "357": "am", "358": "the", "359": "ch", "360": "×", "361": " st", "362": "--", "363": "ght", "364": "×¨", "365": " S", "366": " A", "367": "ra", "368": " an", "369": "ter", "370": " not", "371": " M", "372": " ×", "373": "and", "374": "ill", "375": " at", "376": "oo", "377": "if", "378": " had", "379": "×ª", "380": " C", "381": "il", "382": "ould", "383": "×", "384": "ain", "385": "ke", "386": " H", "387": "th", "388": " The", "389": " B", "390": " se", "391": "ess", "392": "ich", "393": "Ö¼", "394": "pe", "395": "red", "396": "all", "397": " by", "398": "ation", "399": "rom", "400": " su", "401": " her", "402": "her", "403": "ore", "404": "ul", "405": "×", "406": "×", "407": "ge", "408": "us", "409": " de", "410": "   ", "411": "ac", "412": "â", "413": " me", "414": "qu", "415": "\n ", "416": "×©", "417": " which", "418": " or", "419": "â", "420": "est", "421": " so", "422": " him", "423": "res", "424": "â", "425": " con", "426": "ome", "427": " have", "428": " ×", "429": " W", "430": " from", "431": " P", "432": "× ", "433": "ab", "434": "ight", "435": "to", "436": "ers", "437": " all", "438": "ant", "439": " sa", "440": " but", "441": "ol", "442": "pp", "443": " v", "444": " ex", "445": "em", "446": " k", "447": "nt", "448": "×¢", "449": "ous", "450": "ust", "451": " _", "452": " ne", "453": "ist", "454": "os", "455": " this", "456": " \"", "457": "our", "458": "um", "459": " were", "460": "ie", "461": " she", "462": " sh", "463": " are", "464": "ard", "465": "×", "466": " ×", "467": " G", "468": " they", "469": " up", "470": " r", "471": " my", "472": " ×", "473": "el", "474": " whe", "475": " L", "476": "art", "477": "'s", "478": " F", "479": "ig", "480": "ate", "481": " ×", "482": "un", "483": " who", "484": "                ", "485": "ong", "486": "×", "487": "\n   ", "488": " do", "489": "ind", "490": "ast", "491": "ive", "492": " D", "493": "iv", "494": " one", "495": " man", "496": "××", "497": "The", "498": "\n    ", "499": " al", "500": "ame", "501": "out", "502": " their", "503": "very", "504": "Ö¹", "505": "ound", "506": " com", "507": " E", "508": "ort", "509": "pt", "510": " ×", "511": "ood", "512": "od", "513": " them", "514": "han", "515": "ity", "516": " R", "517": "sel", "518": "ell", "519": "ak", "520": "×", "521": " no", "522": " pro", "523": " wor", "524": "ies", "525": " ab", "526": "ther", "527": ".\"", "528": "ost", "529": "ough", "530": "ure", "531": " said", "532": "one", "533": "op", "534": " N", "535": " O", "536": "ry", "537": " le", "538": "reat", "539": " ×©", "540": "own", "541": " been", "542": "×", "543": "ne", "544": " there", "545": "ff", "546": " (", "547": " out", "548": " would", "549": "×¤", "550": "ag", "551": "ck", "552": "itt", "553": " pl", "554": "ment", "555": " will", "556": " J", "557": "×§", "558": "te", "559": "ine", "560": "ect", "561": "ose", "562": " He", "563": "ide", "564": "hed", "565": "ish", "566": "au", "567": "ook", "568": "per", "569": " â", "570": "pl", "571": "ond", "572": " ar", "573": " j", "574": "ass", "575": "ci", "576": "ace", "577": "Ö¸", "578": "ven", "579": "ake", "580": " when", "581": "ance", "582": "ack", "583": "self", "584": "cc", "585": "ence", "586": "of", "587": "ru", "588": "are", "589": " ×¢", "590": "able", "591": " un", "592": "ime", "593": " more", "594": " li", "595": "ice", "596": " kn", "597": " fe", "598": ",\"", "599": " qu", "600": "Ö·", "601": " ag", "602": "we", "603": "××ª", "604": " go", "605": " can", "606": " sp", "607": "ord", "608": "Ö°", "609": " other", "610": "ally", "611": " if", "612": " us", "613": " any", "614": " into", "615": "ud", "616": " some", "617": " has", "618": " ×", "619": "ade", "620": "ount", "621": "fore", "622": "ire", "623": "ite", "624": " tw", "625": "ions", "626": " cl", "627": " what", "628": " ad", "629": "ep", "630": "ove", "631": "ars", "632": " en", "633": "ary", "634": "other", "635": "fter", "636": "nder", "637": "ng", "638": "ble", "639": " It", "640": " im", "641": " am", "642": "ber", "643": "be", "644": " your", "645": " than", "646": "ran", "647": "av", "648": "ays", "649": " ro", "650": "urn", "651": "ress", "652": ".â", "653": " our", "654": " sha", "655": "hi", "656": "ree", "657": " dis", "658": " could", "659": "age", "660": "ings", "661": "Ö´", "662": "ap", "663": "×¦", "664": "ated", "665": "ought", "666": " time", "667": "â", "668": " its", "669": "×", "670": "wn", "671": "ian", "672": " very", "673": "cl", "674": "bl", "675": " great", "676": "\n\n ", "677": " ×", "678": "ick", "679": "oll", "680": " per", "681": "ach", "682": "×¡", "683": "ittle", "684": " over", "685": "ious", "686": " know", "687": "uch", "688": "oy", "689": "hing", "690": "his", "691": " about", "692": " did", "693": "ink", "694": "ied", "695": "ved", "696": " like", "697": "ife", "698": " Mr", "699": " pr", "700": " part", "701": " upon", "702": " bl", "703": " only", "704": "_,", "705": " now", "706": " off", "707": "for", "708": " then", "709": "tain", "710": "ather", "711": " br", "712": " should", "713": " see", "714": "ull", "715": "\n\n", "716": " again", "717": " too", "718": " fl", "719": "end", "720": " gr", "721": "ons", "722": "irst", "723": "ue", "724": " may", "725": " little", "726": " after", "727": " pre", "728": " two", "729": "ful", "730": "ty", "731": "ren", "732": "man", "733": " hand", "734": "ness", "735": " made", "736": " And", "737": "'t", "738": "×", "739": "ward", "740": "----", "741": "ile", "742": ",â", "743": "ark", "744": " pe", "745": "\n     ", "746": "de", "747": " po", "748": "old", "749": "int", "750": " But", "751": " cha", "752": "ise", "753": "ps", "754": "×", "755": " look", "756": "ign", "757": "so", "758": " ye", "759": " Y", "760": " thr", "761": " V", "762": " before", "763": " fa", "764": " ri", "765": " In", "766": " under", "767": "××", "768": " rem", "769": " good", "770": " how", "771": "×", "772": " such", "773": " these", "774": "fe", "775": "iz", "776": "._", "777": " K", "778": " must", "779": "ia", "780": " res", "781": " des", "782": "orn", "783": "..", "784": " long", "785": " down", "786": "ces", "787": "iss", "788": " spe", "789": "ction", "790": "oss", "791": " first", "792": "ath", "793": " much", "794": "not", "795": "way", "796": "ater", "797": "hen", "798": " where", "799": "ition", "800": " |", "801": "ft", "802": "ory", "803": " bec", "804": " sc", "805": " cont", "806": " ra", "807": " comp", "808": "og", "809": "?\"", "810": " bet", "811": " â", "812": "ave", "813": " sm", "814": "ily", "815": "ens", "816": "that", "817": "ady", "818": " old", "819": "ations", "820": "mer", "821": "ical", "822": " × ", "823": " every", "824": "ult", "825": " men", "826": " St", "827": " tr", "828": " say", "829": "ced", "830": " even", "831": " own", "832": " ch", "833": "ors", "834": " well", "835": " most", "836": " day", "837": "led", "838": " imp", "839": "ked", "840": "ouse", "841": "hes", "842": " comm", "843": " acc", "844": "ict", "845": "oth", "846": "××ª", "847": " way", "848": "Ö¶", "849": "land", "850": "ER", "851": "ase", "852": "ener", "853": " never", "854": " shall", "855": " cons", "856": "li", "857": " those", "858": "ving", "859": "ause", "860": "ever", "861": "ried", "862": " back", "863": " came", "864": "wh", "865": " ob", "866": "ract", "867": " being", "868": " work", "869": " think", "870": " come", "871": "ves", "872": " through", "873": " gl", "874": "resent", "875": "con", "876": " life", "877": "××¨", "878": " might", "879": " seem", "880": "aw", "881": " wr", "882": " pass", "883": "ex", "884": "ans", "885": "les", "886": " ey", "887": " call", "888": "××", "889": " ××ª", "890": " app", "891": "ock", "892": " many", "893": "pect", "894": " make", "895": " here", "896": "××", "897": " bel", "898": " let", "899": "×× ", "900": "Öµ", "901": "ople", "902": " thought", "903": "med", "904": " ser", "905": " ×¨", "906": " himself", "907": " '", "908": " ap", "909": " same", "910": " just", "911": " found", "912": "less", "913": "over", "914": "atter", "915": "ered", "916": "ged", "917": " ent", "918": "ject", "919": "ower", "920": "×", "921": "ible", "922": "omet", "923": "â", "924": "igh", "925": "ial", "926": " Ch", "927": "ple", "928": "ared", "929": "with", "930": "ened", "931": "ix", "932": " att", "933": "lf", "934": "get", "935": " She", "936": "com", "937": "It", "938": " rep", "939": "ished", "940": " fri", "941": "He", "942": "hy", "943": "ret", "944": " ×", "945": " ear", "946": " beg", "947": "ang", "948": " ke", "949": "ollow", "950": " word", "951": "× ×", "952": " op", "953": "!\"", "954": "row", "955": " ×©×", "956": "me", "957": " last", "958": " end", "959": " without", "960": "du", "961": " get", "962": "ents", "963": "up", "964": " sl", "965": "××¨", "966": " U", "967": "ks", "968": " count", "969": "ertain", "970": " far", "971": " dist", "972": "ms", "973": "su", "974": "ted", "975": "aking", "976": " head", "977": " sub", "978": "cess", "979": " right", "980": "\n       ", "981": "\n\n   ", "982": " new", "983": " car", "984": " still", "985": " te", "986": "ince", "987": "und", "988": "ope", "989": "ates", "990": "ual", "991": " turn", "992": " ret", "993": " people", "994": "ined", "995": " away", "996": " went", "997": "ss", "998": "rest", "999": "××", "1000": " wom", "1001": " place", "1002": " also", "1003": " em", "1004": " ×¢×", "1005": "oc", "1006": "?â", "1007": " take", "1008": "                                ", "1009": "rd", "1010": "uth", "1011": "ild", "1012": " They", "1013": "was", "1014": "its", "1015": "here", "1016": "ited", "1017": "××¨", "1018": "but", "1019": " supp", "1020": "××", "1021": " inst", "1022": " sec", "1023": " ××", "1024": " while", "1025": " rel", "1026": " tra", "1027": " friend", "1028": " cour", "1029": "hild", "1030": "ither", "1031": " years", "1032": " ac", "1033": "ip", "1034": "air", "1035": ".,", "1036": " set", "1037": " dif", "1038": "imes", "1039": " eyes", "1040": "cept", "1041": " We", "1042": "      ", "1043": "ning", "1044": "ular", "1045": " put", "1046": " nat", "1047": " â", "1048": " ×", "1049": "ob", "1050": " appe", "1051": "ner", "1052": "ool", "1053": "HE", "1054": "ins", "1055": " follow", "1056": "ways", "1057": " house", "1058": "vent", "1059": "ween", "1060": " reg", "1061": "And", "1062": " God", "1063": "ail", "1064": "ph", "1065": "oot", "1066": " ×ª", "1067": " pers", "1068": " child", "1069": "most", "1070": "Ö¾", "1071": "ale", "1072": " This", "1073": "ody", "1074": " exp", "1075": " three", "1076": "aid", "1077": " rec", "1078": " yet", "1079": " war", "1080": " ××", "1081": " giv", "1082": " young", "1083": "ently", "1084": "der", "1085": "),", "1086": "cy", "1087": "rit", "1088": "vers", "1089": " tell", "1090": "thing", "1091": "by", "1092": " somet", "1093": "ten", "1094": " want", "1095": "ting", "1096": "gg", "1097": " ever", "1098": "den", "1099": "ures", "1100": " night", "1101": "×", "1102": "In", "1103": " act", "1104": " ×¤", "1105": " sur", "1106": " though", "1107": "××", "1108": " left", "1109": " another", "1110": "\n  ", "1111": " against", "1112": "ew", "1113": "But", "1114": " There", "1115": "act", "1116": " *", "1117": " find", "1118": " world", "1119": " Th", "1120": "× ×", "1121": " heart", "1122": " ×", "1123": "vel", "1124": " light", "1125": "ised", "1126": " face", "1127": " mar", "1128": " mind", "1129": "ont", "1130": "ser", "1131": " poss", "1132": " bo", "1133": "sp", "1134": " few", "1135": " [", "1136": " once", "1137": "rew", "1138": "sh", "1139": "ived", "1140": "cha", "1141": " nor", "1142": "ired", "1143": " Eng", "1144": "××", "1145": "als", "1146": " each", "1147": "ib", "1148": "ffect", "1149": "new", "1150": "×× ", "1151": "ief", "1152": " chan", "1153": "ier", "1154": " gener", "1155": "ubl", "1156": "osed", "1157": " give", "1158": " love", "1159": "aut", "1160": " present", "1161": " don", "1162": "ross", "1163": "ters", "1164": " saw", "1165": "××", "1166": " ple", "1167": "apt", "1168": "alk", "1169": " pur", "1170": " between", "1171": " gra", "1172": "men", "1173": "my", "1174": "×©×¨", "1175": "fl", "1176": " ind", "1177": " You", "1178": " kind", "1179": "aken", "1180": "You", "1181": " co", "1182": " int", "1183": " occ", "1184": "ts", "1185": " things", "1186": " nothing", "1187": " took", "1188": "ows", "1189": "iness", "1190": "ton", "1191": "ason", "1192": "any", "1193": "ched", "1194": " ××", "1195": "aught", "1196": " name", "1197": "ON", "1198": " lar", "1199": "tend", "1200": "irl", "1201": " ×§", "1202": "att", "1203": " rest", "1204": " gu", "1205": "pped", "1206": "ating", "1207": " near", "1208": "ities", "1209": " ev", "1210": " father", "1211": "pr", "1212": " inter", "1213": " happ", "1214": "ee", "1215": " inc", "1216": " always", "1217": "eth", "1218": "selves", "1219": " called", "1220": "××", "1221": "ments", "1222": "uring", "1223": " side", "1224": "××", "1225": "IN", "1226": "rist", "1227": " add", "1228": " mom", "1229": "××", "1230": "rent", "1231": " ××", "1232": "            ", "1233": "ene", "1234": "ully", "1235": " read", "1236": "××", "1237": "××©", "1238": "oun", "1239": " return", "1240": "which", "1241": " conf", "1242": "you", "1243": " str", "1244": "oh", "1245": " both", "1246": " As", "1247": "_.", "1248": " ×", "1249": " ter", "1250": "aster", "1251": " feel", "1252": " bu", "1253": "read", "1254": " water", "1255": " est", "1256": "cri", "1257": " small", "1258": "ern", "1259": " stre", "1260": " certain", "1261": " point", "1262": " soon", "1263": " because", "1264": " land", "1265": "!â", "1266": "ute", "1267": " sw", "1268": " whole", "1269": " If", "1270": " home", "1271": " country", "1272": " thing", "1273": "ield", "1274": "pro", "1275": " fell", "1276": " cle", "1277": " got", "1278": "gether", "1279": " among", "1280": " ans", "1281": " min", "1282": " seen", "1283": " room", "1284": "br", "1285": " hands", "1286": "terest", "1287": "iet", "1288": "II", "1289": " looked", "1290": " done", "1291": "ote", "1292": " going", "1293": " His", "1294": " mon", "1295": "amp", "1296": "az", "1297": " fact", "1298": " fam", "1299": "ah", "1300": " told", "1301": "had", "1302": " dra", "1303": " sent", "1304": " ××", "1305": " disc", "1306": "outh", "1307": "â", "1308": "ec", "1309": " asked", "1310": "AN", "1311": "ger", "1312": "Ö¸Ö¼", "1313": " For", "1314": "ately", "1315": " ref", "1316": " hum", "1317": " Mrs", "1318": " half", "1319": " heard", "1320": " seemed", "1321": " moment", "1322": " ass", "1323": " cur", "1324": "wards", "1325": "××", "1326": " sat", "1327": " having", "1328": "ably", "1329": " boy", "1330": " days", "1331": " less", "1332": " form", "1333": "ines", "1334": " care", "1335": "AR", "1336": "elt", "1337": "ling", "1338": " unt", "1339": " hour", "1340": "rem", "1341": "gr", "1342": " cond", "1343": " whom", "1344": " wind", "1345": " woman", "1346": " better", "1347": ").", "1348": "ense", "1349": "oice", "1350": " hard", "1351": "ives", "1352": " ext", "1353": "now", "1354": " art", "1355": "ants", "1356": "lish", "1357": "xt", "1358": "×¨×", "1359": "ug", "1360": "unt", "1361": " knew", "1362": "arn", "1363": " belie", "1364": " power", "1365": " An", "1366": "ii", "1367": " sil", "1368": " cr", "1369": " use", "1370": "lect", "1371": " Ar", "1372": " tru", "1373": "ider", "1374": " sk", "1375": " num", "1376": "aring", "1377": " girl", "1378": " course", "1379": "ird", "1380": "ution", "1381": " adv", "1382": "ident", "1383": "haps", "1384": "ific", "1385": " best", "1386": "day", "1387": " matter", "1388": " stand", "1389": " does", "1390": "oub", "1391": "ustr", "1392": " fore", "1393": "oon", "1394": " high", "1395": " door", "1396": "owed", "1397": "ison", "1398": "atch", "1399": "osition", "1400": " enough", "1401": "EN", "1402": " bro", "1403": "ury", "1404": " che", "1405": "stand", "1406": " ste", "1407": "ians", "1408": " ××", "1409": "× ×", "1410": "ub", "1411": " however", "1412": "××", "1413": "ublic", "1414": "--------", "1415": "orning", "1416": "ey", "1417": " col", "1418": " words", "1419": " large", "1420": "××", "1421": " mother", "1422": "ative", "1423": " tri", "1424": "ES", "1425": " el", "1426": "ââ", "1427": "××", "1428": " quite", "1429": " almost", "1430": " Mar", "1431": "ention", "1432": "'ll", "1433": " need", "1434": " four", "1435": " keep", "1436": " hel", "1437": "form", "1438": "ceed", "1439": " something", "1440": "ets", "1441": " del", "1442": "ohn", "1443": " vis", "1444": "×¨×", "1445": "What", "1446": " law", "1447": "ank", "1448": "ually", "1449": " taken", "1450": "estion", "1451": " sim", "1452": "oud", "1453": " fr", "1454": "bed", "1455": " det", "1456": " interest", "1457": " sy", "1458": "right", "1459": "urch", "1460": " pleas", "1461": " To", "1462": " THE", "1463": " cent", "1464": "\n        ", "1465": "ided", "1466": "fic", "1467": " At", "1468": " dire", "1469": " open", "1470": " given", "1471": "oved", "1472": " brought", "1473": "ering", "1474": "Ã©", "1475": "hip", "1476": " When", "1477": "ained", "1478": " contin", "1479": "ages", "1480": " until", "1481": " Ind", "1482": " hor", "1483": " inde", "1484": " ××¢", "1485": "ery", "1486": " es", "1487": "ung", "1488": " death", "1489": "OR", "1490": " suff", "1491": "used", "1492": ".]", "1493": "ism", "1494": "gin", "1495": " ins", "1496": " gave", "1497": " serv", "1498": ".)", "1499": "irc", "1500": "TER", "1501": " wa", "1502": " â", "1503": "fort", "1504": " person", "1505": " bre", "1506": "fect", "1507": " used", "1508": " mean", "1509": "har", "1510": "ured", "1511": "ides", "1512": "oul", "1513": " rece", "1514": " bus", "1515": " ××", "1516": " What", "1517": " full", "1518": "Mr", "1519": "We", "1520": " Then", "1521": " mil", "1522": "ches", "1523": " Christ", "1524": "mon", "1525": "ev", "1526": " diffe", "1527": "fully", "1528": "aim", "1529": "iew", "1530": "oney", "1531": "ached", "1532": " cor", "1533": " dec", "1534": "meric", "1535": "ressed", "1536": " pri", "1537": "ken", "1538": "oke", "1539": " since", "1540": " inv", "1541": " pol", "1542": " That", "1543": " white", "1544": " year", "1545": " dep", "1546": " turned", "1547": "wor", "1548": " real", "1549": "××", "1550": " next", "1551": " adm", "1552": " beaut", "1553": " Al", "1554": "HA", "1555": "××", "1556": " Un", "1557": " order", "1558": "akes", "1559": "him", "1560": "pend", "1561": " fin", "1562": " On", "1563": " Lord", "1564": "××", "1565": "There", "1566": " whose", "1567": " morning", "1568": " round", "1569": "ash", "1570": " cannot", "1571": " others", "1572": "irit", "1573": "Ö°Ö¼", "1574": ".--", "1575": "mb", "1576": " book", "1577": "range", "1578": " No", "1579": "ural", "1580": " fall", "1581": "â¦", "1582": "from", "1583": " began", "1584": "empt", "1585": "king", "1586": "ude", "1587": "ient", "1588": "undred", "1589": "cial", "1590": " So", "1591": " Is", "1592": "ances", "1593": " ide", "1594": "oint", "1595": "××", "1596": " sure", "1597": " ed", "1598": "ility", "1599": "ized", "1600": "She", "1601": " felt", "1602": "ott", "1603": " air", "1604": " rather", "1605": "ains", "1606": "aint", "1607": " case", "1608": " char", "1609": "ister", "1610": "ric", "1611": "hil", "1612": "iting", "1613": " opp", "1614": " together", "1615": "rans", "1616": " dark", "1617": " Miss", "1618": " John", "1619": "ready", "1620": "rence", "1621": " prop", "1622": " ××", "1623": "××©", "1624": "ring", "1625": "iled", "1626": " feet", "1627": " plac", "1628": " fire", "1629": " pres", "1630": "entle", "1631": " themselves", "1632": "uck", "1633": " play", "1634": " voice", "1635": " Sp", "1636": " true", "1637": " doub", "1638": "uss", "1639": " help", "1640": "×¢×", "1641": "rench", "1642": " run", "1643": " often", "1644": " poor", "1645": " X", "1646": "×ª×", "1647": " sun", "1648": "have", "1649": "eng", "1650": "×", "1651": " ill", "1652": "No", "1653": "bit", "1654": "Ö´Ö¼", "1655": " Pr", "1656": "==", "1657": " prom", "1658": " reason", "1659": " says", "1660": " along", "1661": " De", "1662": "ards", "1663": " short", "1664": "ature", "1665": " necess", "1666": " Q", "1667": " const", "1668": "they", "1669": "use", "1670": " myself", "1671": "son", "1672": " swe", "1673": " second", "1674": " sing", "1675": " stood", "1676": " known", "1677": " hon", "1678": " def", "1679": "'d", "1680": " king", "1681": "ges", "1682": "what", "1683": "racter", "1684": " Com", "1685": " aff", "1686": "peri", "1687": "par", "1688": " thus", "1689": " lay", "1690": " children", "1691": "×ª×", "1692": "Ö²", "1693": " repl", "1694": "ying", "1695": "uthor", "1696": " produ", "1697": "This", "1698": " met", "1699": " Americ", "1700": " dr", "1701": ",--", "1702": " above", "1703": "app", "1704": "\n\n    ", "1705": " strong", "1706": "though", "1707": " hold", "1708": " ××©", "1709": "×¤×¨", "1710": "tern", "1711": " body", "1712": "enty", "1713": "uc", "1714": " OF", "1715": " till", "1716": "×¨×", "1717": ".'", "1718": "ream", "1719": "ax", "1720": "××", "1721": " aw", "1722": "iving", "1723": " offic", "1724": " par", "1725": "oor", "1726": "well", "1727": "â", "1728": " Be", "1729": " wond", "1730": " wife", "1731": "ists", "1732": "That", "1733": "ames", "1734": "ole", "1735": " ×¡", "1736": " beh", "1737": "she", "1738": " friends", "1739": " son", "1740": "×©×", "1741": "ats", "1742": " passed", "1743": "ham", "1744": "ius", "1745": "ccess", "1746": " var", "1747": "illed", "1748": " hope", "1749": "where", "1750": " sign", "1751": " town", "1752": "veral", "1753": " hundred", "1754": "ane", "1755": " ×¦", "1756": "che", "1757": "ert", "1758": " means", "1759": "overed", "1760": " sle", "1761": " ground", "1762": " King", "1763": "×¥", "1764": " times", "1765": " subject", "1766": " close", "1767": " New", "1768": " dear", "1769": " speak", "1770": " ×××", "1771": " mod", "1772": "ination", "1773": " effect", "1774": " English", "1775": " .", "1776": "××§", "1777": " believe", "1778": "ony", "1779": "                        ", "1780": "aj", "1781": "Yes", "1782": "××¢", "1783": "were", "1784": "itted", "1785": " within", "1786": " meet", "1787": " money", "1788": "wer", "1789": " exc", "1790": " during", "1791": " prov", "1792": "ster", "1793": " six", "1794": "dden", "1795": " lead", "1796": "this", "1797": " anything", "1798": " circ", "1799": " equ", "1800": " hear", "1801": "ember", "1802": "ued", "1803": "nment", "1804": "llustr", "1805": " herself", "1806": "there", "1807": " show", "1808": " held", "1809": " question", "1810": " expl", "1811": " Re", "1812": "ousand", "1813": " start", "1814": "Ö·Ö¼", "1815": "erm", "1816": " thou", "1817": "chool", "1818": "aven", "1819": " least", "1820": "cted", "1821": "ety", "1822": " div", "1823": " eas", "1824": " general", "1825": " All", "1826": "co", "1827": " Sir", "1828": " cap", "1829": "une", "1830": "×£", "1831": "erman", "1832": "ney", "1833": " gone", "1834": "like", "1835": "val", "1836": " obser", "1837": "iter", "1838": " doubt", "1839": "××¨", "1840": " fur", "1841": " consider", "1842": "rop", "1843": " sudden", "1844": " requ", "1845": "idence", "1846": "aptain", "1847": " Cl", "1848": " import", "1849": " lau", "1850": "cious", "1851": " wood", "1852": " alone", "1853": " itself", "1854": "ley", "1855": " earth", "1856": " abs", "1857": " sound", "1858": " sum", "1859": " common", "1860": " black", "1861": " â", "1862": " ××", "1863": "iam", "1864": "rying", "1865": "iful", "1866": "â", "1867": "them", "1868": " already", "1869": " stru", "1870": " several", "1871": "Oh", "1872": " prin", "1873": " dev", "1874": "sc", "1875": " talk", "1876": " nature", "1877": " thy", "1878": " either", "1879": " bra", "1880": "××", "1881": " public", "1882": " proper", "1883": " number", "1884": "ek", "1885": " gentle", "1886": "rance", "1887": " perhaps", "1888": " dri", "1889": " conc", "1890": "TI", "1891": " deep", "1892": "hile", "1893": " gre", "1894": " replied", "1895": " How", "1896": " dead", "1897": " live", "1898": "HAP", "1899": " women", "1900": " pat", "1901": "arch", "1902": "their", "1903": "××", "1904": "ording", "1905": " human", "1906": " character", "1907": " ××", "1908": "ality", "1909": " Wh", "1910": " tre", "1911": "mp", "1912": "ices", "1913": "AL", "1914": " vol", "1915": " Con", "1916": " leave", "1917": " object", "1918": "ression", "1919": " state", "1920": "iment", "1921": " soul", "1922": "let", "1923": "side", "1924": " bring", "1925": " ten", "1926": " bed", "1927": " sea", "1928": " account", "1929": "no", "1930": " mis", "1931": " bur", "1932": " stra", "1933": " different", "1934": " mus", "1935": " indeed", "1936": " French", "1937": "ased", "1938": "ement", "1939": " inf", "1940": " cried", "1941": "gy", "1942": "alth", "1943": "asion", "1944": "ny", "1945": "ining", "1946": " appear", "1947": "oura", "1948": " free", "1949": "ising", "1950": " partic", "1951": " around", "1952": "iously", "1953": "Illustr", "1954": " sir", "1955": " why", "1956": "ls", "1957": " expect", "1958": " val", "1959": " ××", "1960": " clear", "1961": " command", "1962": "HAPTER", "1963": " mer", "1964": " became", "1965": "head", "1966": "cul", "1967": " view", "1968": " letter", "1969": "ission", "1970": " therefore", "1971": " brother", "1972": " spirit", "1973": " behind", "1974": "orrow", "1975": "tained", "1976": " pain", "1977": "wered", "1978": " har", "1979": "que", "1980": "aughter", "1981": " Nor", "1982": "×× ×", "1983": "ics", "1984": "Well", "1985": " become", "1986": "ament", "1987": ",'", "1988": " bar", "1989": " sort", "1990": "××", "1991": " manner", "1992": " ir", "1993": " cut", "1994": " Br", "1995": " red", "1996": "As", "1997": " past", "1998": " ran", "1999": " success", "2000": " gover", "2001": " author", "2002": " ××", "2003": " stud", "2004": " comple", "2005": "under", "2006": "idd", "2007": " city", "2008": "ned", "2009": "Illustration", "2010": " exam", "2011": "They", "2012": "rie", "2013": " Par", "2014": "ize", "2015": "ues", "2016": "â", "2017": "band", "2018": " lady", "2019": "....", "2020": "mand", "2021": " lost", "2022": " With", "2023": "olog", "2024": " England", "2025": " ele", "2026": "aves", "2027": " fre", "2028": " fear", "2029": " thousand", "2030": "××", "2031": " truth", "2032": "cing", "2033": "If", "2034": " five", "2035": " fair", "2036": "     ", "2037": "ctor", "2038": "ones", "2039": " Her", "2040": "body", "2041": " prof", "2042": "mber", "2043": " mark", "2044": "dis", "2045": "oe", "2046": " purp", "2047": "ases", "2048": " line", "2049": "oes", "2050": "Th", "2051": " ××", "2052": "arent", "2053": "uff", "2054": " family", "2055": "ped", "2056": "'m", "2057": "medi", "2058": " possess", "2059": " ca", "2060": "itions", "2061": " fig", "2062": "tered", "2063": " making", "2064": "pre", "2065": " mount", "2066": "bs", "2067": "ths", "2068": "cons", "2069": " By", "2070": " gold", "2071": "off", "2072": "××¢", "2073": " wall", "2074": "ught", "2075": " possible", "2076": " leg", "2077": "gan", "2078": "attle", "2079": " (_", "2080": "IS", "2081": " wish", "2082": " understand", "2083": " respect", "2084": "...", "2085": "× ××", "2086": " ce", "2087": "isf", "2088": "ron", "2089": " ××", "2090": "ational", "2091": " ×××", "2092": " trans", "2093": " diffic", "2094": " whether", "2095": " eng", "2096": "When", "2097": " ××©×¨", "2098": "ledge", "2099": " Le", "2100": " lo", "2101": " chief", "2102": "would", "2103": " arri", "2104": " tem", "2105": " ××ª", "2106": "lled", "2107": " later", "2108": " business", "2109": " able", "2110": " coll", "2111": " fort", "2112": " jud", "2113": "aving", "2114": "ries", "2115": "ging", "2116": " Will", "2117": "ush", "2118": " fav", "2119": "owing", "2120": " arm", "2121": "room", "2122": " ×©×", "2123": " sit", "2124": "els", "2125": "orm", "2126": " looking", "2127": " prob", "2128": " -", "2129": " coming", "2130": " really", "2131": "ouble", "2132": " answered", "2133": "cle", "2134": " horse", "2135": " hist", "2136": " port", "2137": " except", "2138": "eneral", "2139": "reg", "2140": "iar", "2141": " road", "2142": " Se", "2143": " fine", "2144": "××", "2145": " remark", "2146": " low", "2147": " kept", "2148": " German", "2149": "Then", "2150": "aper", "2151": "oly", "2152": " quick", "2153": " else", "2154": " My", "2155": "××¤", "2156": "night", "2157": "utes", "2158": " ut", "2159": " &", "2160": "×¨××", "2161": " blood", "2162": " foot", "2163": " Ge", "2164": "ified", "2165": " dest", "2166": "××ª", "2167": "pper", "2168": "usband", "2169": " bes", "2170": "ilt", "2171": " decl", "2172": "       ", "2173": "LE", "2174": "iver", "2175": "ze", "2176": " mere", "2177": "io", "2178": " ××", "2179": " begin", "2180": " One", "2181": " perfect", "2182": "will", "2183": " move", "2184": "sequ", "2185": " sold", "2186": " seems", "2187": " result", "2188": "××¡", "2189": " sight", "2190": "inter", "2191": " stri", "2192": "##", "2193": "ead", "2194": "××", "2195": "na", "2196": "'ve", "2197": "wo", "2198": " ××", "2199": "×××", "2200": "itting", "2201": "tended", "2202": " front", "2203": "ondon", "2204": "bo", "2205": " pract", "2206": "dom", "2207": " excl", "2208": " early", "2209": " sol", "2210": " anim", "2211": " following", "2212": "airs", "2213": " Pro", "2214": "St", "2215": " appro", "2216": " learn", "2217": "ploy", "2218": "str", "2219": "cient", "2220": "itude", "2221": " ××", "2222": " ord", "2223": "To", "2224": "antly", "2225": "come", "2226": " Bl", "2227": " Col", "2228": "rigin", "2229": " pie", "2230": " hur", "2231": " list", "2232": " towards", "2233": " regard", "2234": "otion", "2235": " ××¨", "2236": "oman", "2237": " Sc", "2238": " ××", "2239": "inct", "2240": "ounded", "2241": "××§", "2242": " ve", "2243": "flu", "2244": " ×× ", "2245": "×ª×", "2246": " main", "2247": " thee", "2248": "anger", "2249": " received", "2250": " bad", "2251": "alked", "2252": " ready", "2253": "owers", "2254": "cript", "2255": "bert", "2256": " lad", "2257": " cold", "2258": "×¨×", "2259": "light", "2260": " wonder", "2261": " returned", "2262": " ××§", "2263": "cont", "2264": "ours", "2265": "×××ª", "2266": " cause", "2267": "avy", "2268": " et", "2269": " enem", "2270": "At", "2271": "××©", "2272": " evening", "2273": "irt", "2274": " step", "2275": " pay", "2276": " cal", "2277": " ××", "2278": "inary", "2279": " sal", "2280": " sense", "2281": " treat", "2282": " princi", "2283": " ru", "2284": "cially", "2285": " arms", "2286": "××¡", "2287": "irm", "2288": "Ã¦", "2289": "××", "2290": " followed", "2291": " across", "2292": " school", "2293": " bit", "2294": "ear", "2295": " cross", "2296": " ver", "2297": " age", "2298": "go", "2299": "more", "2300": " tou", "2301": " eff", "2302": "ape", "2303": " dut", "2304": " exist", "2305": "ision", "2306": " lab", "2307": "××¢", "2308": " Brit", "2309": " prot", "2310": "how", "2311": "rel", "2312": "atic", "2313": " table", "2314": " force", "2315": "On", "2316": "ina", "2317": "bled", "2318": " pret", "2319": " story", "2320": ".[", "2321": " idea", "2322": "rank", "2323": " direct", "2324": " disp", "2325": " necessary", "2326": "itten", "2327": " worth", "2328": " position", "2329": " eye", "2330": " big", "2331": "imp", "2332": " origin", "2333": " accom", "2334": " answer", "2335": "vo", "2336": "who", "2337": "××¦", "2338": "do", "2339": " Z", "2340": "iod", "2341": "aimed", "2342": "ital", "2343": "arr", "2344": " twenty", "2345": "ler", "2346": "RE", "2347": " draw", "2348": "look", "2349": " wild", "2350": "                            ", "2351": " ××¢", "2352": "×©×", "2353": " miles", "2354": "yond", "2355": " incl", "2356": " =", "2357": " Now", "2358": "can", "2359": "ND", "2360": "ency", "2361": "××¨", "2362": "××", "2363": " represent", "2364": "ots", "2365": " husband", "2366": "ork", "2367": "ength", "2368": " river", "2369": " carried", "2370": "TH", "2371": " Ad", "2372": "ences", "2373": "note", "2374": " class", "2375": "velop", "2376": "ogn", "2377": " ask", "2378": " sometimes", "2379": "ING", "2380": " mag", "2381": " esc", "2382": " faith", "2383": "ils", "2384": "orts", "2385": " beautiful", "2386": "got", "2387": " particular", "2388": "ask", "2389": " quiet", "2390": "××", "2391": " build", "2392": "angu", "2393": "add", "2394": "ested", "2395": " pict", "2396": " fif", "2397": " won", "2398": "ior", "2399": "cies", "2400": " dro", "2401": " peace", "2402": "fer", "2403": " reached", "2404": "orge", "2405": "ored", "2406": "vol", "2407": " relig", "2408": "cell", "2409": "××", "2410": " Ed", "2411": "min", "2412": "ples", "2413": "How", "2414": " cast", "2415": " Dr", "2416": "idge", "2417": " occasion", "2418": "some", "2419": "My", "2420": " London", "2421": "An", "2422": "stem", "2423": "For", "2424": "ops", "2425": "ivers", "2426": "iers", "2427": "appe", "2428": " entire", "2429": " party", "2430": "inion", "2431": " church", "2432": "ening", "2433": "when", "2434": " strange", "2435": " forth", "2436": "-+", "2437": " field", "2438": "Why", "2439": " corn", "2440": " mist", "2441": " deal", "2442": " ××", "2443": "ically", "2444": "ump", "2445": "erv", "2446": " Of", "2447": " bene", "2448": " purpose", "2449": "resh", "2450": " hours", "2451": " longer", "2452": " Char", "2453": " didn", "2454": "ords", "2455": "×©×", "2456": " acqu", "2457": " squ", "2458": "EL", "2459": "hand", "2460": " further", "2461": " ××¢", "2462": "been", "2463": " master", "2464": " These", "2465": "iff", "2466": "usion", "2467": "ously", "2468": " i", "2469": "riage", "2470": " Do", "2471": "ift", "2472": " added", "2473": "ustom", "2474": " sett", "2475": ".â", "2476": "ribut", "2477": " pop", "2478": " vill", "2479": "ume", "2480": "joy", "2481": " sleep", "2482": "ivid", "2483": "gl", "2484": "OU", "2485": "cent", "2486": " fight", "2487": " continued", "2488": " forward", "2489": " wit", "2490": "chan", "2491": "urope", "2492": "gu", "2493": " slow", "2494": "pecially", "2495": " nearly", "2496": "eter", "2497": " surpr", "2498": " taking", "2499": "\n         ", "2500": "IC", "2501": "sec", "2502": " break", "2503": " priv", "2504": " plan", "2505": " ××", "2506": "__", "2507": " Pl", "2508": " incre", "2509": "part", "2510": " natural", "2511": " visit", "2512": " hast", "2513": "rupt", "2514": " immedi", "2515": " affect", "2516": " satisf", "2517": " dream", "2518": "des", "2519": " period", "2520": "aged", "2521": " Not", "2522": " appeared", "2523": "then", "2524": " remain", "2525": " secret", "2526": " ought", "2527": "after", "2528": " watch", "2529": " fellow", "2530": " led", "2531": "gra", "2532": " late", "2533": " self", "2534": "ingly", "2535": " pray", "2536": " according", "2537": " service", "2538": " spoke", "2539": " pen", "2540": " toward", "2541": "××", "2542": " employ", "2543": " length", "2544": "CHAPTER", "2545": " ty", "2546": "asure", "2547": "So", "2548": "hood", "2549": " ann", "2550": "ror", "2551": " x", "2552": "THE", "2553": " beyond", "2554": "ires", "2555": "××¨", "2556": " fac", "2557": " danger", "2558": "ounds", "2559": "kn", "2560": " med", "2561": " mur", "2562": " hot", "2563": "oses", "2564": " walk", "2565": " glad", "2566": " imag", "2567": " sweet", "2568": " attempt", "2569": "ium", "2570": "ciety", "2571": " post", "2572": "××", "2573": " rose", "2574": "house", "2575": " change", "2576": "rodu", "2577": " ×", "2578": " sugg", "2579": " quar", "2580": " suddenly", "2581": "ext", "2582": "iling", "2583": "ference", "2584": " send", "2585": "ald", "2586": "ossible", "2587": "kes", "2588": "face", "2589": "×××", "2590": " living", "2591": " streng", "2592": " none", "2593": "ighb", "2594": " eight", "2595": " latter", "2596": "ushed", "2597": " ××", "2598": "hys", "2599": " creat", "2600": "ises", "2601": "wise", "2602": " saying", "2603": " stay", "2604": " scar", "2605": " France", "2606": "set", "2607": "iddle", "2608": " breat", "2609": " hair", "2610": "ites", "2611": "iol", "2612": " soft", "2613": "umst", "2614": " --", "2615": "af", "2616": " remember", "2617": " ××¢", "2618": " comes", "2619": " proceed", "2620": "ument", "2621": " placed", "2622": "××ª", "2623": " court", "2624": " parts", "2625": " repe", "2626": " States", "2627": "has", "2628": " ××", "2629": " lim", "2630": "ories", "2631": "nor", "2632": "iding", "2633": " former", "2634": "×××¨", "2635": "gar", "2636": " ×©×", "2637": "oral", "2638": "cend", "2639": "itary", "2640": " mo", "2641": "bur", "2642": " everything", "2643": " feeling", "2644": " dog", "2645": " Mad", "2646": "ively", "2647": " prison", "2648": " ××©", "2649": "uct", "2650": " knowledge", "2651": "bel", "2652": "ests", "2653": " bright", "2654": "ray", "2655": " suppose", "2656": " experi", "2657": " camp", "2658": " ××ª", "2659": " emb", "2660": "amed", "2661": " hig", "2662": "pan", "2663": " rock", "2664": "Foot", "2665": " ××¤", "2666": " ××¦", "2667": " fast", "2668": "'re", "2669": "sha", "2670": " Car", "2671": "××", "2672": " pretty", "2673": " American", "2674": "just", "2675": "roy", "2676": "ille", "2677": " sac", "2678": "××¤", "2679": "aff", "2680": "rough", "2681": "aching", "2682": " joy", "2683": "inner", "2684": "ââââ", "2685": " ××¤", "2686": " prep", "2687": " plain", "2688": "ience", "2689": "Ch", "2690": "ivil", "2691": "ills", "2692": " influ", "2693": " complete", "2694": "××", "2695": "ixed", "2696": "--\"", "2697": "rowd", "2698": " Europe", "2699": "isted", "2700": "count", "2701": "×××", "2702": " died", "2703": " neither", "2704": "orted", "2705": ",â", "2706": "time", "2707": "Footnote", "2708": " â", "2709": " history", "2710": "hel", "2711": "pid", "2712": "anced", "2713": " #", "2714": " system", "2715": "eness", "2716": " Per", "2717": " probably", "2718": " conne", "2719": "unity", "2720": " doing", "2721": "Now", "2722": "AT", "2723": " jo", "2724": " daughter", "2725": " top", "2726": " ii", "2727": "IL", "2728": " greater", "2729": "sem", "2730": " ago", "2731": "-----+", "2732": "sm", "2733": " sens", "2734": " Ab", "2735": " cra", "2736": "urs", "2737": "××¦", "2738": "--_", "2739": " wat", "2740": "ager", "2741": " laid", "2742": " desp", "2743": "oured", "2744": "eg", "2745": " determ", "2746": " Man", "2747": "Wh", "2748": "aly", "2749": "ming", "2750": " da", "2751": " heaven", "2752": "ral", "2753": "ma", "2754": "ator", "2755": " opened", "2756": "OL", "2757": " er", "2758": " army", "2759": "ST", "2760": " happy", "2761": " After", "2762": "could", "2763": "acy", "2764": " pal", "2765": "teen", "2766": "rs", "2767": "\n      ", "2768": "ulation", "2769": " occup", "2770": "formed", "2771": " tried", "2772": " ××¡", "2773": " boys", "2774": "inc", "2775": " ××", "2776": " attack", "2777": " Gover", "2778": "×¢×", "2779": " action", "2780": "aul", "2781": " important", "2782": " although", "2783": " Church", "2784": "ford", "2785": " demand", "2786": "sy", "2787": " obl", "2788": " slight", "2789": " belong", "2790": " Hen", "2791": "orses", "2792": "ancy", "2793": " mention", "2794": "\n\n  ", "2795": "×§×", "2796": "osp", "2797": " gun", "2798": " bear", "2799": "comm", "2800": " ×©×", "2801": " See", "2802": " makes", "2803": " ××", "2804": "reed", "2805": " appl", "2806": " Phil", "2807": " den", "2808": "stit", "2809": " und", "2810": "All", "2811": "ram", "2812": "see", "2813": "Not", "2814": "upon", "2815": " Har", "2816": "about", "2817": "oose", "2818": "×¨×¥", "2819": " distance", "2820": " May", "2821": " ×××ª", "2822": "irty", "2823": " paper", "2824": " entered", "2825": "OM", "2826": "into", "2827": " written", "2828": " grow", "2829": " mouth", "2830": "ips", "2831": "×××", "2832": " minutes", "2833": " Let", "2834": "spe", "2835": "ike", "2836": " window", "2837": "uture", "2838": " wanted", "2839": " company", "2840": "pping", "2841": " delight", "2842": " langu", "2843": " ship", "2844": "cil", "2845": " accept", "2846": " From", "2847": " heavy", "2848": " enemy", "2849": "uke", "2850": " conv", "2851": "ÖµÖ¼", "2852": " bird", "2853": "ching", "2854": "vere", "2855": " opinion", "2856": " Can", "2857": " grand", "2858": "ship", "2859": "rand", "2860": " contr", "2861": "enth", "2862": "\n\n     ", "2863": "onel", "2864": " laugh", "2865": "ply", "2866": "cience", "2867": " recogn", "2868": " develop", "2869": "ogra", "2870": " deg", "2871": "athe", "2872": "====", "2873": "icked", "2874": "ection", "2875": " af", "2876": "rief", "2877": "ouses", "2878": "erc", "2879": " George", "2880": "should", "2881": " sto", "2882": "ethod", "2883": " attention", "2884": "lo", "2885": "rill", "2886": "ajor", "2887": " various", "2888": " note", "2889": "never", "2890": " ××", "2891": "long", "2892": " Â", "2893": " ××©", "2894": " difficult", "2895": " enjoy", "2896": " AND", "2897": " polit", "2898": "ââ", "2899": "spect", "2900": " lived", "2901": "×¢×ª", "2902": " comfort", "2903": " mine", "2904": " estab", "2905": " Captain", "2906": " descri", "2907": " trees", "2908": " food", "2909": " coun", "2910": "××", "2911": "great", "2912": " stat", "2913": " inqu", "2914": " oper", "2915": " wrong", "2916": " rich", "2917": "thern", "2918": "ED", "2919": "----------------", "2920": " below", "2921": " ××©", "2922": " government", "2923": " concl", "2924": "pass", "2925": "certain", "2926": "bet", "2927": " Bar", "2928": " ××©", "2929": "×¢×", "2930": " Ro", "2931": " Christian", "2932": " William", "2933": " neighb", "2934": " Gu", "2935": " sn", "2936": " duty", "2937": "alley", "2938": " Why", "2939": " prev", "2940": "aded", "2941": "-----+-----+", "2942": "mar", "2943": " ×××", "2944": " crowd", "2945": "than", "2946": " certainly", "2947": " compl", "2948": " especially", "2949": " third", "2950": "\n                ", "2951": "road", "2952": " wide", "2953": " try", "2954": "××", "2955": " jour", "2956": "ishing", "2957": "××", "2958": "tic", "2959": "ession", "2960": " compan", "2961": "×××", "2962": "mn", "2963": "idered", "2964": " persons", "2965": " hat", "2966": "uous", "2967": " single", "2968": " battle", "2969": " strength", "2970": "raid", "2971": "ellow", "2972": "iant", "2973": "iction", "2974": "bling", "2975": " ang", "2976": "oted", "2977": " $", "2978": "aterial", "2979": "again", "2980": "hold", "2981": "ilar", "2982": " British", "2983": " blue", "2984": " Here", "2985": " la", "2986": " tro", "2987": " Ex", "2988": " Or", "2989": " intell", "2990": " mem", "2991": "ourage", "2992": " burn", "2993": "yn", "2994": "ston", "2995": "stood", "2996": ".=", "2997": "×××", "2998": " suffic", "2999": " bound", "3000": " resp", "3001": " chance", "3002": " frequ", "3003": "olute", "3004": "bes", "3005": "ann", "3006": " ××", "3007": "With", "3008": "gress", "3009": " boat", "3010": "imate", "3011": "._,", "3012": " mill", "3013": "ividual", "3014": " General", "3015": " happened", "3016": " circumst", "3017": " depart", "3018": " months", "3019": "cely", "3020": "arden", "3021": " Cha", "3022": "××", "3023": " dress", "3024": "mit", "3025": " week", "3026": " pleasure", "3027": " York", "3028": " fool", "3029": " office", "3030": "iety", "3031": " ××", "3032": " exclaimed", "3033": " fat", "3034": "osing", "3035": " Am", "3036": " anx", "3037": "××", "3038": "tr", "3039": " conce", "3040": " gen", "3041": "lling", "3042": "ruction", "3043": "alled", "3044": " century", "3045": "eks", "3046": "ech", "3047": " Fl", "3048": "lands", "3049": " desire", "3050": " Em", "3051": " gentleman", "3052": " warm", "3053": "together", "3054": "arrow", "3055": "aled", "3056": " poet", "3057": "bers", "3058": " green", "3059": " hardly", "3060": "RI", "3061": " mid", "3062": " fun", "3063": "ghed", "3064": "ctions", "3065": " Pe", "3066": "dered", "3067": "arm", "3068": " Some", "3069": "reme", "3070": "ye", "3071": "×¨×", "3072": " sister", "3073": " remained", "3074": " chair", "3075": " Mary", "3076": " thick", "3077": " yourself", "3078": "hard", "3079": " weak", "3080": "lected", "3081": " eat", "3082": "ication", "3083": "car", "3084": "essed", "3085": " die", "3086": " trust", "3087": " wis", "3088": "ables", "3089": " bott", "3090": " exact", "3091": " future", "3092": " lips", "3093": " ××", "3094": " enc", "3095": " beauty", "3096": " clot", "3097": "itation", "3098": "ointed", "3099": " organ", "3100": "cceed", "3101": " music", "3102": " trouble", "3103": " shar", "3104": " condition", "3105": "pri", "3106": " cru", "3107": " terri", "3108": " occur", "3109": " ...", "3110": " ×××", "3111": " Paris", "3112": " mad", "3113": " ××", "3114": " spo", "3115": "por", "3116": " Lady", "3117": "ingu", "3118": " horses", "3119": "ulty", "3120": " mass", "3121": " Jack", "3122": "said", "3123": "uation", "3124": " meant", "3125": "little", "3126": "TION", "3127": " easy", "3128": "×©××", "3129": " cases", "3130": "istr", "3131": "erson", "3132": "olly", "3133": "ourt", "3134": " generally", "3135": "×××", "3136": " Qu", "3137": "×¨×ª", "3138": "known", "3139": "rig", "3140": "AM", "3141": "reek", "3142": "place", "3143": " places", "3144": " smile", "3145": " broken", "3146": "formation", "3147": "\",", "3148": "omin", "3149": " vict", "3150": " ball", "3151": "action", "3152": "ashion", "3153": " immediately", "3154": "fact", "3155": " consequ", "3156": " viol", "3157": " ×¢×", "3158": " ××¢", "3159": "ox", "3160": "××", "3161": " yes", "3162": " drink", "3163": "××", "3164": " ×××", "3165": " whis", "3166": "enn", "3167": " express", "3168": " separ", "3169": "oup", "3170": " convers", "3171": "bles", "3172": "before", "3173": " inn", "3174": " standing", "3175": "osop", "3176": " letters", "3177": " cry", "3178": " safe", "3179": " north", "3180": " fle", "3181": "ams", "3182": "ades", "3183": "Ar", "3184": " save", "3185": " silence", "3186": " rapid", "3187": " lines", "3188": " hop", "3189": "aries", "3190": "iced", "3191": " Count", "3192": " lie", "3193": " super", "3194": "×¨×", "3195": " West", "3196": " books", "3197": " instead", "3198": " started", "3199": " cost", "3200": "een", "3201": " figure", "3202": "unk", "3203": " cre", "3204": " beginning", "3205": "noon", "3206": " wrote", "3207": "Al", "3208": "Ä", "3209": " thoughts", "3210": "inite", "3211": " fresh", "3212": " famil", "3213": " shad", "3214": "uted", "3215": "orough", "3216": " simple", "3217": " knows", "3218": "your", "3219": "=,", "3220": "acher", "3221": " walked", "3222": "Is", "3223": "lt", "3224": " State", "3225": "while", "3226": " youth", "3227": " carry", "3228": " drew", "3229": " formed", "3230": "iden", "3231": "III", "3232": " caught", "3233": "Be", "3234": " phys", "3235": " comb", "3236": "iles", "3237": " stone", "3238": " tree", "3239": "icate", "3240": "ov", "3241": " Well", "3242": " IN", "3243": " ××", "3244": " fru", "3245": "mbers", "3246": " influence", "3247": " appearance", "3248": " Tom", "3249": "~,", "3250": " press", "3251": "rang", "3252": " arrived", "3253": "itive", "3254": " United", "3255": "uded", "3256": "istic", "3257": "His", "3258": " ves", "3259": ".â", "3260": " piece", "3261": "CH", "3262": " Don", "3263": " ancient", "3264": " une", "3265": " capt", "3266": "bered", "3267": "AS", "3268": " civil", "3269": " slowly", "3270": " II", "3271": " lower", "3272": "only", "3273": "ett", "3274": " sin", "3275": "isc", "3276": " thinking", "3277": "asp", "3278": "itable", "3279": " afraid", "3280": "uses", "3281": "Do", "3282": "ashing", "3283": " America", "3284": " girls", "3285": " struck", "3286": " god", "3287": " raised", "3288": " hy", "3289": " fing", "3290": "imin", "3291": "Of", "3292": "work", "3293": " easily", "3294": "         ", "3295": " enter", "3296": " straight", "3297": " noble", "3298": "×¨×", "3299": " host", "3300": " due", "3301": " hath", "3302": " Indian", "3303": " broad", "3304": "riend", "3305": "reet", "3306": " unto", "3307": "ales", "3308": "ishop", "3309": " works", "3310": " usual", "3311": "every", "3312": "istance", "3313": " value", "3314": "ization", "3315": " prevent", "3316": " moved", "3317": " merely", "3318": "ague", "3319": " presence", "3320": "××", "3321": "bar", "3322": " observed", "3323": "××ª×", "3324": " sole", "3325": " seeing", "3326": " impossible", "3327": "pel", "3328": " filled", "3329": " pull", "3330": " getting", "3331": " shown", "3332": " quickly", "3333": " write", "3334": " liter", "3335": " spring", "3336": "ean", "3337": "anted", "3338": " pun", "3339": " cover", "3340": "vation", "3341": "aste", "3342": "illy", "3343": " El", "3344": " south", "3345": " sick", "3346": "gment", "3347": " liber", "3348": " glass", "3349": " giving", "3350": "rol", "3351": "××", "3352": "UR", "3353": " succeed", "3354": " seven", "3355": " dinner", "3356": "ux", "3357": " direction", "3358": " loc", "3359": "ocked", "3360": " lives", "3361": " Henry", "3362": "ails", "3363": " mot", "3364": " evil", "3365": " House", "3366": " method", "3367": " afterwards", "3368": " vessel", "3369": "omes", "3370": "zen", "3371": "wood", "3372": "IT", "3373": "esty", "3374": " laughed", "3375": "irth", "3376": "sk", "3377": "umed", "3378": "ners", "3379": " language", "3380": " entirely", "3381": " guard", "3382": "raw", "3383": " forget", "3384": "zz", "3385": " covered", "3386": " individual", "3387": "erve", "3388": " oblig", "3389": " gaz", "3390": "two", "3391": "field", "3392": " board", "3393": "ris", "3394": "uge", "3395": "ENT", "3396": " Comm", "3397": "××", "3398": "rid", "3399": "Â ", "3400": "olved", "3401": "Ö¶Ö¼", "3402": "pany", "3403": " stopped", "3404": " learned", "3405": " introdu", "3406": "iments", "3407": " Sha", "3408": "oom", "3409": "iring", "3410": "jo", "3411": " expression", "3412": "×¢×", "3413": " cloud", "3414": "eb", "3415": "ustri", "3416": "aced", "3417": " ×××¨", "3418": " ×× ", "3419": " street", "3420": " material", "3421": "idenote", "3422": " officers", "3423": "resp", "3424": " somewhat", "3425": "icated", "3426": " ××", "3427": " expected", "3428": " shore", "3429": " journey", "3430": " extra", "3431": " paid", "3432": "happ", "3433": " La", "3434": "××", "3435": " firm", "3436": " ign", "3437": " contain", "3438": "××", "3439": " tears", "3440": " whatever", "3441": "back", "3442": "uly", "3443": " trem", "3444": " process", "3445": " village", "3446": "ugust", "3447": "itch", "3448": " experience", "3449": "ibly", "3450": "\".", "3451": " floor", "3452": " outside", "3453": "ibility", "3454": "estions", "3455": "made", "3456": " spot", "3457": "clock", "3458": "bing", "3459": "RO", "3460": "eed", "3461": " news", "3462": " Ste", "3463": "umn", "3464": " virt", "3465": "present", "3466": "lying", "3467": "occ", "3468": "olution", "3469": "fast", "3470": " race", "3471": "One", "3472": " furn", "3473": " married", "3474": "through", "3475": " grew", "3476": "Ö°×", "3477": " ban", "3478": "sed", "3479": "know", "3480": "arily", "3481": "Sidenote", "3482": " Oh", "3483": "After", "3484": " middle", "3485": " health", "3486": " scene", "3487": " grave", "3488": " path", "3489": " wait", "3490": ");", "3491": " pure", "3492": "erous", "3493": " design", "3494": " South", "3495": " charge", "3496": "eds", "3497": " sad", "3498": "oyal", "3499": " leaving", "3500": "cher", "3501": " society", "3502": " bank", "3503": "antage", "3504": "ourse", "3505": " Fran", "3506": "even", "3507": " apparent", "3508": " showed", "3509": "×¤×ª", "3510": " Tr", "3511": " greatest", "3512": "may", "3513": " picture", "3514": " ××©", "3515": "kind", "3516": " neck", "3517": " forms", "3518": "enced", "3519": " depend", "3520": " iron", "3521": "apers", "3522": "omen", "3523": " Sh", "3524": " amount", "3525": " impro", "3526": " tot", "3527": " equal", "3528": "sub", "3529": " allowed", "3530": "IG", "3531": " breath", "3532": " modern", "3533": " gall", "3534": " Pres", "3535": " bran", "3536": " ××", "3537": " gives", "3538": " loved", "3539": "AD", "3540": "culiar", "3541": "×× ×", "3542": " pra", "3543": " ,", "3544": " ×××", "3545": "ergy", "3546": "nat", "3547": "_;", "3548": "yl", "3549": "××", "3550": " Lou", "3551": " considered", "3552": " doctor", "3553": " tone", "3554": "good", "3555": " special", "3556": " built", "3557": "ys", "3558": " summer", "3559": "ify", "3560": " sitting", "3561": " ××", "3562": " ×¢×", "3563": " mess", "3564": " James", "3565": " fal", "3566": " fem", "3567": " test", "3568": "Let", "3569": "ishment", "3570": "             ", "3571": "By", "3572": " commun", "3573": "××", "3574": " lord", "3575": " claim", "3576": " shout", "3577": "heart", "3578": " cop", "3579": " chap", "3580": " changed", "3581": " similar", "3582": " ph", "3583": "×¦×", "3584": " reach", "3585": "\n\n                                ", "3586": " goes", "3587": "\n\n                ", "3588": "reen", "3589": " forgot", "3590": "lex", "3591": " di", "3592": "× ×¡", "3593": "ien", "3594": " members", "3595": " waiting", "3596": " cou", "3597": " killed", "3598": " hero", "3599": "amb", "3600": "ception", "3601": "char", "3602": "olic", "3603": "××ª", "3604": " foreign", "3605": " study", "3606": "opt", "3607": " laws", "3608": " hung", "3609": "AC", "3610": "bec", "3611": "hest", "3612": " box", "3613": "××", "3614": " hall", "3615": " decided", "3616": " hang", "3617": " tend", "3618": " exper", "3619": "Don", "3620": " temper", "3621": "elve", "3622": " born", "3623": "× ××ª", "3624": " concern", "3625": " Que", "3626": " likely", "3627": " strugg", "3628": "rect", "3629": "iny", "3630": " Rome", "3631": " drawn", "3632": "osite", "3633": "ented", "3634": " minute", "3635": " mach", "3636": "lend", "3637": "mitted", "3638": "Mrs", "3639": " broke", "3640": "×× ×", "3641": " afternoon", "3642": "himself", "3643": "US", "3644": " custom", "3645": "umb", "3646": "conom", "3647": " forest", "3648": "down", "3649": " opport", "3650": " grace", "3651": "thought", "3652": " ××", "3653": "erved", "3654": "IV", "3655": " kne", "3656": " ××", "3657": " rate", "3658": "××", "3659": "cription", "3660": "lar", "3661": " circumstances", "3662": " Sm", "3663": "col", "3664": " Roman", "3665": " snow", "3666": " lif", "3667": " ××ª", "3668": " repeated", "3669": "acc", "3670": " cat", "3671": "stant", "3672": "rees", "3673": " private", "3674": " loss", "3675": " spread", "3676": "ceived", "3677": " mut", "3678": "××", "3679": " please", "3680": "×××", "3681": "ification", "3682": "tra", "3683": "lin", "3684": "××ª", "3685": " winter", "3686": "rant", "3687": "play", "3688": "××¨×", "3689": " usually", "3690": "IR", "3691": " species", "3692": " destroy", "3693": " authority", "3694": " earn", "3695": " walls", "3696": " ××¡", "3697": "pet", "3698": "#,", "3699": " Government", "3700": "soci", "3701": " utter", "3702": "fortun", "3703": "morrow", "3704": " ××", "3705": " doll", "3706": " wise", "3707": " beside", "3708": "these", "3709": " sli", "3710": " ×× ×", "3711": "first", "3712": " phil", "3713": " escape", "3714": " ×¨×§", "3715": "eder", "3716": " tender", "3717": "such", "3718": " publ", "3719": " Where", "3720": " ×××", "3721": " deb", "3722": " id", "3723": " dread", "3724": " silent", "3725": "rif", "3726": " educ", "3727": " dry", "3728": " Yet", "3729": " shot", "3730": " reve", "3731": " eager", "3732": " property", "3733": "pal", "3734": " fifty", "3735": "Ö¶×", "3736": " supposed", "3737": " stock", "3738": "Ex", "3739": " ur", "3740": " closed", "3741": " produced", "3742": "chief", "3743": " example", "3744": "chant", "3745": " arg", "3746": " narrow", "3747": " etc", "3748": " bread", "3749": " favour", "3750": " maid", "3751": "law", "3752": "ere", "3753": "peror", "3754": "ieve", "3755": ".\"--_", "3756": " cab", "3757": " excell", "3758": " scarcely", "3759": " Father", "3760": " fit", "3761": " constit", "3762": " Bur", "3763": " meeting", "3764": "lly", "3765": " sand", "3766": " houses", "3767": "somet", "3768": "OT", "3769": "bre", "3770": "aces", "3771": "×¤×©", "3772": " surr", "3773": " miss", "3774": " cit", "3775": " corner", "3776": "ville", "3777": " distingu", "3778": " ×¢××", "3779": "worth", "3780": " rise", "3781": " Mon", "3782": " Russ", "3783": " song", "3784": " Ã", "3785": " support", "3786": "sur", "3787": "ok", "3788": " fish", "3789": " declared", "3790": " distinct", "3791": " attend", "3792": "nce", "3793": " evidence", "3794": " War", "3795": "ois", "3796": "×§×¨", "3797": " game", "3798": " names", "3799": " steps", "3800": " extreme", "3801": " ××¨", "3802": " fra", "3803": "retched", "3804": "××¨×", "3805": " building", "3806": " ××", "3807": " crit", "3808": " ××", "3809": " Peter", "3810": " moon", "3811": "alt", "3812": " magn", "3813": " pleasant", "3814": " leaves", "3815": " Great", "3816": " neg", "3817": "vey", "3818": " North", "3819": " ××", "3820": "much", "3821": " Prince", "3822": "order", "3823": " discuss", "3824": " remem", "3825": "ancing", "3826": "××¦", "3827": " elect", "3828": "arer", "3829": "gypt", "3830": " offer", "3831": "race", "3832": " speech", "3833": " ××", "3834": " unless", "3835": "ET", "3836": " soldiers", "3837": "might", "3838": " der", "3839": "udd", "3840": " notice", "3841": "?'", "3842": " Indians", "3843": " surface", "3844": " band", "3845": "ology", "3846": " ant", "3847": "××ª", "3848": " heat", "3849": " simply", "3850": " space", "3851": "hal", "3852": " ×©× ", "3853": " XX", "3854": " meaning", "3855": " Charles", "3856": " trying", "3857": " sky", "3858": " touch", "3859": " honour", "3860": " appears", "3861": " passing", "3862": " fixed", "3863": "antic", "3864": "itor", "3865": "Here", "3866": " passage", "3867": " Min", "3868": " garden", "3869": "father", "3870": "×©×ª", "3871": " bow", "3872": "Ã¨", "3873": "did", "3874": " witness", "3875": " ×¢×¦", "3876": " officer", "3877": " exec", "3878": ".~", "3879": "idden", "3880": "iration", "3881": "gain", "3882": " ones", "3883": " ladies", "3884": " speaking", "3885": "habit", "3886": " wished", "3887": " artic", "3888": "without", "3889": " thirty", "3890": "nal", "3891": " serious", "3892": " peculiar", "3893": " silver", "3894": "idently", "3895": " ess", "3896": " religion", "3897": " mountain", "3898": "×¢×¨", "3899": " existence", "3900": " running", "3901": " personal", "3902": " pursu", "3903": " fail", "3904": "          ", "3905": "lished", "3906": " month", "3907": "aped", "3908": "ounced", "3909": " Jes", "3910": " pet", "3911": " kiss", "3912": " original", "3913": " ××¤", "3914": " apart", "3915": " rule", "3916": " marriage", "3917": "××", "3918": "rec", "3919": " Span", "3920": "ste", "3921": " habit", "3922": " nation", "3923": " passion", "3924": "dif", "3925": " conversation", "3926": "××", "3927": " revol", "3928": " train", "3929": "iently", "3930": " Their", "3931": "stone", "3932": " ××", "3933": "ik", "3934": " conduct", "3935": " ×××", "3936": " rul", "3937": " exerc", "3938": " speed", "3939": "emed", "3940": " vain", "3941": " Paul", "3942": "cket", "3943": " progress", "3944": " discovered", "3945": " mort", "3946": " stop", "3947": " hill", "3948": " determined", "3949": " higher", "3950": "half", "3951": " political", "3952": " aut", "3953": "\n\n                        ", "3954": " degree", "3955": "ias", "3956": " Thus", "3957": " social", "3958": " mel", "3959": " Every", "3960": "pered", "3961": ":--", "3962": " animal", "3963": "×¢××", "3964": " captain", "3965": " Thom", "3966": "ortion", "3967": "yle", "3968": "ailed", "3969": " sides", "3970": "rown", "3971": "EC", "3972": " fashion", "3973": " troops", "3974": "\n\n      ", "3975": " turning", "3976": " caused", "3977": " allow", "3978": " believed", "3979": "×¨××©", "3980": "ctr", "3981": " animals", "3982": ",â", "3983": " beat", "3984": " shut", "3985": " ××¦", "3986": "umber", "3987": "orry", "3988": " absolute", "3989": "ternal", "3990": " reply", "3991": " pale", "3992": " ××", "3993": " fro", "3994": "ffic", "3995": "Ä«", "3996": " ×××", "3997": "being", "3998": " ways", "3999": " difficulty", "4000": "ander", "4001": "ially", "4002": " receive", "4003": " ××", "4004": "ected", "4005": " proved", "4006": "view", "4007": " weight", "4008": " orders", "4009": "From", "4010": " symp", "4011": " Jew", "4012": " lot", "4013": " interesting", "4014": " writing", "4015": " offered", "4016": "standing", "4017": "ids", "4018": " ep", "4019": "oned", "4020": " tit", "4021": "××", "4022": " flowers", "4023": " kill", "4024": " dom", "4025": " working", "4026": " upper", "4027": "ded", "4028": " surprise", "4029": "×× ××", "4030": "hib", "4031": " Cor", "4032": " required", "4033": " deli", "4034": " Sam", "4035": "ems", "4036": " bod", "4037": "bey", "4038": " instant", "4039": " prepared", "4040": "lement", "4041": " +", "4042": " susp", "4043": "uments", "4044": " ×¨×", "4045": "ability", "4046": "sing", "4047": " philosop", "4048": "vention", "4049": " sav", "4050": " ordered", "4051": " Who", "4052": "eav", "4053": " Even", "4054": " August", "4055": "Con", "4056": "vis", "4057": " imm", "4058": " spent", "4059": "must", "4060": " serve", "4061": " sail", "4062": " van", "4063": "respond", "4064": "supp", "4065": " appre", "4066": " conditions", "4067": " obtained", "4068": " Our", "4069": " beneath", "4070": "ashed", "4071": " Co", "4072": " stage", "4073": "Ind", "4074": "asons", "4075": "cer", "4076": "×××", "4077": "ental", "4078": "×××", "4079": " Sec", "4080": " cand", "4081": " sufficient", "4082": " Bo", "4083": "ading", "4084": "those", "4085": " ourselves", "4086": "orious", "4087": " grass", "4088": " trade", "4089": " points", "4090": " wine", "4091": " ××", "4092": "isters", "4093": "eping", "4094": "isto", "4095": "ators", "4096": " Colonel", "4097": " Rep", "4098": " matters", "4099": "aval", "4100": "dist", "4101": " situation", "4102": " ××", "4103": "Un", "4104": " agree", "4105": "gel", "4106": " coast", "4107": " trave", "4108": "exp", "4109": " stro", "4110": " reading", "4111": " ××", "4112": " religious", "4113": "quis", "4114": " justice", "4115": " understood", "4116": " ××", "4117": " Mor", "4118": " west", "4119": "ensive", "4120": " moral", "4121": "××", "4122": " bas", "4123": " takes", "4124": "arl", "4125": " movement", "4126": " ring", "4127": " ris", "4128": " Cal", "4129": " cult", "4130": " ××§", "4131": " sharp", "4132": " calm", "4133": " pp", "4134": "aret", "4135": " bitter", "4136": "           ", "4137": " Dav", "4138": "lls", "4139": " motion", "4140": " heads", "4141": " looks", "4142": "ival", "4143": " ordinary", "4144": "duced", "4145": "four", "4146": "×× ×", "4147": " island", "4148": " size", "4149": " spite", "4150": "oles", "4151": " search", "4152": "aked", "4153": " clean", "4154": " proud", "4155": " height", "4156": "cts", "4157": " measure", "4158": "igned", "4159": "estern", "4160": " judge", "4161": " cup", "4162": " military", "4163": " smiled", "4164": " spir", "4165": "atin", "4166": " polic", "4167": "stru", "4168": "irgin", "4169": " finally", "4170": " Jan", "4171": " av", "4172": " Just", "4173": "urally", "4174": "ulf", "4175": " mentioned", "4176": " sorrow", "4177": " spec", "4178": "inted", "4179": "fit", "4180": " ideas", "4181": " capital", "4182": " pleased", "4183": "_)", "4184": " fol", "4185": " false", "4186": " considerable", "4187": "found", "4188": " happiness", "4189": " seat", "4190": "Eng", "4191": " smo", "4192": " grad", "4193": " Gl", "4194": " station", "4195": " rare", "4196": "orne", "4197": "give", "4198": " crown", "4199": " Sw", "4200": " couldn", "4201": " ×××", "4202": " stream", "4203": " Frank", "4204": " adopt", "4205": "think", "4206": " weeks", "4207": " threat", "4208": " ow", "4209": "oseph", "4210": "cip", "4211": " Queen", "4212": " terms", "4213": "Ö¸×", "4214": "bell", "4215": " perfectly", "4216": "water", "4217": " fruit", "4218": " drawing", "4219": " talking", "4220": "×× ", "4221": "inal", "4222": " memory", "4223": "appeared", "4224": " III", "4225": "eper", "4226": "Ah", "4227": "×¤×", "4228": " inj", "4229": " instance", "4230": "cks", "4231": " cell", "4232": " twelve", "4233": " ears", "4234": " pieces", "4235": "\n                                ", "4236": " conscious", "4237": "using", "4238": "ses", "4239": "Where", "4240": "sl", "4241": "ait", "4242": " described", "4243": "icks", "4244": " fully", "4245": "ocks", "4246": " Bel", "4247": " emp", "4248": " ST", "4249": " favor", "4250": " avo", "4251": "aud", "4252": " Egypt", "4253": " ×× ", "4254": " roy", "4255": "rose", "4256": " terrible", "4257": " effort", "4258": " possession", "4259": " rid", "4260": "ae", "4261": " Ne", "4262": " ×××", "4263": " Mc", "4264": "rey", "4265": " opposite", "4266": "essor", "4267": " wealth", "4268": "rict", "4269": "looking", "4270": "××", "4271": "friend", "4272": " greatly", "4273": " bill", "4274": "gen", "4275": " writ", "4276": " descend", "4277": "perior", "4278": " Ant", "4279": "iqu", "4280": " bab", "4281": " bottom", "4282": " facts", "4283": " pot", "4284": " difference", "4285": "rud", "4286": " Tur", "4287": "urd", "4288": " Rev", "4289": " Court", "4290": "van", "4291": " earli", "4292": " report", "4293": " vast", "4294": "               ", "4295": " thin", "4296": " lying", "4297": "ora", "4298": " fier", "4299": " curious", "4300": " wouldn", "4301": " opportunity", "4302": " rain", "4303": " tong", "4304": " Dan", "4305": " vent", "4306": "aver", "4307": " prove", "4308": " sake", "4309": " importance", "4310": " advantage", "4311": " splend", "4312": " wel", "4313": "icious", "4314": " Him", "4315": " star", "4316": " valley", "4317": " threw", "4318": " ignor", "4319": "×× ××ª", "4320": "asc", "4321": "ulous", "4322": " du", "4323": " clothes", "4324": " darkness", "4325": " fallen", "4326": " regular", "4327": " rail", "4328": " fright", "4329": " Ham", "4330": " questions", "4331": " frequently", "4332": " stir", "4333": " Cong", "4334": " promise", "4335": " tele", "4336": " engaged", "4337": " accompl", "4338": " courage", "4339": " gro", "4340": "bu", "4341": "××¨", "4342": " steam", "4343": " Ric", "4344": "key", "4345": " Dick", "4346": " od", "4347": " worse", "4348": " ××", "4349": " cred", "4350": " edge", "4351": "×××", "4352": "ata", "4353": " dam", "4354": "ograph", "4355": " cheer", "4356": " price", "4357": "\n\n                            ", "4358": " yellow", "4359": " portion", "4360": " imper", "4361": "esh", "4362": " season", "4363": " Af", "4364": "hor", "4365": " popular", "4366": "ule", "4367": "ajesty", "4368": " taste", "4369": "ended", "4370": " tran", "4371": "fall", "4372": "OW", "4373": "Who", "4374": " brown", "4375": " ×××ª×", "4376": " gate", "4377": " trou", "4378": " × ×ª", "4379": "iation", "4380": "Com", "4381": "××", "4382": " weather", "4383": "ama", "4384": "ode", "4385": " {", "4386": "urb", "4387": "uary", "4388": "eal", "4389": "aker", "4390": " bare", "4391": " CHAPTER", "4392": " shook", "4393": " isn", "4394": "ese", "4395": "astic", "4396": "tering", "4397": " ×¨×", "4398": "sit", "4399": " native", "4400": " employed", "4401": "take", "4402": "ios", "4403": ",[", "4404": " earnest", "4405": " royal", "4406": " Madame", "4407": " burst", "4408": " lies", "4409": " finished", "4410": " hunt", "4411": " thank", "4412": " km", "4413": "jud", "4414": "hens", "4415": " thorough", "4416": " bless", "4417": "ores", "4418": " forced", "4419": " ××", "4420": " wonderful", "4421": " ××", "4422": "athered", "4423": " exactly", "4424": "ground", "4425": " arch", "4426": "atures", "4427": " obtain", "4428": "uten", "4429": " dwell", "4430": "say", "4431": "mission", "4432": " fortune", "4433": " Mer", "4434": " sour", "4435": "iance", "4436": " Louis", "4437": " purcha", "4438": "××", "4439": "atory", "4440": "turn", "4441": " affairs", "4442": "asures", "4443": " besides", "4444": " Wor", "4445": " tall", "4446": " glance", "4447": "ordinary", "4448": " spoken", "4449": " ×¢×", "4450": " holding", "4451": "rab", "4452": " east", "4453": "leep", "4454": " ××§", "4455": " conqu", "4456": " tea", "4457": "va", "4458": " page", "4459": "ranger", "4460": " carefully", "4461": "liament", "4462": " quant", "4463": "De", "4464": " servant", "4465": "hant", "4466": " aid", "4467": "×××ª", "4468": " pack", "4469": "pes", "4470": "cis", "4471": " Robert", "4472": " birds", "4473": "ky", "4474": "×××", "4475": " intended", "4476": " dise", "4477": " Old", "4478": " Duke", "4479": " independ", "4480": "people", "4481": " Ben", "4482": " colour", "4483": " Gr", "4484": " wid", "4485": " parent", "4486": " March", "4487": "comp", "4488": " compar", "4489": " freed", "4490": " loud", "4491": "cond", "4492": " dropped", "4493": "tw", "4494": " blind", "4495": " opening", "4496": " thrown", "4497": "uding", "4498": " uncle", "4499": "mas", "4500": "five", "4501": " bold", "4502": " × ×©", "4503": " Yes", "4504": " lean", "4505": "acle", "4506": "××¨", "4507": " familiar", "4508": "weh", "4509": " econom", "4510": "conscious", "4511": " famous", "4512": "usted", "4513": "three", "4514": " cook", "4515": " fill", "4516": "AG", "4517": " brave", "4518": " group", "4519": " Jer", "4520": " term", "4521": " intellig", "4522": "racted", "4523": " sorry", "4524": "hum", "4525": " ××ª", "4526": " San", "4527": " named", "4528": " rough", "4529": " birth", "4530": "burg", "4531": "!'", "4532": " Jud", "4533": "don", "4534": " Vol", "4535": "ipp", "4536": "cture", "4537": " total", "4538": "asts", "4539": " catch", "4540": "ege", "4541": "rael", "4542": "follow", "4543": " woods", "4544": " empt", "4545": " otherwise", "4546": "utions", "4547": " sword", "4548": "Per", "4549": " seek", "4550": "bro", "4551": " brief", "4552": " endeav", "4553": " type", "4554": " record", "4555": " bull", "4556": "acity", "4557": "Ã¡", "4558": " holy", "4559": " information", "4560": "erable", "4561": " cloth", "4562": "aches", "4563": " lose", "4564": "ferent", "4565": " citiz", "4566": " extent", "4567": "ousin", "4568": "inn", "4569": " egg", "4570": " Port", "4571": "ulated", "4572": " obliged", "4573": "cr", "4574": " wear", "4575": "gged", "4576": " suffer", "4577": " fault", "4578": " Yah", "4579": "alian", "4580": " arrange", "4581": " Greek", "4582": " particularly", "4583": " sought", "4584": "bon", "4585": "×¨××", "4586": "called", "4587": " blow", "4588": "oms", "4589": "inent", "4590": " honest", "4591": " removed", "4592": "××¨", "4593": "life", "4594": " excellent", "4595": "isions", "4596": " affection", "4597": "tis", "4598": " female", "4599": " established", "4600": "These", "4601": "asant", "4602": "outhern", "4603": "pret", "4604": " style", "4605": "Her", "4606": " relations", "4607": " fate", "4608": " plant", "4609": "child", "4610": " prince", "4611": "Mar", "4612": "____", "4613": " mountains", "4614": "athy", "4615": " rising", "4616": " pos", "4617": " univers", "4618": "last", "4619": " square", "4620": " pictures", "4621": "serv", "4622": " doctr", "4623": " President", "4624": "nes", "4625": "bly", "4626": "God", "4627": "ims", "4628": " anxious", "4629": " address", "4630": " Such", "4631": " share", "4632": " fancy", "4633": " tor", "4634": "ique", "4635": " presented", "4636": "asing", "4637": " Yahweh", "4638": " proble", "4639": " tax", "4640": "×¤×", "4641": "ieur", "4642": " dem", "4643": "ential", "4644": "theless", "4645": " pa", "4646": "ico", "4647": " ×××¨", "4648": " Joseph", "4649": "ufact", "4650": " settled", "4651": "verse", "4652": " honor", "4653": "pur", "4654": " occupied", "4655": " associ", "4656": " farm", "4657": " agreed", "4658": "interest", "4659": " contrary", "4660": " trad", "4661": " events", "4662": " larger", "4663": "._]", "4664": " aside", "4665": " mor", "4666": "necess", "4667": " vo", "4668": "adv", "4669": " event", "4670": "AND", "4671": " travel", "4672": "pers", "4673": "mind", "4674": " perform", "4675": "onder", "4676": " forty", "4677": " libr", "4678": " Jim", "4679": " faint", "4680": "del", "4681": "pected", "4682": " thro", "4683": " highest", "4684": " advance", "4685": "istory", "4686": "pril", "4687": " prec", "4688": "sw", "4689": "ault", "4690": " rob", "4691": "isl", "4692": " addition", "4693": " remains", "4694": " clim", "4695": "××£", "4696": "lection", "4697": " powers", "4698": "ID", "4699": " shoulder", "4700": " shape", "4701": "alities", "4702": " East", "4703": " concer", "4704": " refer", "4705": " pride", "4706": " aston", "4707": "pelled", "4708": "stance", "4709": "another", "4710": "ns", "4711": "cor", "4712": " dim", "4713": " sons", "4714": " June", "4715": " solemn", "4716": " glory", "4717": "isher", "4718": "xx", "4719": " guess", "4720": " flat", "4721": "wr", "4722": " worthy", "4723": " proof", "4724": " Ir", "4725": " priest", "4726": " inside", "4727": " watched", "4728": "anc", "4729": "OD", "4730": " waters", "4731": " marked", "4732": " practice", "4733": "uries", "4734": " skin", "4735": " illustr", "4736": " ×× ×", "4737": " fond", "4738": " roof", "4739": "udes", "4740": " national", "4741": "Good", "4742": " daily", "4743": " legs", "4744": " knowing", "4745": " Che", "4746": " nice", "4747": " promised", "4748": " July", "4749": " nine", "4750": " rend", "4751": "sat", "4752": " worked", "4753": " Mart", "4754": " storm", "4755": "mother", "4756": "chen", "4757": " distant", "4758": " afford", "4759": " suppl", "4760": " wounded", "4761": "pon", "4762": "Come", "4763": " tired", "4764": "×§×", "4765": " Union", "4766": "conf", "4767": " mir", "4768": " cool", "4769": " remembered", "4770": " feelings", "4771": " yield", "4772": "ker", "4773": " Oct", "4774": "book", "4775": "××", "4776": "inet", "4777": " kingdom", "4778": " Sy", "4779": " mighty", "4780": "whe", "4781": " ××¤", "4782": " quarter", "4783": " directly", "4784": "See", "4785": "ashington", "4786": "panied", "4787": " sevent", "4788": " advent", "4789": " Red", "4790": " gentlemen", "4791": " pocket", "4792": "against", "4793": " altogether", "4794": " ships", "4795": " dust", "4796": " flesh", "4797": " ××", "4798": "×¡×ª", "4799": "requ", "4800": "nothing", "4801": "onsieur", "4802": "cked", "4803": " aud", "4804": " apparently", "4805": " leading", "4806": " explained", "4807": "unch", "4808": " double", "4809": " ××§", "4810": " spirits", "4811": " Scot", "4812": " resem", "4813": " explain", "4814": "××××", "4815": "ushing", "4816": "ainted", "4817": " applied", "4818": " ere", "4819": " respons", "4820": " development", "4821": " needed", "4822": " refused", "4823": " provided", "4824": "still", "4825": "course", "4826": "×××", "4827": " bag", "4828": " confidence", "4829": " suggested", "4830": " remarkable", "4831": " numerous", "4832": " shows", "4833": "war", "4834": "lie", "4835": " produce", "4836": " shoulders", "4837": " Sch", "4838": " pit", "4839": "because", "4840": " interrupt", "4841": " Mag", "4842": " IV", "4843": " states", "4844": "unday", "4845": " River", "4846": " discover", "4847": " Pol", "4848": " TO", "4849": "uls", "4850": " fingers", "4851": " innoc", "4852": " served", "4853": " belief", "4854": "izing", "4855": " Thomas", "4856": "lebr", "4857": "uel", "4858": " instr", "4859": "gs", "4860": " establish", "4861": " pointed", "4862": " guns", "4863": " pair", "4864": "vi", "4865": "host", "4866": "hall", "4867": " dign", "4868": " population", "4869": " labor", "4870": "ouring", "4871": "isp", "4872": " grat", "4873": "ilities", "4874": "Christ", "4875": " reck", "4876": "aved", "4877": " lack", "4878": " equally", "4879": "×¤×", "4880": "cean", "4881": " breast", "4882": " throughout", "4883": " ××", "4884": "met", "4885": "Le", "4886": " dare", "4887": " vig", "4888": " Pet", "4889": " While", "4890": "cles", "4891": "estic", "4892": " major", "4893": "fin", "4894": " advanced", "4895": " windows", "4896": " superior", "4897": " prim", "4898": " Congress", "4899": " More", "4900": " gar", "4901": " succeeded", "4902": " hearts", "4903": " ××", "4904": " quietly", "4905": ".--_", "4906": " principle", "4907": " inhabit", "4908": " drive", "4909": " ××¨×", "4910": " played", "4911": " failed", "4912": " Mal", "4913": "Some", "4914": " nod", "4915": "rep", "4916": " mult", "4917": " liberty", "4918": " myst", "4919": " Ber", "4920": " male", "4921": "het", "4922": "Ö»", "4923": " current", "4924": " appointed", "4925": " log", "4926": "ipe", "4927": " Master", "4928": " increased", "4929": " regarded", "4930": " becomes", "4931": "appear", "4932": " judgment", "4933": " ××", "4934": " Brown", "4935": " bal", "4936": "UL", "4937": " forgotten", "4938": "stitution", "4939": " gain", "4940": " severe", "4941": "RA", "4942": " published", "4943": " surprised", "4944": "orous", "4945": " cruel", "4946": "×××", "4947": " expressed", "4948": " results", "4949": "×¨×", "4950": "away", "4951": " shadow", "4952": " joined", "4953": "mod", "4954": " Prof", "4955": " Afric", "4956": " faces", "4957": " ××", "4958": " transl", "4959": " keeping", "4960": " Alex", "4961": "utation", "4962": " nations", "4963": "ober", "4964": " golden", "4965": " base", "4966": "!--", "4967": "equ", "4968": " powerful", "4969": " ××××", "4970": " Street", "4971": "iece", "4972": " invest", "4973": " streets", "4974": "arest", "4975": "sue", "4976": " companion", "4977": " India", "4978": " actually", "4979": " Fort", "4980": "atives", "4981": "came", "4982": " stranger", "4983": "opp", "4984": "Sir", "4985": "something", "4986": "ivity", "4987": " Me", "4988": "onies", "4989": "ares", "4990": " servants", "4991": " prefer", "4992": " ×××", "4993": " marry", "4994": " Smith", "4995": " gas", "4996": "iber", "4997": "?â", "4998": " desired", "4999": " Su", "5000": "cur", "5001": "ological", "5002": " correspond", "5003": "rer", "5004": " Good", "5005": " z", "5006": "ension", "5007": "Ö¼,", "5008": " follows", "5009": " pity", "5010": "ranged", "5011": "Å", "5012": "post", "5013": "amm", "5014": " color", "5015": " soldier", "5016": " bell", "5017": " necessity", "5018": " (?", "5019": " entertain", "5020": " Mac", "5021": " Germany", "5022": " eld", "5023": " level", "5024": "ette", "5025": " demanded", "5026": " secure", "5027": " manif", "5028": " win", "5029": "Pr", "5030": "UB", "5031": "Pro", "5032": "Miss", "5033": " coat", "5034": " creature", "5035": "udden", "5036": "rain", "5037": " Law", "5038": "×¡×", "5039": "========", "5040": "××ª×", "5041": " text", "5042": " disapp", "5043": "ograp", "5044": "elle", "5045": "llen", "5046": " tongue", "5047": " Cath", "5048": "CE", "5049": " clearly", "5050": " rapidly", "5051": " instru", "5052": " finding", "5053": " que", "5054": "××", "5055": "line", "5056": " Coun", "5057": " figures", "5058": " taught", "5059": " rub", "5060": " issu", "5061": " Two", "5062": " pounds", "5063": " Sept", "5064": " useful", "5065": " Mount", "5066": "×©×", "5067": "many", "5068": "agon", "5069": " exceed", "5070": "terday", "5071": " Rom", "5072": " grown", "5073": " rank", "5074": " completely", "5075": " happen", "5076": "umes", "5077": " brill", "5078": " talked", "5079": "fam", "5080": " rad", "5081": " date", "5082": "utenant", "5083": " hurt", "5084": " evidently", "5085": " alive", "5086": "umph", "5087": "\n           ", "5088": " hills", "5089": " remarked", "5090": "ivered", "5091": " sch", "5092": " telling", "5093": " crossed", "5094": "stead", "5095": "power", "5096": "board", "5097": " growing", "5098": "ago", "5099": "oming", "5100": "wind", "5101": "world", "5102": " busy", "5103": "flict", "5104": " control", "5105": "××¢", "5106": "enes", "5107": "fle", "5108": " preced", "5109": " Lu", "5110": "×¨×¦", "5111": "itchen", "5112": " centre", "5113": " ×©×", "5114": " freedom", "5115": " exped", "5116": "itement", "5117": "bus", "5118": "××ª", "5119": " Jesus", "5120": " instit", "5121": " ×©×", "5122": " En", "5123": " official", "5124": " million", "5125": " Mil", "5126": " noticed", "5127": "cho", "5128": "EM", "5129": "poss", "5130": "mark", "5131": " gathered", "5132": " ain", "5133": "ding", "5134": " forces", "5135": "ieved", "5136": "woman", "5137": " relief", "5138": " Coll", "5139": " carrying", "5140": " breakfast", "5141": " Wil", "5142": " mas", "5143": "rue", "5144": " myster", "5145": "yr", "5146": " series", "5147": "×¡×¤×¨", "5148": " CH", "5149": " bodies", "5150": "atr", "5151": " waited", "5152": " Spanish", "5153": " surely", "5154": " willing", "5155": " moving", "5156": " throw", "5157": " tim", "5158": " hurried", "5159": "ca", "5160": " occurred", "5161": " task", "5162": " wisdom", "5163": " deser", "5164": " yours", "5165": " concerning", "5166": " increase", "5167": " touched", "5168": " driven", "5169": "ads", "5170": " bent", "5171": "hus", "5172": "\"'", "5173": " teeth", "5174": " Fred", "5175": " Black", "5176": " White", "5177": " wasn", "5178": " insp", "5179": "××", "5180": " spend", "5181": " unknown", "5182": " hosp", "5183": " luck", "5184": " papers", "5185": " midst", "5186": "nel", "5187": " minds", "5188": "×××", "5189": " lear", "5190": " mission", "5191": " Emperor", "5192": "ardon", "5193": " Italy", "5194": "top", "5195": "make", "5196": " Richard", "5197": " buy", "5198": " countries", "5199": "××", "5200": " histor", "5201": " aware", "5202": " milk", "5203": "× ×ª", "5204": " title", "5205": " rights", "5206": "utch", "5207": " admitted", "5208": "vin", "5209": "going", "5210": " Israel", "5211": " principal", "5212": "gent", "5213": "between", "5214": "Your", "5215": " proceeded", "5216": " fellows", "5217": " Ser", "5218": "×××", "5219": " stands", "5220": "ecause", "5221": "ixt", "5222": " consequence", "5223": "×©××ª", "5224": " handsome", "5225": "×××", "5226": "attered", "5227": " suffered", "5228": " asser", "5229": " gather", "5230": " ice", "5231": " content", "5232": " twice", "5233": " Hall", "5234": " lover", "5235": "×¤×", "5236": " naturally", "5237": "quar", "5238": "aling", "5239": "giv", "5240": " satisfied", "5241": " ×××", "5242": "aine", "5243": " intellect", "5244": "ceive", "5245": " pu", "5246": " April", "5247": " knight", "5248": " David", "5249": " Philip", "5250": "thur", "5251": " pick", "5252": "ration", "5253": "Will", "5254": "-----+-----+-----+-----+", "5255": " murm", "5256": "osen", "5257": "ara", "5258": " science", "5259": "××¨", "5260": " shame", "5261": " lod", "5262": " non", "5263": "ais", "5264": "ige", "5265": " truly", "5266": " ends", "5267": " rode", "5268": " vers", "5269": " assu", "5270": "held", "5271": " whispered", "5272": " subjects", "5273": " Your", "5274": "urity", "5275": "lor", "5276": " enemies", "5277": " sex", "5278": "aith", "5279": "ESS", "5280": " smoke", "5281": " yards", "5282": " empty", "5283": " dollars", "5284": " sacred", "5285": " salt", "5286": " swift", "5287": " Virgin", "5288": "point", "5289": " suspect", "5290": "mond", "5291": "Qu", "5292": "country", "5293": " principles", "5294": "bits", "5295": "shall", "5296": " putting", "5297": " dism", "5298": " First", "5299": "rifice", "5300": " shel", "5301": " fly", "5302": "eff", "5303": " harm", "5304": " brain", "5305": "××§", "5306": " Ven", "5307": "seen", "5308": " inches", "5309": " ×××", "5310": "â_", "5311": " bore", "5312": "contin", "5313": " lifted", "5314": " accepted", "5315": " amb", "5316": " ×××ª×", "5317": "isting", "5318": " Bra", "5319": "UM", "5320": " distinguished", "5321": "Cl", "5322": " wand", "5323": "esides", "5324": " require", "5325": " flo", "5326": "Re", "5327": " Ver", "5328": " huge", "5329": " education", "5330": " Med", "5331": " angry", "5332": " noise", "5333": " ××", "5334": " seized", "5335": "etch", "5336": " correct", "5337": " Fig", "5338": " saved", "5339": " Washington", "5340": "××", "5341": " mal", "5342": "Ã¢", "5343": " engine", "5344": " possessed", "5345": " ×××©", "5346": "uable", "5347": "uit", "5348": "enance", "5349": " walking", "5350": " supply", "5351": " ×©××", "5352": " ××× ", "5353": " spect", "5354": " shoot", "5355": " welcome", "5356": " arrival", "5357": "hem", "5358": "._)", "5359": " sugar", "5360": "× ××", "5361": " Part", "5362": "iest", "5363": "bury", "5364": "OS", "5365": " virtue", "5366": "×××ª", "5367": "arly", "5368": "astern", "5369": "ittee", "5370": "ta", "5371": " divine", "5372": " Pal", "5373": " novel", "5374": " Hel", "5375": " acquaint", "5376": "overy", "5377": " palace", "5378": " fighting", "5379": "teenth", "5380": "asy", "5381": " policy", "5382": " connected", "5383": " hide", "5384": " circle", "5385": "ORD", "5386": " wants", "5387": " nose", "5388": "things", "5389": "ele", "5390": " gloom", "5391": " contem", "5392": "iform", "5393": "×¦×", "5394": " ble", "5395": "Am", "5396": " listen", "5397": " numbers", "5398": "uated", "5399": " duties", "5400": "same", "5401": " efforts", "5402": " devil", "5403": " pron", "5404": " Jac", "5405": "var", "5406": "rat", "5407": " coff", "5408": " diss", "5409": "ishes", "5410": "Ab", "5411": " ××ª", "5412": " hither", "5413": " police", "5414": "×××¨", "5415": "lessly", "5416": " flight", "5417": "ada", "5418": "uts", "5419": " fan", "5420": " Its", "5421": "Ö¹Ö¼", "5422": "×××ª", "5423": " farther", "5424": " Sunday", "5425": "low", "5426": "pent", "5427": "det", "5428": " dangerous", "5429": " mile", "5430": " fer", "5431": " stones", "5432": " stars", "5433": "cribed", "5434": "izab", "5435": " dressed", "5436": " cro", "5437": "×× ×", "5438": " regret", "5439": " aver", "5440": " tal", "5441": " Spain", "5442": " Cam", "5443": "ERS", "5444": " tail", "5445": " growth", "5446": " represented", "5447": "vious", "5448": " Wal", "5449": "FF", "5450": "cknow", "5451": " struggle", "5452": " watching", "5453": "vest", "5454": "××¨××", "5455": "cast", "5456": " spr", "5457": "aunt", "5458": " Life", "5459": " Im", "5460": " chapter", "5461": " member", "5462": "themselves", "5463": "tending", "5464": " instinct", "5465": " prisoners", "5466": " celebr", "5467": " entrance", "5468": " join", "5469": " protect", "5470": " cow", "5471": "mense", "5472": " iii", "5473": " Perhaps", "5474": "too", "5475": "far", "5476": "rences", "5477": "stra", "5478": " â", "5479": " Prin", "5480": "abor", "5481": " divided", "5482": " impression", "5483": "ulate", "5484": " ××××¨", "5485": " Mont", "5486": " careful", "5487": " lands", "5488": " pan", "5489": " ××", "5490": "eling", "5491": " withd", "5492": " [_", "5493": " suspic", "5494": " murder", "5495": "illa", "5496": " hun", "5497": "boy", "5498": "aur", "5499": " ing", "5500": " splendid", "5501": " Act", "5502": "AY", "5503": "ââââââââ", "5504": "ributed", "5505": " begun", "5506": "agement", "5507": " solid", "5508": " acknow", "5509": " active", "5510": " connection", "5511": " closely", "5512": "aps", "5513": " theory", "5514": "disc", "5515": " ahead", "5516": " aim", "5517": "kins", "5518": " reader", "5519": " Jul", "5520": "ounding", "5521": " march", "5522": "sper", "5523": " treated", "5524": " spiritual", "5525": " excited", "5526": " continue", "5527": " rear", "5528": " ×××ª", "5529": " Sat", "5530": "irable", "5531": " hearing", "5532": "po", "5533": " Many", "5534": "atively", "5535": " aband", "5536": "×ª×", "5537": "iii", "5538": "××", "5539": " Des", "5540": "John", "5541": "×¨××", "5542": " falling", "5543": "anch", "5544": "ref", "5545": " fortun", "5546": " Major", "5547": " proportion", "5548": " carriage", "5549": " haven", "5550": "born", "5551": " wicked", "5552": " burning", "5553": " Heaven", "5554": " ride", "5555": " wore", "5556": " accompanied", "5557": "master", "5558": "Nor", "5559": " proposed", "5560": " wholly", "5561": " saf", "5562": "×ª×¨", "5563": " prayer", "5564": "â", "5565": " objects", "5566": " retreat", "5567": "others", "5568": "××", "5569": " ident", "5570": " district", "5571": " worst", "5572": "win", "5573": "happy", "5574": "Î¿", "5575": " minister", "5576": "circ", "5577": " copy", "5578": " advice", "5579": "ARD", "5580": " ge", "5581": " dull", "5582": "seless", "5583": " machine", "5584": " European", "5585": " volume", "5586": " presently", "5587": "ption", "5588": "ustomed", "5589": " highly", "5590": " Holy", "5591": " liked", "5592": "oused", "5593": " suit", "5594": " column", "5595": "rived", "5596": "taken", "5597": " admin", "5598": "plic", "5599": " defend", "5600": " genius", "5601": "####", "5602": "kin", "5603": "iable", "5604": "foot", "5605": " fifteen", "5606": " fairly", "5607": " interested", "5608": " soil", "5609": "oring", "5610": " rooms", "5611": " ××", "5612": " inhabitants", "5613": " earlier", "5614": " Spirit", "5615": "ds", "5616": "hon", "5617": " directed", "5618": "unning", "5619": " Latin", "5620": " hence", "5621": "inging", "5622": " san", "5623": " rom", "5624": "ovember", "5625": "aming", "5626": " bearing", "5627": "anim", "5628": "olid", "5629": " quantity", "5630": " singular", "5631": " persu", "5632": "tell", "5633": " lovely", "5634": " unf", "5635": "!â", "5636": " despair", "5637": "\n          ", "5638": "alls", "5639": "UN", "5640": " worn", "5641": " Wood", "5642": " Mark", "5643": "yer", "5644": " Harry", "5645": " relation", "5646": " calling", "5647": " ××", "5648": " interests", "5649": " project", "5650": " Did", "5651": "asted", "5652": "××", "5653": "went", "5654": "ourable", "5655": " Council", "5656": " stick", "5657": " reasons", "5658": " Dor", "5659": "â", "5660": " pred", "5661": "Ad", "5662": " concerned", "5663": " cler", "5664": "ugg", "5665": " imagine", "5666": " Sen", "5667": " suffering", "5668": "××", "5669": " hate", "5670": " heav", "5671": " flag", "5672": " Jo", "5673": " manufact", "5674": "××¨×", "5675": " absence", "5676": " constant", "5677": " crime", "5678": "××××", "5679": " dozen", "5680": "ician", "5681": " diam", "5682": " previous", "5683": " final", "5684": "took", "5685": " needs", "5686": "inking", "5687": "mist", "5688": " Irish", "5689": " pulled", "5690": " parties", "5691": " alt", "5692": "otes", "5693": "pres", "5694": " introduced", "5695": "stairs", "5696": "icular", "5697": "rors", "5698": "non", "5699": " extraordinary", "5700": " delay", "5701": "ilst", "5702": " ××", "5703": "××", "5704": " loose", "5705": " Royal", "5706": ".;", "5707": " transp", "5708": " doors", "5709": " grief", "5710": " hesit", "5711": " amongst", "5712": " indust", "5713": " Nature", "5714": "force", "5715": " unfortun", "5716": " gle", "5717": " keen", "5718": " notes", "5719": "Î±", "5720": " couple", "5721": " assured", "5722": "cember", "5723": " gradually", "5724": " store", "5725": "always", "5726": "omb", "5727": " gods", "5728": " gri", "5729": "×××", "5730": "ATION", "5731": " (?),", "5732": "return", "5733": " remind", "5734": " High", "5735": "En", "5736": "bid", "5737": "rated", "5738": " explan", "5739": "fulness", "5740": " local", "5741": " Cr", "5742": " stated", "5743": " reven", "5744": " ceased", "5745": " pill", "5746": "ino", "5747": "gate", "5748": "××¨", "5749": " tempt", "5750": " XV", "5751": " admit", "5752": " actual", "5753": " enthus", "5754": " prepar", "5755": "arth", "5756": "Did", "5757": " citizens", "5758": " writer", "5759": " reign", "5760": " obey", "5761": "rate", "5762": " mistake", "5763": "ointment", "5764": "iture", "5765": " ××", "5766": " fields", "5767": " worship", "5768": " patient", "5769": "#####", "5770": "#####|", "5771": " satisfaction", "5772": " listened", "5773": " showing", "5774": " fever", "5775": " rocks", "5776": "case", "5777": " dogs", "5778": "× ××ª", "5779": "ua", "5780": "lim", "5781": "Can", "5782": " Francis", "5783": " features", "5784": " nearer", "5785": " October", "5786": " drop", "5787": "itz", "5788": "General", "5789": " ×¦×¨", "5790": " thoroughly", "5791": " exercise", "5792": " desper", "5793": " weap", "5794": "ldom", "5795": "mo", "5796": "garet", "5797": "dire", "5798": "rows", "5799": " ××", "5800": "iah", "5801": " ××¦", "5802": " Joe", "5803": " Nat", "5804": " Edward", "5805": "epart", "5806": " Gree", "5807": "AP", "5808": "ââ", "5809": " towns", "5810": " description", "5811": " oil", "5812": " terror", "5813": " flour", "5814": "×§××", "5815": "agger", "5816": " market", "5817": " commanded", "5818": "oqu", "5819": " ----", "5820": "ealous", "5821": " convin", "5822": " energy", "5823": " bridge", "5824": " partly", "5825": "eless", "5826": " gained", "5827": " excitement", "5828": " affair", "5829": " Arch", "5830": " goods", "5831": " dance", "5832": " skill", "5833": " Bet", "5834": "Our", "5835": " labour", "5836": " deeply", "5837": "×××", "5838": " key", "5839": "years", "5840": "ropri", "5841": " sympathy", "5842": "× ××", "5843": " trial", "5844": " Ann", "5845": " possibly", "5846": "racters", "5847": "Ã¶", "5848": "uddenly", "5849": " supper", "5850": " ×¨×", "5851": " meat", "5852": "mat", "5853": " practical", "5854": " unable", "5855": " deck", "5856": "ica", "5857": " ××¤", "5858": "olit", "5859": "enny", "5860": " Italian", "5861": "onds", "5862": " Rob", "5863": " por", "5864": "inity", "5865": "AB", "5866": " evident", "5867": " amid", "5868": " Bill", "5869": " disease", "5870": " avoid", "5871": "agn", "5872": "ilty", "5873": " moments", "5874": "ula", "5875": " Hon", "5876": " profession", "5877": " Company", "5878": "hips", "5879": " ××", "5880": "amps", "5881": " recomm", "5882": "mosp", "5883": " safety", "5884": " plants", "5885": "××", "5886": "six", "5887": "door", "5888": " physical", "5889": " Only", "5890": " accident", "5891": "Ö´×", "5892": " queen", "5893": " dying", "5894": " literature", "5895": " smiling", "5896": " flower", "5897": " Grand", "5898": " ×××¨", "5899": "Just", "5900": " subs", "5901": " ××©×¨", "5902": " ×××¨", "5903": " Bob", "5904": "×¦×", "5905": " display", "5906": " stern", "5907": " cousin", "5908": " liqu", "5909": " Come", "5910": "Col", "5911": " exchan", "5912": " rout", "5913": "antry", "5914": " kitchen", "5915": "tle", "5916": "Pl", "5917": "coming", "5918": " ho", "5919": " Cast", "5920": " gay", "5921": "reason", "5922": "izabeth", "5923": "IST", "5924": "ocr", "5925": "××", "5926": " laughing", "5927": " approach", "5928": " changes", "5929": " tells", "5930": "ana", "5931": " buried", "5932": " hit", "5933": " cities", "5934": " Lie", "5935": " hopes", "5936": " privile", "5937": "×ª×", "5938": "sey", "5939": " library", "5940": " kindly", "5941": " teach", "5942": " Had", "5943": " prompt", "5944": " gray", "5945": " Pope", "5946": " rev", "5947": "also", "5948": " branches", "5949": " invent", "5950": "Americ", "5951": "eding", "5952": " understanding", "5953": " condem", "5954": " exha", "5955": "otton", "5956": "young", "5957": " kinds", "5958": "having", "5959": "gon", "5960": "satisf", "5961": "natural", "5962": "×¨×", "5963": " ××", "5964": "sil", "5965": "apan", "5966": "××ª×¨", "5967": " Du", "5968": " Sim", "5969": "Î½", "5970": "\n\n       ", "5971": " intention", "5972": " quality", "5973": " commer", "5974": " Was", "5975": "              ", "5976": " disci", "5977": "uther", "5978": " immediate", "5979": "la", "5980": " parents", "5981": "×©×", "5982": " absolutely", "5983": " successful", "5984": "eenth", "5985": " immense", "5986": " Div", "5987": " ××", "5988": " slightly", "5989": " consideration", "5990": " Reg", "5991": " composed", "5992": " Never", "5993": "put", "5994": "Mad", "5995": " However", "5996": " Ly", "5997": " Mex", "5998": " Men", "5999": "looked", "6000": " capable", "6001": "×××", "6002": " smooth", "6003": " effects", "6004": " doesn", "6005": " ended", "6006": " arranged", "6007": " Cons", "6008": " castle", "6009": " strike", "6010": "consider", "6011": "plain", "6012": "real", "6013": "cientific", "6014": " stead", "6015": " wet", "6016": " drove", "6017": " Cat", "6018": " sigh", "6019": "mus", "6020": " ×× ", "6021": " Feb", "6022": "Se", "6023": " clouds", "6024": " prisoner", "6025": "sent", "6026": "Or", "6027": " credit", "6028": " arose", "6029": " destroyed", "6030": "._--", "6031": " protection", "6032": " collect", "6033": " Sal", "6034": "Bl", "6035": " shouted", "6036": " ×¨×", "6037": " Pers", "6038": " anger", "6039": "pic", "6040": "_:", "6041": " iv", "6042": " baby", "6043": " calls", "6044": "white", "6045": "och", "6046": "bor", "6047": " assist", "6048": "×¤×§", "6049": "Ä", "6050": "ctive", "6051": "necessary", "6052": " adopted", "6053": " strict", "6054": " region", "6055": " defe", "6056": "edy", "6057": "While", "6058": " chamber", "6059": "acles", "6060": " Mus", "6061": " ××¢×", "6062": " inquir", "6063": " constantly", "6064": " playing", "6065": "prop", "6066": " Whe", "6067": " rejo", "6068": "sell", "6069": "oop", "6070": "arse", "6071": " treatment", "6072": " impat", "6073": " guide", "6074": " attached", "6075": " env", "6076": "ka", "6077": " appreci", "6078": " causes", "6079": "ruary", "6080": " doctrine", "6081": " striking", "6082": " grey", "6083": " raise", "6084": " City", "6085": " Moses", "6086": " chosen", "6087": " fold", "6088": " imagination", "6089": " shop", "6090": "zy", "6091": " cultiv", "6092": " foolish", "6093": "person", "6094": " seated", "6095": " Acc", "6096": " veget", "6097": " variety", "6098": " companions", "6099": " ××¨", "6100": " knees", "6101": " yesterday", "6102": "comfort", "6103": " choice", "6104": "however", "6105": "common", "6106": " assem", "6107": " Majesty", "6108": " surrounded", "6109": " sooner", "6110": " nur", "6111": " wed", "6112": " September", "6113": " arrest", "6114": " ×¢×", "6115": " Long", "6116": " Mo", "6117": "××£", "6118": " fought", "6119": "×¦×¨", "6120": " informed", "6121": " demon", "6122": " Hor", "6123": " Mars", "6124": " nerv", "6125": " escaped", "6126": "LI", "6127": " Professor", "6128": " conclusion", "6129": " ××¤× ×", "6130": " abund", "6131": "ront", "6132": "Ge", "6133": "urely", "6134": " tum", "6135": "OP", "6136": "××§×", "6137": " resolved", "6138": " plenty", "6139": " render", "6140": "imony", "6141": " Republic", "6142": " confess", "6143": " Thou", "6144": "Ö¹,", "6145": " reward", "6146": "large", "6147": " hoped", "6148": "strong", "6149": " Island", "6150": " precious", "6151": " frame", "6152": "duce", "6153": "× ××", "6154": " pil", "6155": "Ã¼", "6156": " brilliant", "6157": " argument", "6158": " Arthur", "6159": " repro", "6160": "inction", "6161": "eyes", "6162": " boats", "6163": "ogue", "6164": "aks", "6165": " Ph", "6166": "usual", "6167": " details", "6168": " assistance", "6169": "oft", "6170": " separate", "6171": " division", "6172": " friendly", "6173": "cra", "6174": " Catholic", "6175": " impress", "6176": " delicate", "6177": " thinks", "6178": " souls", "6179": " mental", "6180": " phr", "6181": " statement", "6182": " crew", "6183": " orn", "6184": " asleep", "6185": "writ", "6186": " ×©×", "6187": " fund", "6188": "ritory", "6189": " tent", "6190": "iosity", "6191": " message", "6192": " improve", "6193": "addle", "6194": " bringing", "6195": "ounce", "6196": "×××", "6197": " Go", "6198": "rog", "6199": " × ×¢", "6200": "riot", "6201": "love", "6202": " praise", "6203": " Book", "6204": " range", "6205": " devoted", "6206": "×××", "6207": " jew", "6208": "irs", "6209": "ai", "6210": "Every", "6211": " voices", "6212": " singing", "6213": " acts", "6214": " gently", "6215": " ruin", "6216": " cho", "6217": " emer", "6218": " mercy", "6219": "abb", "6220": " pressed", "6221": " Scott", "6222": " VI", "6223": " hidden", "6224": " lake", "6225": "pless", "6226": " whilst", "6227": " chiefly", "6228": " nobody", "6229": " dig", "6230": "oration", "6231": " branch", "6232": " slave", "6233": " attract", "6234": "inions", "6235": "×¤××", "6236": " caut", "6237": "heard", "6238": "××ª", "6239": "owder", "6240": " hole", "6241": "itated", "6242": " faithful", "6243": "ulse", "6244": " Doctor", "6245": " ×¢××¨", "6246": " wound", "6247": " ×××", "6248": " Â£", "6249": ".),", "6250": " older", "6251": " |#####|", "6252": " inquired", "6253": " maintain", "6254": " job", "6255": "oper", "6256": "eting", "6257": "esc", "6258": " stuff", "6259": " Â§", "6260": " Ire", "6261": "New", "6262": " rendered", "6263": "gram", "6264": "bridge", "6265": " sentence", "6266": " plate", "6267": "vert", "6268": "May", "6269": " ×¤×¨", "6270": "rible", "6271": "rous", "6272": " Arab", "6273": " neighbour", "6274": " \"_", "6275": "import", "6276": " visited", "6277": " prospect", "6278": " investig", "6279": " critic", "6280": "                         ", "6281": " disappeared", "6282": " Tra", "6283": " aunt", "6284": "_).", "6285": " conven", "6286": " bay", "6287": "wa", "6288": "gest", "6289": "inese", "6290": "perhaps", "6291": " Love", "6292": " extended", "6293": "phen", "6294": "asions", "6295": " stepped", "6296": " friendship", "6297": " teacher", "6298": "ourn", "6299": "××", "6300": " impl", "6301": "ums", "6302": "since", "6303": " unex", "6304": " services", "6305": "ERT", "6306": " shr", "6307": "mom", "6308": "Lord", "6309": " source", "6310": " pressure", "6311": " ×× ", "6312": " ham", "6313": " dawn", "6314": " mistress", "6315": " exception", "6316": " Parliament", "6317": " contained", "6318": " lit", "6319": "mir", "6320": " wings", "6321": " dignity", "6322": " blank", "6323": " amaz", "6324": " Hu", "6325": "tow", "6326": " ox", "6327": "gener", "6328": "istration", "6329": " views", "6330": " awful", "6331": " ××¢×", "6332": "question", "6333": "armed", "6334": "hend", "6335": "wick", "6336": " finger", "6337": " ma", "6338": " fourth", "6339": "rub", "6340": " experiment", "6341": " hotel", "6342": " seldom", "6343": " specim", "6344": " ××¢××¨", "6345": "ighed", "6346": " Chan", "6347": " Ah", "6348": "inate", "6349": " NA", "6350": " Ap", "6351": " behold", "6352": " emotion", "6353": " becoming", "6354": " families", "6355": "mbol", "6356": "××", "6357": " recognized", "6358": " purposes", "6359": " conscience", "6360": "----\"", "6361": "iel", "6362": " stories", "6363": " plans", "6364": "acon", "6365": "urbed", "6366": "name", "6367": " addressed", "6368": " Mat", "6369": " Somet", "6370": "Sc", "6371": " Prot", "6372": "××", "6373": " dischar", "6374": " kindness", "6375": " classes", "6376": "eps", "6377": " ×©×¢", "6378": " valuable", "6379": " attitude", "6380": "×× ××", "6381": "year", "6382": "aints", "6383": " printed", "6384": "beaut", "6385": "mosphere", "6386": " extremely", "6387": "omer", "6388": " wishes", "6389": "small", "6390": " signs", "6391": " helped", "6392": " tight", "6393": "matter", "6394": " vision", "6395": "ington", "6396": " wire", "6397": " silk", "6398": " smaller", "6399": " everywhere", "6400": " November", "6401": " tu", "6402": "Perhaps", "6403": " ×××", "6404": " ×××ª", "6405": " Cent", "6406": "atre", "6407": " mechan", "6408": "comple", "6409": " cabin", "6410": " thousands", "6411": " request", "6412": " Ros", "6413": " butter", "6414": "atus", "6415": "ena", "6416": " affected", "6417": "urches", "6418": " bought", "6419": " eggs", "6420": "elp", "6421": " sovere", "6422": "rary", "6423": "dem", "6424": " Prov", "6425": " infer", "6426": " Er", "6427": "osom", "6428": "mount", "6429": "full", "6430": " magnific", "6431": " cerem", "6432": " Those", "6433": "××©", "6434": " tur", "6435": "yet", "6436": "eight", "6437": " brothers", "6438": "success", "6439": "emy", "6440": "each", "6441": " savage", "6442": "character", "6443": " clergy", "6444": " horn", "6445": " problem", "6446": "Thus", "6447": " countenance", "6448": " Still", "6449": "oyage", "6450": " Day", "6451": "Par", "6452": " newsp", "6453": " Hill", "6454": "Never", "6455": "×××", "6456": " ven", "6457": "bour", "6458": " legisl", "6459": " definite", "6460": " committed", "6461": " Cont", "6462": " ax", "6463": " meal", "6464": " poetry", "6465": "offic", "6466": " article", "6467": " row", "6468": " blessed", "6469": " paused", "6470": " contempt", "6471": " offering", "6472": "Are", "6473": " interrupted", "6474": " vessels", "6475": " ×××", "6476": " merchant", "6477": " Austri", "6478": " weary", "6479": "oups", "6480": " contro", "6481": " ease", "6482": " ×¢×××", "6483": "among", "6484": "mis", "6485": "].", "6486": " January", "6487": " sacrifice", "6488": " recoll", "6489": " commission", "6490": "berg", "6491": "urance", "6492": " acquaintance", "6493": " Before", "6494": "ailing", "6495": " everybody", "6496": " ×××", "6497": " lat", "6498": " picked", "6499": "care", "6500": " lux", "6501": "once", "6502": "wild", "6503": " setting", "6504": " National", "6505": " Emp", "6506": "pat", "6507": " victory", "6508": " perman", "6509": " prosper", "6510": " Ac", "6511": " Park", "6512": " sounds", "6513": " boot", "6514": "uer", "6515": "ipped", "6516": " Are", "6517": " gift", "6518": " industry", "6519": " Governor", "6520": "××ª×", "6521": "uns", "6522": " pushed", "6523": "â", "6524": "mal", "6525": " created", "6526": " harmon", "6527": " Society", "6528": " returning", "6529": " ×× ×", "6530": " leaders", "6531": " throat", "6532": " condu", "6533": " ×××ª", "6534": " ages", "6535": "×§×", "6536": "×©×", "6537": " cord", "6538": " constitution", "6539": " indign", "6540": "tense", "6541": "icted", "6542": " amuse", "6543": " spark", "6544": "othe", "6545": " pages", "6546": "Ï", "6547": "HT", "6548": " obst", "6549": "×¢××¨", "6550": " Bishop", "6551": "table", "6552": " ×××××", "6553": " horiz", "6554": " ×××ª×¨", "6555": "seemed", "6556": " December", "6557": " sprang", "6558": " Jane", "6559": " ××¨", "6560": "gover", "6561": " innocent", "6562": " reference", "6563": " spl", "6564": " visible", "6565": " sentiment", "6566": "pter", "6567": " reality", "6568": " thanks", "6569": " measures", "6570": " ach", "6571": " discovery", "6572": "eral", "6573": "arded", "6574": " waste", "6575": "leg", "6576": "EAR", "6577": " indif", "6578": "                 ", "6579": " wheel", "6580": " Spe", "6581": "pir", "6582": "prise", "6583": "given", "6584": " learning", "6585": " nodded", "6586": "porary", "6587": " settle", "6588": " frequent", "6589": "ints", "6590": "××", "6591": "respect", "6592": " doth", "6593": "EW", "6594": " properly", "6595": " appeal", "6596": " jealous", "6597": "ange", "6598": "                           ", "6599": " Aunt", "6600": "××©×¨××", "6601": " granted", "6602": "eous", "6603": " triumph", "6604": " proc", "6605": " ×× ×", "6606": " Bay", "6607": " asking", "6608": " aspect", "6609": "cal", "6610": " mysterious", "6611": " regiment", "6612": " ××¢", "6613": "oston", "6614": "lers", "6615": " ××¨××©", "6616": "almost", "6617": "inger", "6618": "itect", "6619": "hind", "6620": " thrust", "6621": "bably", "6622": " â", "6623": " observe", "6624": " Ma", "6625": " uniform", "6626": "English", "6627": " painted", "6628": "withstanding", "6629": "hank", "6630": "rier", "6631": " ××©×¨××", "6632": "better", "6633": " Jos", "6634": " exhib", "6635": " mat", "6636": "tem", "6637": ";\"", "6638": " manifest", "6639": " comfortable", "6640": "ELL", "6641": "mean", "6642": "iron", "6643": "lease", "6644": "Go", "6645": " Î", "6646": " instrument", "6647": " clever", "6648": " guilty", "6649": " Far", "6650": " Lake", "6651": " rushed", "6652": "vals", "6653": "aign", "6654": "%,", "6655": " explanation", "6656": "amped", "6657": " Though", "6658": " sheep", "6659": "iated", "6660": " glorious", "6661": " strang", "6662": "find", "6663": " stiff", "6664": "port", "6665": "cap", "6666": "IM", "6667": " pap", "6668": "ifying", "6669": " Mass", "6670": " approached", "6671": " ×××ª", "6672": " manners", "6673": " Sav", "6674": " stairs", "6675": " universal", "6676": "                     ", "6677": "arry", "6678": "ribution", "6679": " dish", "6680": "pot", "6681": "ef", "6682": " characters", "6683": " poison", "6684": " qualities", "6685": " Mother", "6686": " debt", "6687": " chest", "6688": " armed", "6689": " abroad", "6690": " Ell", "6691": " Land", "6692": " ×××¨×", "6693": " Green", "6694": " bree", "6695": " operation", "6696": " instantly", "6697": " choose", "6698": " reduced", "6699": " suggest", "6700": " accustomed", "6701": "×××", "6702": "IX", "6703": " counter", "6704": " kings", "6705": " Margaret", "6706": "aughters", "6707": " Rose", "6708": "abled", "6709": "',", "6710": " Uncle", "6711": " anybody", "6712": "ements", "6713": "abs", "6714": "enger", "6715": " batt", "6716": " including", "6717": " consent", "6718": "hamed", "6719": "wers", "6720": ".â\"", "6721": " During", "6722": "ari", "6723": "lay", "6724": " Del", "6725": " ××", "6726": " Bible", "6727": " Cle", "6728": " Sar", "6729": " narr", "6730": "gments", "6731": "div", "6732": "Look", "6733": " schools", "6734": " compre", "6735": " convinced", "6736": " enjoyed", "6737": "change", "6738": " alike", "6739": "fig", "6740": " sell", "6741": " Ag", "6742": " domestic", "6743": " methods", "6744": " centuries", "6745": " Gra", "6746": " fo", "6747": "fire", "6748": " calcul", "6749": " sche", "6750": "upid", "6751": "×××", "6752": "acious", "6753": "cut", "6754": " violent", "6755": "iversity", "6756": "ANT", "6757": " sees", "6758": "Sh", "6759": "actory", "6760": " household", "6761": "ography", "6762": " softly", "6763": " leader", "6764": " delivered", "6765": " sen", "6766": " coffee", "6767": " Africa", "6768": " reflect", "6769": "inch", "6770": " issued", "6771": " dreams", "6772": " Sea", "6773": "ola", "6774": " Besides", "6775": "rad", "6776": "[=", "6777": " developed", "6778": " desert", "6779": " whence", "6780": "××", "6781": "tri", "6782": " mounted", "6783": " consult", "6784": " permitted", "6785": " ××", "6786": "Tis", "6787": " mystery", "6788": " infinite", "6789": "yard", "6790": " Elizabeth", "6791": " signific", "6792": " governor", "6793": "dro", "6794": "\"--", "6795": " ×××", "6796": " ××", "6797": " dreadful", "6798": " FOR", "6799": " ze", "6800": " Squ", "6801": "prom", "6802": " Russian", "6803": " Like", "6804": "iverse", "6805": " assumed", "6806": "inth", "6807": " charming", "6808": "mbly", "6809": "illery", "6810": "rait", "6811": "Dr", "6812": " February", "6813": " outer", "6814": " waves", "6815": "sim", "6816": "ban", "6817": " utmost", "6818": " compelled", "6819": " shell", "6820": "××¥", "6821": " Te", "6822": "×××", "6823": "sal", "6824": "moment", "6825": ".\"â_", "6826": "cel", "6827": " majority", "6828": " writers", "6829": "apole", "6830": "ria", "6831": "!_", "6832": "×××", "6833": " stret", "6834": "sembly", "6835": " risk", "6836": " Jews", "6837": " absurd", "6838": " accord", "6839": " throne", "6840": "iana", "6841": " leaf", "6842": "peare", "6843": " cart", "6844": "enough", "6845": "inci", "6846": "round", "6847": " articles", "6848": " indul", "6849": " rum", "6850": " Ireland", "6851": " swept", "6852": " ×××©", "6853": " section", "6854": "nds", "6855": "making", "6856": "UT", "6857": "×××", "6858": " Little", "6859": "umption", "6860": " convey", "6861": " hal", "6862": " net", "6863": "iast", "6864": "UC", "6865": "avalry", "6866": " readily", "6867": "forth", "6868": " recon", "6869": " sufficiently", "6870": "whole", "6871": " counsel", "6872": " difficulties", "6873": "?--", "6874": " essential", "6875": " × ×¤", "6876": " RE", "6877": " Mic", "6878": " lest", "6879": "hire", "6880": "regular", "6881": "                          ", "6882": " confusion", "6883": "pleasant", "6884": " Van", "6885": "erves", "6886": " ocean", "6887": " substance", "6888": " compet", "6889": " performed", "6890": "Î¹", "6891": "SE", "6892": " avail", "6893": "break", "6894": " excess", "6895": "bra", "6896": " schol", "6897": "brought", "6898": " Japan", "6899": " seed", "6900": " Ca", "6901": "Cha", "6902": "oser", "6903": "urther", "6904": " mood", "6905": "mouth", "6906": "effect", "6907": "Very", "6908": " Chinese", "6909": " fled", "6910": " clo", "6911": " vel", "6912": "apoleon", "6913": "home", "6914": "\n             ", "6915": " inclined", "6916": " defence", "6917": " inch", "6918": "ato", "6919": " accomplished", "6920": " Britain", "6921": " recent", "6922": " knife", "6923": "idents", "6924": " inner", "6925": "taking", "6926": " ideal", "6927": " ××£", "6928": "yes", "6929": "sis", "6930": "iate", "6931": " ~", "6932": " fatal", "6933": "grace", "6934": " Ang", "6935": " likewise", "6936": "],", "6937": "passed", "6938": "asket", "6939": "××¡×", "6940": " curiosity", "6941": "close", "6942": " procl", "6943": " lights", "6944": "ocking", "6945": "left", "6946": " cattle", "6947": "wing", "6948": " element", "6949": " strongly", "6950": " club", "6951": " noted", "6952": " fulf", "6953": "inations", "6954": "Have", "6955": " glanced", "6956": "ache", "6957": "--------------------------------", "6958": "××¨××ª", "6959": " wra", "6960": "days", "6961": " ××", "6962": " Monsieur", "6963": " issue", "6964": " eternal", "6965": " card", "6966": " ×××ª", "6967": " pardon", "6968": " batter", "6969": "greg", "6970": " probable", "6971": " FR", "6972": "quet", "6973": " hind", "6974": "morning", "6975": " expedition", "6976": " movements", "6977": " trail", "6978": " roll", "6979": " doc", "6980": "hael", "6981": " production", "6982": "assad", "6983": " lone", "6984": "olf", "6985": " Cross", "6986": " ben", "6987": "general", "6988": " fleet", "6989": " preserved", "6990": " subsequ", "6991": "ccles", "6992": " Have", "6993": " admiration", "6994": "hia", "6995": " Bon", "6996": "riff", "6997": "vell", "6998": " announced", "6999": "orial", "7000": " flying", "7001": " remaining", "7002": " intense", "7003": " frank", "7004": "bow", "7005": " departure", "7006": " using", "7007": " ××", "7008": " shining", "7009": "ado", "7010": "ancholy", "7011": " banks", "7012": " ×××", "7013": " Mill", "7014": " ascend", "7015": " TH", "7016": "both", "7017": "Sp", "7018": " nervous", "7019": " benefit", "7020": " rang", "7021": "ulations", "7022": "ressing", "7023": "osal", "7024": " Tem", "7025": "asses", "7026": "dra", "7027": "XX", "7028": " standard", "7029": " vac", "7030": "live", "7031": " belonged", "7032": " Ke", "7033": " Pat", "7034": "ball", "7035": " ××ª×", "7036": " perpet", "7037": " bark", "7038": " rules", "7039": "×©×", "7040": "org", "7041": " mixed", "7042": " gaze", "7043": " absor", "7044": "def", "7045": "hers", "7046": "stre", "7047": "zed", "7048": "children", "7049": "subject", "7050": " Anne", "7051": " ××××", "7052": " resour", "7053": " somewhere", "7054": " Es", "7055": "istent", "7056": "ante", "7057": " area", "7058": " suspicion", "7059": " observ", "7060": " Under", "7061": "ulture", "7062": "perfect", "7063": " Po", "7064": " bul", "7065": " Ter", "7066": " laughter", "7067": " lamp", "7068": " tale", "7069": " firmly", "7070": " Dar", "7071": "rian", "7072": "VE", "7073": " formerly", "7074": " occasionally", "7075": "ART", "7076": "cker", "7077": "umped", "7078": " BY", "7079": " Scotland", "7080": " northern", "7081": " ghost", "7082": " mankind", "7083": " cas", "7084": "Gu", "7085": "aws", "7086": " cott", "7087": " oath", "7088": "egro", "7089": " gets", "7090": "rific", "7091": "ouch", "7092": " tables", "7093": " charm", "7094": " ××", "7095": " Gall", "7096": " attended", "7097": "turned", "7098": " grant", "7099": "closed", "7100": "organ", "7101": " match", "7102": "_--", "7103": " structure", "7104": "oubt", "7105": " Art", "7106": " natives", "7107": "Â·", "7108": "GE", "7109": " containing", "7110": " rage", "7111": "ateful", "7112": "girl", "7113": "×¦×", "7114": "stri", "7115": " odd", "7116": " artist", "7117": " Other", "7118": " Each", "7119": " rust", "7120": " incident", "7121": " obsc", "7122": " frightened", "7123": " Cape", "7124": " pup", "7125": " utterly", "7126": " fix", "7127": " Val", "7128": " vague", "7129": " plainly", "7130": " destruction", "7131": " interpret", "7132": " ××", "7133": " pause", "7134": " bosom", "7135": " ignorant", "7136": " separated", "7137": " weakness", "7138": " hollow", "7139": "iasm", "7140": " wooden", "7141": " acted", "7142": " flood", "7143": "××", "7144": " Bell", "7145": " Sil", "7146": " habits", "7147": " precise", "7148": " slept", "7149": " ×¡×¤×¨", "7150": " vi", "7151": "ulgar", "7152": " Cap", "7153": "PH", "7154": " Secret", "7155": " retired", "7156": " puzz", "7157": " profound", "7158": " county", "7159": "××", "7160": "position", "7161": " Sand", "7162": "orable", "7163": "either", "7164": " execution", "7165": " electric", "7166": " horror", "7167": " slaves", "7168": " flame", "7169": "×××ª", "7170": "worthy", "7171": " anxiety", "7172": "××¨×", "7173": "........", "7174": " Indeed", "7175": "anything", "7176": " × ×", "7177": "aux", "7178": " thunder", "7179": " brig", "7180": " obed", "7181": " ××§", "7182": " fil", "7183": "represent", "7184": "incl", "7185": " excuse", "7186": "resses", "7187": "igs", "7188": "dy", "7189": " dram", "7190": " thread", "7191": " temple", "7192": " wondered", "7193": " steel", "7194": " union", "7195": " ×¢×ª×", "7196": "acqu", "7197": "entions", "7198": "icle", "7199": "osure", "7200": " acquainted", "7201": " warri", "7202": " related", "7203": " compared", "7204": "thren", "7205": "×××", "7206": "Â´", "7207": " limited", "7208": " reported", "7209": " enorm", "7210": "ications", "7211": " ded", "7212": " community", "7213": " independent", "7214": " central", "7215": " secured", "7216": "geon", "7217": " Corn", "7218": " punishment", "7219": "elled", "7220": " islands", "7221": " literary", "7222": " degrees", "7223": " curtain", "7224": "rive", "7225": " beast", "7226": "liness", "7227": " buildings", "7228": "usive", "7229": ",)", "7230": " hurry", "7231": " FIG", "7232": " ×××©", "7233": " bishop", "7234": " bones", "7235": "ero", "7236": "oubted", "7237": " younger", "7238": " stretched", "7239": "da", "7240": " surv", "7241": "ifted", "7242": " scientific", "7243": "rich", "7244": " scheme", "7245": " inher", "7246": " cig", "7247": "NE", "7248": " quarters", "7249": " elements", "7250": "King", "7251": "AIN", "7252": " × ×", "7253": " intelligence", "7254": " ×××", "7255": " Ord", "7256": "arian", "7257": "trans", "7258": " betray", "7259": " grim", "7260": " Dutch", "7261": " ×× ×", "7262": " gazed", "7263": " observation", "7264": " ××", "7265": " rolled", "7266": " mild", "7267": " Russia", "7268": "owned", "7269": " lately", "7270": " zeal", "7271": " celebrated", "7272": " sixty", "7273": " fee", "7274": "ura", "7275": " rent", "7276": "otted", "7277": "icine", "7278": "QU", "7279": " accur", "7280": "erick", "7281": " ××××ª", "7282": " ××", "7283": " History", "7284": " unfortunate", "7285": " furnished", "7286": " breaking", "7287": " thence", "7288": " fired", "7289": " ult", "7290": " renew", "7291": " delighted", "7292": " completed", "7293": "enses", "7294": " chat", "7295": "OC", "7296": " eagerly", "7297": "boat", "7298": " symbol", "7299": " Look", "7300": " Jacob", "7301": "ini", "7302": "ederal", "7303": " Nothing", "7304": " tribes", "7305": " ×× ", "7306": " borne", "7307": "za", "7308": " contains", "7309": " sorts", "7310": " estate", "7311": " ×§×", "7312": " image", "7313": "ospel", "7314": " atmosphere", "7315": " fierce", "7316": " owing", "7317": " listening", "7318": " trace", "7319": "quite", "7320": "iency", "7321": " error", "7322": "obser", "7323": "black", "7324": " feared", "7325": " united", "7326": "istol", "7327": " spare", "7328": "human", "7329": " Christmas", "7330": " guests", "7331": "ictor", "7332": " uncertain", "7333": " Den", "7334": " rush", "7335": " forb", "7336": "school", "7337": " whisper", "7338": " constru", "7339": " shade", "7340": " alarm", "7341": "cest", "7342": "phone", "7343": " Dem", "7344": " vic", "7345": " ××", "7346": " sust", "7347": " wave", "7348": "xed", "7349": "sign", "7350": " groups", "7351": " ×××", "7352": "nding", "7353": "_),", "7354": " average", "7355": " deliber", "7356": " Conf", "7357": " blaz", "7358": " ×××", "7359": " ast", "7360": "Phil", "7361": "fortune", "7362": " lighted", "7363": "suff", "7364": " scenes", "7365": "××¢", "7366": " cher", "7367": " Second", "7368": " flew", "7369": " steady", "7370": " contract", "7371": " Boston", "7372": "×××ª", "7373": "icians", "7374": " tied", "7375": " refuse", "7376": " opinions", "7377": " appropri", "7378": " rope", "7379": "××¥", "7380": " demonstr", "7381": "××¨××ª", "7382": "arted", "7383": " vote", "7384": "Ö¼.", "7385": " crimin", "7386": " founded", "7387": " scorn", "7388": "mes", "7389": "EST", "7390": "Such", "7391": " concluded", "7392": " doubtless", "7393": " ×§×¨", "7394": " ×§×", "7395": ".â[", "7396": " Pen", "7397": "reck", "7398": " adventure", "7399": " attempted", "7400": " Andrew", "7401": " anyone", "7402": " claims", "7403": "open", "7404": " Bro", "7405": " beha", "7406": " cotton", "7407": "ras", "7408": "IA", "7409": "quarters", "7410": " World", "7411": "engers", "7412": "elf", "7413": "olk", "7414": "hab", "7415": "rust", "7416": "ients", "7417": " priests", "7418": " humble", "7419": "exam", "7420": " ××ª", "7421": " useless", "7422": "coll", "7423": " authorities", "7424": " miserable", "7425": "shine", "7426": "whose", "7427": " managed", "7428": "usions", "7429": " toler", "7430": "ita", "7431": "town", "7432": "gone", "7433": " urged", "7434": " slipped", "7435": " coal", "7436": " Saint", "7437": "hands", "7438": "inks", "7439": " comr", "7440": " Sur", "7441": " dared", "7442": "epend", "7443": " ××", "7444": " wretched", "7445": "different", "7446": "×× ×", "7447": "×§××", "7448": " whenever", "7449": " riding", "7450": " cheeks", "7451": "×××¨", "7452": " hers", "7453": " tradition", "7454": " blame", "7455": " rude", "7456": " ric", "7457": "Ã§", "7458": " turns", "7459": "west", "7460": "pose", "7461": "RY", "7462": " ridic", "7463": " Pri", "7464": " conflict", "7465": " hell", "7466": "arling", "7467": " fame", "7468": "gentle", "7469": " antic", "7470": " bears", "7471": " dimin", "7472": "atched", "7473": "OO", "7474": " remarks", "7475": "××", "7476": " approaching", "7477": " intim", "7478": "istence", "7479": "swe", "7480": " generous", "7481": " actions", "7482": "umin", "7483": "rage", "7484": " charged", "7485": " monarch", "7486": " Again", "7487": "××¤", "7488": " yard", "7489": "houses", "7490": "dest", "7491": " kissed", "7492": " disposed", "7493": " trip", "7494": "until", "7495": "ules", "7496": "iary", "7497": "kespeare", "7498": " effic", "7499": " uttered", "7500": " forehead", "7501": "isation", "7502": " sed", "7503": " nurse", "7504": "diffic", "7505": " failure", "7506": "vet", "7507": " Virginia", "7508": "itty", "7509": " ashamed", "7510": " unexpected", "7511": " elder", "7512": " consciousness", "7513": " philosophy", "7514": " moder", "7515": " unconscious", "7516": "otions", "7517": " southern", "7518": "burn", "7519": " freely", "7520": "××ª", "7521": "saw", "7522": " crowded", "7523": " misery", "7524": " decision", "7525": "Ã©e", "7526": " marched", "7527": ":â", "7528": " burned", "7529": "appro", "7530": " consists", "7531": "×× ×", "7532": " Both", "7533": "pen", "7534": " Islands", "7535": " interior", "7536": " surre", "7537": " Est", "7538": "ifts", "7539": "utter", "7540": " pipe", "7541": "uv", "7542": "best", "7543": " referred", "7544": "alem", "7545": "                  ", "7546": "dr", "7547": " career", "7548": " Four", "7549": "illes", "7550": "×××ª", "7551": "uce", "7552": " ×××¨×¥", "7553": " finds", "7554": "×××", "7555": "suffic", "7556": " US", "7557": "fts", "7558": " perceived", "7559": " comment", "7560": " ××", "7561": "Ï", "7562": " acknowled", "7563": " council", "7564": " VII", "7565": "bler", "7566": "herself", "7567": " Tri", "7568": " Tw", "7569": " dancing", "7570": " dil", "7571": "inst", "7572": " painful", "7573": " sym", "7574": " warning", "7575": " lords", "7576": " phen", "7577": ".+", "7578": " bottle", "7579": "therefore", "7580": " activity", "7581": " Boy", "7582": "lets", "7583": " shelter", "7584": " marks", "7585": " falls", "7586": " voyage", "7587": "chn", "7588": "asped", "7589": "French", "7590": " hitherto", "7591": " ××¤×©×¨", "7592": "hearted", "7593": " hadn", "7594": "net", "7595": " Princess", "7596": " scream", "7597": " ×××", "7598": " sus", "7599": " Mur", "7600": "sus", "7601": "ardens", "7602": "illing", "7603": " stout", "7604": "VI", "7605": " suggestion", "7606": " detect", "7607": " supported", "7608": "high", "7609": "achel", "7610": " wing", "7611": "á¹", "7612": "past", "7613": " verse", "7614": " loving", "7615": " ×××", "7616": " shed", "7617": " AN", "7618": "××©", "7619": "orter", "7620": " acquired", "7621": "icken", "7622": "olation", "7623": "irmed", "7624": " capacity", "7625": " invol", "7626": " unhappy", "7627": " ××××", "7628": "Å", "7629": "Ãª", "7630": "kerchief", "7631": "××©×", "7632": " occasions", "7633": " scattered", "7634": " revolution", "7635": " trembling", "7636": "×¢××ª", "7637": "EA", "7638": " sovereign", "7639": " intellectual", "7640": " humanity", "7641": "×¦×ª", "7642": "Ö¹.", "7643": "told", "7644": "ican", "7645": "OH", "7646": " arrangement", "7647": " widow", "7648": " senses", "7649": " examination", "7650": " owner", "7651": " daughters", "7652": "pit", "7653": " belonging", "7654": " Fer", "7655": " App", "7656": " inse", "7657": "national", "7658": "Yet", "7659": " troubled", "7660": " complex", "7661": " confined", "7662": "×¡×¤", "7663": "occup", "7664": "forms", "7665": " Most", "7666": "words", "7667": "done", "7668": "affect", "7669": " altar", "7670": " check", "7671": " exposed", "7672": " ×¨××", "7673": " Ye", "7674": "Because", "7675": " creatures", "7676": " volunt", "7677": " detail", "7678": "account", "7679": "hundred", "7680": " characteristic", "7681": " opposition", "7682": " steep", "7683": " begins", "7684": " leather", "7685": "anks", "7686": " haste", "7687": " collection", "7688": " shoes", "7689": "accom", "7690": "ties", "7691": "ILL", "7692": " legal", "7693": " Army", "7694": " Three", "7695": " distinction", "7696": " extend", "7697": " cries", "7698": "hur", "7699": " troubles", "7700": " propri", "7701": " handed", "7702": " cliff", "7703": "ositions", "7704": "Ö±", "7705": "Man", "7706": " Which", "7707": " invited", "7708": " prize", "7709": " flung", "7710": "eman", "7711": " stared", "7712": " western", "7713": "tt", "7714": "pract", "7715": " corrupt", "7716": "rather", "7717": " permit", "7718": "Char", "7719": " Martin", "7720": " Commission", "7721": "prot", "7722": " ming", "7723": " fare", "7724": "\n                            ", "7725": " deliver", "7726": " Res", "7727": " Earl", "7728": " ××©×", "7729": "verted", "7730": "Â°", "7731": "ferred", "7732": " practically", "7733": " Another", "7734": " recall", "7735": "arms", "7736": " paint", "7737": "_]", "7738": "whether", "7739": " Once", "7740": " bowed", "7741": "bal", "7742": " discussion", "7743": " examined", "7744": " Rog", "7745": " Hal", "7746": "ITH", "7747": " Romans", "7748": "arrison", "7749": " provide", "7750": " rig", "7751": "estab", "7752": " ascertain", "7753": " tiny", "7754": " Christians", "7755": " smell", "7756": " Gen", "7757": " interview", "7758": " School", "7759": "amation", "7760": "build", "7761": "××××", "7762": " reputation", "7763": "experi", "7764": " fert", "7765": " derived", "7766": "Another", "7767": " churches", "7768": "ixture", "7769": " Alexander", "7770": " ignorance", "7771": "whom", "7772": "Ï", "7773": "quisite", "7774": " maintained", "7775": " provisions", "7776": " recovered", "7777": " beach", "7778": " phenomen", "7779": " hunting", "7780": "×× ×", "7781": " xx", "7782": " penet", "7783": " hastily", "7784": "command", "7785": "                   ", "7786": "allel", "7787": "ilton", "7788": "×××", "7789": " audience", "7790": "twenty", "7791": "England", "7792": " basis", "7793": " irrit", "7794": "aping", "7795": "×§×", "7796": " Napoleon", "7797": " retain", "7798": " sisters", "7799": " apt", "7800": " campaign", "7801": "pended", "7802": " glo", "7803": " thine", "7804": " speaks", "7805": " ×××¢", "7806": " Off", "7807": "terior", "7808": "omatic", "7809": "sight", "7810": " magnificent", "7811": "why", "7812": " brings", "7813": " brow", "7814": "antages", "7815": " increasing", "7816": " sem", "7817": "××", "7818": "orus", "7819": "second", "7820": " signal", "7821": "ella", "7822": " CON", "7823": " anticip", "7824": " largely", "7825": " entering", "7826": " plat", "7827": "oln", "7828": "**", "7829": " assert", "7830": " experiments", "7831": " hanging", "7832": " ×××", "7833": " collected", "7834": " runs", "7835": " feather", "7836": "KE", "7837": "Before", "7838": " tribe", "7839": "proper", "7840": "×´", "7841": "German", "7842": " attacked", "7843": " merry", "7844": " continu", "7845": " resc", "7846": " anch", "7847": " Bab", "7848": " deny", "7849": " ××ª××", "7850": "×××", "7851": " quoted", "7852": "Fig", "7853": " Empire", "7854": "OUR", "7855": " insisted", "7856": " ×××¢", "7857": " Bal", "7858": "ipl", "7859": " supplied", "7860": "box", "7861": " teaching", "7862": "except", "7863": " joint", "7864": "geant", "7865": " Among", "7866": " acting", "7867": "opes", "7868": " Rem", "7869": "inding", "7870": "ela", "7871": " encoura", "7872": " accounts", "7873": " mode", "7874": " cheek", "7875": " seriously", "7876": " obvious", "7877": " compass", "7878": " Int", "7879": " pier", "7880": "itors", "7881": "itate", "7882": "Ã±", "7883": "author", "7884": "):", "7885": "××¤×", "7886": "mediately", "7887": " rested", "7888": "agree", "7889": " whist", "7890": "Two", "7891": "soon", "7892": " disg", "7893": " ×××", "7894": " ××× ×", "7895": "allow", "7896": " tomb", "7897": " tide", "7898": " prayers", "7899": " edition", "7900": "×××ª", "7901": " Billy", "7902": " desperate", "7903": " delightful", "7904": " winds", "7905": " nevertheless", "7906": "intell", "7907": " loves", "7908": " straw", "7909": " Any", "7910": " fathers", "7911": " expense", "7912": " foundation", "7913": "ummer", "7914": "olate", "7915": "olt", "7916": "particular", "7917": "achment", "7918": " somebody", "7919": "keeper", "7920": " lonely", "7921": " People", "7922": " territory", "7923": "uthors", "7924": " writes", "7925": " ×××", "7926": " Cur", "7927": "itled", "7928": "reement", "7929": "ki", "7930": " ××××", "7931": " ××××", "7932": "××", "7933": "arrass", "7934": " roads", "7935": " contact", "7936": "dark", "7937": " nights", "7938": " Light", "7939": "××§", "7940": "During", "7941": " violence", "7942": " elsewhere", "7943": " strain", "7944": " ×××¨", "7945": " trick", "7946": " Ox", "7947": " ××¦", "7948": "ols", "7949": " init", "7950": "inally", "7951": " Walter", "7952": " altern", "7953": "uine", "7954": "VER", "7955": " provin", "7956": " Luther", "7957": " PR", "7958": " Thy", "7959": " wag", "7960": "jun", "7961": " sleeping", "7962": " ours", "7963": "iger", "7964": "×ª×", "7965": " heavily", "7966": " mistaken", "7967": " commonly", "7968": " construction", "7969": "exc", "7970": " gates", "7971": " contempl", "7972": " prejud", "7973": " unusual", "7974": "ofty", "7975": " <", "7976": " tendency", "7977": " phot", "7978": " disturb", "7979": "orig", "7980": " profit", "7981": " awa", "7982": "ierre", "7983": " block", "7984": " stor", "7985": "aments", "7986": " lin", "7987": "believe", "7988": " grasp", "7989": " feast", "7990": " Since", "7991": " gest", "7992": "zing", "7993": " permanent", "7994": " hungry", "7995": "arson", "7996": "alph", "7997": " annoy", "7998": " greet", "7999": "×¨××", "8000": "                    ", "8001": "××", "8002": "erity", "8003": "sa", "8004": "ION", "8005": " Son", "8006": "epartment", "8007": " Therefore", "8008": "forward", "8009": " shake", "8010": "×××", "8011": "phe", "8012": "eanwhile", "8013": "ribute", "8014": " treasure", "8015": " patience", "8016": "××ª×", "8017": " oh", "8018": "commun", "8019": " Rel", "8020": "umm", "8021": "phant", "8022": "LL", "8023": " midnight", "8024": " remove", "8025": " flow", "8026": " persec", "8027": " reaching", "8028": "(_", "8029": " Germans", "8030": "×× ××", "8031": "class", "8032": " Rh", "8033": " ××", "8034": "employ", "8035": "plicity", "8036": " murmured", "8037": " Gold", "8038": " forgive", "8039": " reject", "8040": "ller", "8041": " Turk", "8042": "thousand", "8043": " grounds", "8044": " ××", "8045": " ren", "8046": " sore", "8047": "lest", "8048": "fashion", "8049": " reckon", "8050": " diff", "8051": " Would", "8052": " Serv", "8053": " patter", "8054": "word", "8055": "uan", "8056": "pher", "8057": "fell", "8058": " depos", "8059": " ×ª×××", "8060": " somehow", "8061": "orders", "8062": "×§×", "8063": " loyal", "8064": " toss", "8065": " economic", "8066": "×××", "8067": "lessness", "8068": " ||", "8069": " folks", "8070": " millions", "8071": "urday", "8072": "awn", "8073": " stronger", "8074": " restored", "8075": " cam", "8076": " lawyer", "8077": " generation", "8078": "ckets", "8079": " Bu", "8080": " China", "8081": " thereof", "8082": " aloud", "8083": " angel", "8084": "omed", "8085": " tones", "8086": "wit", "8087": "amental", "8088": " Western", "8089": "ida", "8090": " college", "8091": " ××¢×", "8092": " summon", "8093": " Camp", "8094": " bat", "8095": " ×××ª×", "8096": " govern", "8097": " track", "8098": "anda", "8099": "lem", "8100": "money", "8101": " Fair", "8102": " ××", "8103": " reform", "8104": " mortal", "8105": "icable", "8106": "ona", "8107": " recommend", "8108": "appearance", "8109": " directions", "8110": "headed", "8111": " burden", "8112": " beloved", "8113": " rot", "8114": " nearest", "8115": " pin", "8116": "erness", "8117": " tort", "8118": " ingen", "8119": " drunk", "8120": "third", "8121": "oof", "8122": " Sl", "8123": " lap", "8124": " respond", "8125": " tear", "8126": " remo", "8127": " inform", "8128": "wed", "8129": "LY", "8130": " Constant", "8131": " summ", "8132": " Upon", "8133": "pled", "8134": " ×©×", "8135": "olas", "8136": "×¨×¢", "8137": "rison", "8138": " ××¨×", "8139": " eleven", "8140": " Young", "8141": " chain", "8142": "death", "8143": " rat", "8144": " enormous", "8145": " included", "8146": " assure", "8147": " passes", "8148": " Jean", "8149": " sale", "8150": "giving", "8151": "business", "8152": " melancholy", "8153": " Jackson", "8154": " metal", "8155": "ucky", "8156": " decor", "8157": "spirit", "8158": " Cro", "8159": " Sus", "8160": "Å«", "8161": " architect", "8162": " continually", "8163": " forever", "8164": " estim", "8165": " instances", "8166": " naked", "8167": "lla", "8168": " clerk", "8169": " scale", "8170": " noon", "8171": " external", "8172": " Sto", "8173": "iot", "8174": "preme", "8175": "ector", "8176": " Ass", "8177": "wall", "8178": " phrase", "8179": "horse", "8180": "××¢×", "8181": " devotion", "8182": " helpless", "8183": " VIII", "8184": " supreme", "8185": " Take", "8186": " tower", "8187": "inery", "8188": " driving", "8189": " recover", "8190": " pour", "8191": " slightest", "8192": "prov", "8193": " employment", "8194": " distress", "8195": "                      ", "8196": " poured", "8197": "fav", "8198": "El", "8199": " shadows", "8200": " drinking", "8201": " refuge", "8202": " indicated", "8203": "arts", "8204": " neat", "8205": " Cham", "8206": "onial", "8207": " purchase", "8208": " neighbor", "8209": " seeking", "8210": "elly", "8211": "oid", "8212": "Ed", "8213": ".).", "8214": " cheerful", "8215": " accompany", "8216": " Ty", "8217": " torn", "8218": " conviction", "8219": "××¢×", "8220": " minor", "8221": " Fr", "8222": " ancest", "8223": "rained", "8224": "lad", "8225": "hot", "8226": "fare", "8227": " studied", "8228": " eloqu", "8229": " abst", "8230": "×ª× ×", "8231": "rap", "8232": " hom", "8233": " wives", "8234": "chester", "8235": " forming", "8236": " poem", "8237": " sport", "8238": " fears", "8239": " feed", "8240": " Fe", "8241": "××", "8242": " nest", "8243": "inqu", "8244": " rarely", "8245": "Nothing", "8246": " solution", "8247": "××¨××", "8248": " adapt", "8249": " abrupt", "8250": "acco", "8251": " AM", "8252": "bird", "8253": " preceding", "8254": " performance", "8255": " insult", "8256": " UN", "8257": " × ×¤×©", "8258": " Dra", "8259": "ieu", "8260": " crying", "8261": " × ×", "8262": "former", "8263": ".\"[", "8264": "                       ", "8265": " attain", "8266": "imm", "8267": "utive", "8268": " domin", "8269": "Ã³", "8270": " Portug", "8271": " existing", "8272": "×××", "8273": "hibit", "8274": " Lib", "8275": "thus", "8276": "understand", "8277": "arned", "8278": " landed", "8279": "othy", "8280": " Grace", "8281": "IF", "8282": " Sometimes", "8283": " abandoned", "8284": " captured", "8285": " departed", "8286": " stayed", "8287": " settlement", "8288": " sincere", "8289": "OND", "8290": " coach", "8291": "×¤×¡", "8292": " resolution", "8293": "dec", "8294": "blance", "8295": " Ep", "8296": " Illustr", "8297": " homes", "8298": " sins", "8299": "?_", "8300": " descended", "8301": "sett", "8302": "cia", "8303": "pton", "8304": " seas", "8305": " agreeable", "8306": " protest", "8307": " resumed", "8308": " plays", "8309": "igious", "8310": "aration", "8311": "avery", "8312": " Mexico", "8313": " sharply", "8314": " wondering", "8315": "myself", "8316": "object", "8317": "                                  ", "8318": "dev", "8319": "Îµ", "8320": " idle", "8321": " moist", "8322": " recently", "8323": "plan", "8324": "need", "8325": " Wall", "8326": " staff", "8327": "××", "8328": " enthusiasm", "8329": " threatened", "8330": " residence", "8331": " Ken", "8332": " lust", "8333": " cavalry", "8334": "rection", "8335": " burnt", "8336": " sounded", "8337": "ertainly", "8338": " root", "8339": "×××§", "8340": "oos", "8341": " haunt", "8342": "rels", "8343": "cclesiast", "8344": " stroke", "8345": " drift", "8346": "acific", "8347": " operations", "8348": "incoln", "8349": " experienced", "8350": " training", "8351": " Luc", "8352": "× ×", "8353": " stupid", "8354": " inev", "8355": "Tr", "8356": " contrast", "8357": "××§×¨", "8358": "bye", "8359": "alog", "8360": "encies", "8361": "inf", "8362": " waist", "8363": " commenced", "8364": " agric", "8365": "sels", "8366": " shield", "8367": "itudes", "8368": "vity", "8369": " Protest", "8370": " eating", "8371": " duke", "8372": "especially", "8373": " based", "8374": "oubtedly", "8375": " According", "8376": " pursued", "8377": " election", "8378": "\n\n         ", "8379": "wife", "8380": " queer", "8381": " realized", "8382": " president", "8383": "conne", "8384": " COM", "8385": "mical", "8386": " Lieutenant", "8387": " accordingly", "8388": " extrem", "8389": "igne", "8390": " dece", "8391": "alks", "8392": " beings", "8393": " coo", "8394": " revealed", "8395": " belongs", "8396": "useum", "8397": " shock", "8398": "sac", "8399": "does", "8400": " Christianity", "8401": " ranks", "8402": " Hence", "8403": "graph", "8404": " leads", "8405": " shortly", "8406": " corp", "8407": " swell", "8408": "short", "8409": " Negro", "8410": " pains", "8411": " repeat", "8412": " sending", "8413": " disposition", "8414": " treaty", "8415": "gedy", "8416": " cu", "8417": "hast", "8418": "women", "8419": "Pe", "8420": " á", "8421": " comparison", "8422": " limit", "8423": " prem", "8424": "××××", "8425": " Adam", "8426": " ×©××", "8427": " Eve", "8428": " von", "8429": "verty", "8430": "list", "8431": "ga", "8432": "ctors", "8433": " mud", "8434": "lau", "8435": " maiden", "8436": "everything", "8437": " safely", "8438": " holds", "8439": " finish", "8440": "××", "8441": " Ger", "8442": "ulating", "8443": "raction", "8444": "isk", "8445": " prevented", "8446": "END", "8447": " alter", "8448": "tree", "8449": "possible", "8450": "Captain", "8451": " ×©×××", "8452": "few", "8453": "â", "8454": "omy", "8455": " application", "8456": " guest", "8457": " specul", "8458": " outward", "8459": " Out", "8460": " bi", "8461": " goodness", "8462": " poverty", "8463": " afterward", "8464": " agent", "8465": " plun", "8466": " ability", "8467": " Hy", "8468": " tour", "8469": " circumstance", "8470": " Gal", "8471": "tes", "8472": "oked", "8473": "Take", "8474": "American", "8475": " testimony", "8476": " jump", "8477": " Ev", "8478": "istor", "8479": " selected", "8480": " Sun", "8481": "city", "8482": "Even", "8483": " imagined", "8484": " Constitution", "8485": " Tre", "8486": "Br", "8487": " College", "8488": " este", "8489": " grin", "8490": "××", "8491": "alia", "8492": " fest", "8493": "'.", "8494": " angle", "8495": "prof", "8496": " purple", "8497": " ××ª", "8498": "mem", "8499": "OB", "8500": " touching", "8501": " signed", "8502": " sunshine", "8503": "grat", "8504": " courts", "8505": " Kent", "8506": " ard", "8507": " Sol", "8508": "Ã´", "8509": "leness", "8510": " muttered", "8511": " ××¡×¤×¨", "8512": "axim", "8513": " chose", "8514": " Lee", "8515": " ga", "8516": " ped", "8517": "London", "8518": " cottage", "8519": "sometimes", "8520": " slip", "8521": " conceal", "8522": " parish", "8523": " conception", "8524": " seats", "8525": " notion", "8526": " Town", "8527": "â", "8528": "piece", "8529": " previously", "8530": " Crown", "8531": "urg", "8532": " infl", "8533": " favourite", "8534": " fastened", "8535": "ensions", "8536": "izes", "8537": "××§", "8538": " ××", "8539": " lofty", "8540": " masters", "8541": " balance", "8542": " presents", "8543": "decl", "8544": "keep", "8545": " Script", "8546": " folly", "8547": " victim", "8548": " stim", "8549": "ioned", "8550": "cannot", "8551": " ×©×××", "8552": " center", "8553": " bride", "8554": "××", "8555": " elected", "8556": "ester", "8557": "gly", "8558": " absent", "8559": "bear", "8560": "oping", "8561": " ××¦", "8562": " prud", "8563": " Secretary", "8564": " resources", "8565": "rooms", "8566": " Atl", "8567": " remote", "8568": " Dun", "8569": "nature", "8570": "grow", "8571": "during", "8572": "UD", "8573": " receiving", "8574": "pline", "8575": " Sk", "8576": " fires", "8577": "gage", "8578": " existed", "8579": " composition", "8580": "ââ", "8581": " cared", "8582": " borrow", "8583": "haw", "8584": "knew", "8585": "La", "8586": " Castle", "8587": " concealed", "8588": " security", "8589": "blood", "8590": "gend", "8591": " stair", "8592": "urred", "8593": "uty", "8594": "sters", "8595": " dining", "8596": " basket", "8597": "court", "8598": ";--", "8599": " establishment", "8600": " admire", "8601": " rival", "8602": "thy", "8603": "iforn", "8604": " powder", "8605": " temperature", "8606": " ××", "8607": " deeper", "8608": "lyn", "8609": "sold", "8610": "××¤×", "8611": " opposed", "8612": " resistance", "8613": " anywhere", "8614": " shone", "8615": "ulars", "8616": "LA", "8617": " exceedingly", "8618": " responsibility", "8619": " knee", "8620": " crossing", "8621": "×××ª×¨", "8622": "aneous", "8623": " print", "8624": " vivid", "8625": " Mess", "8626": "IP", "8627": "Brit", "8628": "\"_", "8629": "complete", "8630": "ââââ", "8631": " musical", "8632": " Johnson", "8633": " thereby", "8634": " ×××", "8635": " Pan", "8636": " Holl", "8637": " XXX", "8638": " cutting", "8639": " necessarily", "8640": "INE", "8641": "princi", "8642": " bone", "8643": "ho", "8644": " conducted", "8645": " ×¨××©", "8646": " declare", "8647": " Having", "8648": "omach", "8649": "iations", "8650": " assembled", "8651": " beaten", "8652": " relative", "8653": " perceive", "8654": " enabled", "8655": " deed", "8656": " AT", "8657": "nie", "8658": "×¢×××", "8659": " Ba", "8660": "imag", "8661": "important", "8662": " autumn", "8663": " sensible", "8664": " Americans", "8665": " Death", "8666": "vy", "8667": " steadily", "8668": " Whit", "8669": " affl", "8670": " entitled", "8671": " Jones", "8672": " ×©× ××", "8673": "umbled", "8674": " sank", "8675": " exhausted", "8676": " leaned", "8677": " cease", "8678": " brethren", "8679": " string", "8680": "××¨×", "8681": " impulse", "8682": "onsense", "8683": " Dev", "8684": " Pass", "8685": " ×××××××", "8686": " lightly", "8687": " reb", "8688": " mart", "8689": "Bar", "8690": " }", "8691": " exchange", "8692": " swear", "8693": " begged", "8694": " Pre", "8695": "imately", "8696": "tre", "8697": " ×¢×¦××", "8698": " medical", "8699": " marble", "8700": "often", "8701": " Hol", "8702": "pop", "8703": " Flore", "8704": " denied", "8705": "hedral", "8706": " incon", "8707": " saddle", "8708": " ju", "8709": " ON", "8710": "×¢×××", "8711": "OG", "8712": " strangers", "8713": " sanct", "8714": " independence", "8715": "friends", "8716": " communication", "8717": " Shakespeare", "8718": " rivers", "8719": " flash", "8720": " gent", "8721": " lock", "8722": "Ã­", "8723": "covered", "8724": "call", "8725": " involved", "8726": "agle", "8727": " convention", "8728": "ctic", "8729": "adelp", "8730": "itself", "8731": "reci", "8732": "cross", "8733": " deserted", "8734": " originally", "8735": " barbar", "8736": " hundreds", "8737": " rifle", "8738": "rup", "8739": "amma", "8740": "\";", "8741": "stitute", "8742": "chess", "8743": " income", "8744": " apply", "8745": " raising", "8746": " ××©", "8747": " Lev", "8748": "olph", "8749": " Bert", "8750": " Trans", "8751": "aned", "8752": " fearful", "8753": " ×ª×§", "8754": "within", "8755": " resist", "8756": " ×©× ×", "8757": "umer", "8758": "sych", "8759": "                              ", "8760": " gracious", "8761": " mostly", "8762": " fishing", "8763": "rical", "8764": "=â", "8765": " painting", "8766": " patron", "8767": "coat", "8768": " desk", "8769": " permission", "8770": "××", "8771": "steps", "8772": "times", "8773": " immort", "8774": "THER", "8775": "ARY", "8776": " industri", "8777": " today", "8778": " route", "8779": " brid", "8780": " overcome", "8781": "adj", "8782": " revel", "8783": " inquiry", "8784": "justice", "8785": "ifications", "8786": "acks", "8787": "igion", "8788": "along", "8789": " locked", "8790": "hour", "8791": " suspected", "8792": " venture", "8793": " describe", "8794": " largest", "8795": " Thor", "8796": " Buck", "8797": " Austr", "8798": " Spani", "8799": " pursuit", "8800": "ORY", "8801": " exert", "8802": " suitable", "8803": "raham", "8804": " intend", "8805": " ××××¢", "8806": " encourage", "8807": " badly", "8808": " province", "8809": " farmer", "8810": " Chief", "8811": "whel", "8812": "ni", "8813": "felt", "8814": " hesitated", "8815": "circumst", "8816": " gazing", "8817": " requires", "8818": " lun", "8819": " bon", "8820": "AGE", "8821": " combined", "8822": " depth", "8823": " swim", "8824": "abel", "8825": " rebell", "8826": "already", "8827": " tin", "8828": "vag", "8829": " neighbourhood", "8830": " economy", "8831": " ×××", "8832": " infect", "8833": " pace", "8834": "Ã¤", "8835": " eleg", "8836": " horrible", "8837": " resting", "8838": " republic", "8839": " throwing", "8840": " peril", "8841": "iano", "8842": " DE", "8843": " Tim", "8844": " wash", "8845": " astonishment", "8846": "ervation", "8847": " startled", "8848": " commod", "8849": " knocked", "8850": " leis", "8851": "above", "8852": "amin", "8853": " tun", "8854": "SON", "8855": " dismiss", "8856": " ×××¢", "8857": " ×¨×¢", "8858": " Rich", "8859": " Page", "8860": "alone", "8861": " bath", "8862": "________", "8863": " prophe", "8864": "ibilities", "8865": "mere", "8866": "next", "8867": "akers", "8868": " Mos", "8869": "dep", "8870": "dri", "8871": "Fl", "8872": " regarding", "8873": "oonful", "8874": " interfe", "8875": " Victor", "8876": "ques", "8877": " sang", "8878": "bacco", "8879": " blessing", "8880": " Ã ", "8881": " consequently", "8882": "××¦×", "8883": " keeps", "8884": " Friend", "8885": "lle", "8886": " border", "8887": "public", "8888": " prepare", "8889": " Rock", "8890": " Mem", "8891": " beheld", "8892": "fif", "8893": " empire", "8894": " slender", "8895": "ibus", "8896": " reports", "8897": "×¤×©×¨", "8898": " Gram", "8899": "ayed", "8900": " echo", "8901": " lift", "8902": " ××××ª", "8903": " songs", "8904": " magic", "8905": " reasonable", "8906": "cas", "8907": "bishop", "8908": "assador", "8909": " billion", "8910": "knowledge", "8911": ".=--", "8912": " commander", "8913": "ieties", "8914": "××§", "8915": " sob", "8916": " Hope", "8917": " cure", "8918": "adelphia", "8919": " manufacture", "8920": " gratitude", "8921": " arrive", "8922": " shaking", "8923": "Their", "8924": " LORD", "8925": " ××¦×", "8926": "ether", "8927": "search", "8928": "oa", "8929": "maid", "8930": "aus", "8931": " hospital", "8932": " folk", "8933": "according", "8934": " genuine", "8935": "ocra", "8936": " Water", "8937": " sne", "8938": "creat", "8939": " Stephen", "8940": " masses", "8941": " sacrific", "8942": " swung", "8943": " arise", "8944": " Haw", "8945": " thir", "8946": "tor", "8947": "guard", "8948": " load", "8949": "apping", "8950": " buff", "8951": " parted", "8952": " WH", "8953": "hara", "8954": "viously", "8955": "Gover", "8956": "beautiful", "8957": " furniture", "8958": " craft", "8959": "willing", "8960": " ××××", "8961": " cheap", "8962": " jest", "8963": " meas", "8964": "allowed", "8965": " Southern", "8966": "aria", "8967": " concent", "8968": ".'\"", "8969": "prison", "8970": "istered", "8971": " defect", "8972": " gifts", "8973": " inferior", "8974": "following", "8975": "Thou", "8976": " score", "8977": " pled", "8978": "quo", "8979": "lady", "8980": " erected", "8981": "\n\n                               ", "8982": " quarrel", "8983": " ×××", "8984": " confident", "8985": " ×¢×©", "8986": " Rod", "8987": "icit", "8988": "pict", "8989": "gave", "8990": "OHN", "8991": "Ã¨re", "8992": " visitor", "8993": "istics", "8994": " Pap", "8995": "××", "8996": "several", "8997": "icing", "8998": " mob", "8999": " bid", "9000": " Oxford", "9001": " neglect", "9002": "ATE", "9003": " triump", "9004": " colours", "9005": "igg", "9006": " Tell", "9007": "ounter", "9008": "×¡×¨", "9009": " Bull", "9010": " ash", "9011": " pound", "9012": " tar", "9013": "ws", "9014": "ifornia", "9015": " limbs", "9016": " princes", "9017": " starting", "9018": " extensive", "9019": " precip", "9020": "× ×§", "9021": "usalem", "9022": "--â", "9023": "stud", "9024": " les", "9025": " darling", "9026": " pine", "9027": " bapt", "9028": "OOK", "9029": "××©××", "9030": " railway", "9031": "scar", "9032": "phil", "9033": " SP", "9034": " fatig", "9035": " hatred", "9036": " scarce", "9037": "×¡×§", "9038": " qual", "9039": " ××©", "9040": "gels", "9041": " fitted", "9042": "mil", "9043": " administration", "9044": " motive", "9045": " Abb", "9046": "chard", "9047": " Ralph", "9048": " Post", "9049": "onse", "9050": "eur", "9051": " elev", "9052": " awake", "9053": "pleasure", "9054": " brass", "9055": " AR", "9056": " aven", "9057": "till", "9058": " condemned", "9059": " distinctly", "9060": "LET", "9061": " armies", "9062": " brand", "9063": " enable", "9064": "akened", "9065": "trees", "9066": "Father", "9067": "ocratic", "9068": "feet", "9069": " Dis", "9070": "hin", "9071": "Thank", "9072": " fruits", "9073": "remark", "9074": " ××©", "9075": "××¨×¨", "9076": "uscript", "9077": "wart", "9078": "\n\n                             ", "9079": " telephone", "9080": "oiselle", "9081": " examples", "9082": "TIC", "9083": " artillery", "9084": " desires", "9085": "geance", "9086": " Amb", "9087": " inward", "9088": "lot", "9089": " eaten", "9090": "Ö·×", "9091": " unlike", "9092": "oting", "9093": " candle", "9094": " situated", "9095": " examine", "9096": " intimate", "9097": " slain", "9098": "indeed", "9099": "idel", "9100": "ashes", "9101": " gathering", "9102": " laying", "9103": " acid", "9104": " × ×", "9105": " chapel", "9106": "manner", "9107": " grateful", "9108": " ×××©", "9109": " consequences", "9110": " Carol", "9111": " medicine", "9112": "ALL", "9113": " lively", "9114": "chair", "9115": " committee", "9116": " deeds", "9117": " mars", "9118": " tick", "9119": " intervals", "9120": "spring", "9121": " Cy", "9122": " Mort", "9123": " hid", "9124": " succession", "9125": " University", "9126": " reflection", "9127": " contents", "9128": "ros", "9129": " mate", "9130": " sq", "9131": "kward", "9132": " individuals", "9133": " pointing", "9134": " disturbed", "9135": " apost", "9136": " Although", "9137": " access", "9138": " Jeff", "9139": " Ru", "9140": "××©", "9141": " sighed", "9142": " weapons", "9143": " covering", "9144": " records", "9145": " ×©×ª", "9146": " analy", "9147": " cream", "9148": "treat", "9149": "mel", "9150": "Old", "9151": " Hugh", "9152": " temp", "9153": " ugly", "9154": "sea", "9155": "anny", "9156": " fury", "9157": " fount", "9158": "inus", "9159": " authors", "9160": "hered", "9161": "poor", "9162": " â", "9163": "grand", "9164": " grain", "9165": " retire", "9166": " objection", "9167": " lesson", "9168": " readers", "9169": " resol", "9170": "iege", "9171": " Bas", "9172": " fasc", "9173": "fles", "9174": "Again", "9175": "placed", "9176": "oped", "9177": "free", "9178": "occasion", "9179": " organization", "9180": " heavens", "9181": " imprison", "9182": " chim", "9183": " scr", "9184": " Je", "9185": " ×©××©", "9186": " mead", "9187": " deer", "9188": " Middle", "9189": " thirst", "9190": "green", "9191": "SS", "9192": " crack", "9193": " embarrass", "9194": " attracted", "9195": " wrath", "9196": "igation", "9197": " Field", "9198": " ××¨", "9199": "cre", "9200": "MAN", "9201": "×××", "9202": " About", "9203": "×××", "9204": " whereas", "9205": " Nich", "9206": " vary", "9207": "acing", "9208": " cleared", "9209": " relieved", "9210": "begin", "9211": " wars", "9212": "oz", "9213": " artific", "9214": " ××××", "9215": " ××¨", "9216": " adj", "9217": " Gar", "9218": " vulgar", "9219": "rily", "9220": " dang", "9221": "pain", "9222": "broken", "9223": "hension", "9224": " finest", "9225": " Through", "9226": " exquisite", "9227": "alo", "9228": " holid", "9229": "Christian", "9230": " materials", "9231": " capture", "9232": " County", "9233": " clothing", "9234": " feels", "9235": "×¢×", "9236": "ppers", "9237": "×× ", "9238": "family", "9239": " wanting", "9240": "iveness", "9241": " sheet", "9242": "vas", "9243": "squ", "9244": "draw", "9245": "More", "9246": " preferred", "9247": " astonished", "9248": "early", "9249": " decide", "9250": " reflected", "9251": "inder", "9252": " bud", "9253": " tribut", "9254": " arts", "9255": " ×©××¢", "9256": " rhy", "9257": "icago", "9258": " ton", "9259": "want", "9260": "LES", "9261": "regard", "9262": " deadly", "9263": " depths", "9264": " shru", "9265": " pond", "9266": " mixture", "9267": "loc", "9268": "faced", "9269": "cott", "9270": "DP", "9271": " horizon", "9272": " considering", "9273": "super", "9274": "××¨×", "9275": " canoe", "9276": " â_", "9277": "lder", "9278": " beasts", "9279": " wages", "9280": "gic", "9281": " Greeks", "9282": " apartment", "9283": "IGHT", "9284": " student", "9285": "×¨×××ª", "9286": "emoiselle", "9287": "urious", "9288": " heed", "9289": " bund", "9290": "iner", "9291": "voice", "9292": " visitors", "9293": "×××", "9294": " ××", "9295": " Fore", "9296": " hated", "9297": " lic", "9298": " dict", "9299": "cclesiastical", "9300": " responsible", "9301": " satisfactory", "9302": "ISH", "9303": "ulties", "9304": "××", "9305": "run", "9306": "eer", "9307": "Tell", "9308": "Hen", "9309": "grim", "9310": "×××", "9311": "ââ", "9312": " jack", "9313": "orse", "9314": "number", "9315": "doubt", "9316": " Austria", "9317": "towards", "9318": " problems", "9319": "OUN", "9320": "uming", "9321": "×××¨", "9322": "influ", "9323": "================", "9324": " techn", "9325": " substant", "9326": "comes", "9327": " passages", "9328": " lament", "9329": "era", "9330": "hope", "9331": " recognize", "9332": " limits", "9333": " preserve", "9334": " assume", "9335": "××××", "9336": "××¨×ª", "9337": " poets", "9338": "aph", "9339": "irect", "9340": " ××", "9341": "icles", "9342": " drank", "9343": " Judge", "9344": " vanished", "9345": "\n                  ", "9346": " studies", "9347": " wherein", "9348": " clock", "9349": "ishops", "9350": "anta", "9351": " cir", "9352": "ocracy", "9353": "glass", "9354": " appet", "9355": " jur", "9356": " pronounced", "9357": " dwelling", "9358": " editor", "9359": " jun", "9360": " Mel", "9361": "ouched", "9362": "Ï", "9363": "bene", "9364": "About", "9365": " offices", "9366": " colored", "9367": "izz", "9368": "ferences", "9369": " handle", "9370": " ×××", "9371": "emb", "9372": "quiet", "9373": "â,", "9374": " Time", "9375": "although", "9376": " lion", "9377": "ipt", "9378": "burgh", "9379": " paying", "9380": "×××", "9381": " normal", "9382": " shalt", "9383": " closer", "9384": "osity", "9385": " Poor", "9386": "andal", "9387": " wearing", "9388": " newspaper", "9389": "Only", "9390": "××", "9391": "least", "9392": " wedding", "9393": "continued", "9394": " hastened", "9395": " feature", "9396": "olen", "9397": " breeze", "9398": " instructions", "9399": " Minister", "9400": " Canada", "9401": " magistr", "9402": "××¢×", "9403": " merit", "9404": " Command", "9405": " possibility", "9406": " endure", "9407": " wherever", "9408": "×¢×©", "9409": "adise", "9410": " honey", "9411": " lan", "9412": " oak", "9413": "num", "9414": " Saturday", "9415": " cells", "9416": " candid", "9417": " depends", "9418": " demands", "9419": " Without", "9420": " ×××", "9421": " ××¢×××", "9422": " wrought", "9423": " grows", "9424": " divers", "9425": "fold", "9426": "URE", "9427": "\n               ", "9428": " earliest", "9429": " introduction", "9430": "gging", "9431": " Because", "9432": " notwithstanding", "9433": " Spr", "9434": "uting", "9435": "lord", "9436": "IAN", "9437": " happens", "9438": " indic", "9439": "means", "9440": "onday", "9441": " vine", "9442": "ifully", "9443": " Sn", "9444": " fed", "9445": "Su", "9446": " typ", "9447": " princess", "9448": "brother", "9449": " Inf", "9450": " ×××©", "9451": " vn", "9452": " cy", "9453": "Somet", "9454": " negro", "9455": "ââ", "9456": " disgu", "9457": "ushes", "9458": " gloomy", "9459": " railroad", "9460": " civilization", "9461": "speak", "9462": "incre", "9463": " regions", "9464": " prey", "9465": " rolling", "9466": "Ö°×", "9467": "ights", "9468": " map", "9469": "fa", "9470": "criptions", "9471": " elabor", "9472": " handkerchief", "9473": " Mah", "9474": " park", "9475": " privilege", "9476": "determ", "9477": " seventy", "9478": " Stan", "9479": " ××¢×", "9480": "seven", "9481": " pool", "9482": "itality", "9483": "sure", "9484": "Sha", "9485": " landing", "9486": " races", "9487": " plot", "9488": "××¨", "9489": " additional", "9490": " leaning", "9491": " combination", "9492": " ××¦×", "9493": " claimed", "9494": " ××¡", "9495": "eries", "9496": " wake", "9497": "walk", "9498": " divide", "9499": " moreover", "9500": "× ×", "9501": "Me", "9502": ";â", "9503": "miral", "9504": " sensation", "9505": "××¢×", "9506": " model", "9507": "sole", "9508": " Test", "9509": " induced", "9510": "Sec", "9511": " precisely", "9512": "iquity", "9513": " modest", "9514": "feel", "9515": "forced", "9516": " ××¡", "9517": " sway", "9518": "rene", "9519": " owe", "9520": "Car", "9521": " motor", "9522": " respects", "9523": " products", "9524": " coarse", "9525": "endous", "9526": " Pur", "9527": " ate", "9528": " pile", "9529": " wha", "9530": "rants", "9531": " boots", "9532": " fortunate", "9533": " historical", "9534": " creation", "9535": " department", "9536": " selfish", "9537": "pert", "9538": " manage", "9539": " Sax", "9540": "roll", "9541": " IX", "9542": " beating", "9543": " daring", "9544": "brew", "9545": "[_", "9546": "ââââ", "9547": " parallel", "9548": "berry", "9549": " rays", "9550": "shad", "9551": " sympt", "9552": " criminal", "9553": "government", "9554": " weapon", "9555": " ×××ª×", "9556": " mischief", "9557": " advantages", "9558": " consist", "9559": " clay", "9560": " ×××", "9561": "usk", "9562": " linen", "9563": " platform", "9564": " indifferent", "9565": " revenge", "9566": " ambition", "9567": " institutions", "9568": " intelligent", "9569": " machinery", "9570": " effective", "9571": " ×¢××", "9572": " jumped", "9573": "opy", "9574": " sailed", "9575": "××", "9576": " retained", "9577": "ala", "9578": "iche", "9579": " bade", "9580": " obedience", "9581": " liberal", "9582": " spell", "9583": " agreement", "9584": " ×©× ×", "9585": "itan", "9586": "rot", "9587": " multitude", "9588": " enterprise", "9589": " termin", "9590": "herent", "9591": "began", "9592": " ××¤×¨", "9593": " staring", "9594": " reception", "9595": " recorded", "9596": "recogn", "9597": " attempts", "9598": "letter", "9599": " patriot", "9600": " consisted", "9601": "usually", "9602": " tobacco", "9603": "behind", "9604": " Department", "9605": "××©", "9606": " Bart", "9607": " supplies", "9608": "conc", "9609": " amusement", "9610": " harmony", "9611": " Moreover", "9612": " primitive", "9613": "grad", "9614": "aging", "9615": "near", "9616": "××", "9617": "pture", "9618": " Earth", "9619": "oore", "9620": " hut", "9621": " dirty", "9622": " commerce", "9623": " determination", "9624": " doubtful", "9625": "                                 ", "9626": "××", "9627": "apart", "9628": " ××¨", "9629": " bond", "9630": "sun", "9631": "UST", "9632": "                             ", "9633": " profess", "9634": "ands", "9635": " thither", "9636": " eighteen", "9637": " visits", "9638": " confused", "9639": "××××", "9640": " entreat", "9641": "everal", "9642": "istry", "9643": "pie", "9644": "main", "9645": "gold", "9646": "OOD", "9647": " Central", "9648": "×××", "9649": " delic", "9650": " emperor", "9651": " passions", "9652": "×¦××", "9653": " Head", "9654": "ulus", "9655": " Card", "9656": "enc", "9657": "dess", "9658": " writings", "9659": " veil", "9660": " sixteen", "9661": "resently", "9662": "ensity", "9663": "neighb", "9664": "around", "9665": "vill", "9666": " Frederick", "9667": " comparatively", "9668": "chance", "9669": " varied", "9670": "angle", "9671": " nois", "9672": " select", "9673": "riages", "9674": "rers", "9675": " positive", "9676": "atherine", "9677": " PL", "9678": " pul", "9679": "Ste", "9680": " risen", "9681": " dressing", "9682": "pson", "9683": "umps", "9684": " Bern", "9685": "intend", "9686": "fellow", "9687": "eers", "9688": " ××¨××", "9689": " physician", "9690": " ××¢×", "9691": " solitary", "9692": " corps", "9693": " slavery", "9694": "wering", "9695": " ××× ×", "9696": "cting", "9697": "                               ", "9698": " portrait", "9699": " drama", "9700": "azz", "9701": "irk", "9702": "SC", "9703": "Jack", "9704": " prominent", "9705": " Isa", "9706": " chin", "9707": " adjust", "9708": "miss", "9709": "front", "9710": " dramatic", "9711": "ordered", "9712": " plates", "9713": "agan", "9714": " Over", "9715": "uously", "9716": "bad", "9717": "IE", "9718": " ceremony", "9719": " liquid", "9720": "obody", "9721": " disgrace", "9722": " exists", "9723": " theatre", "9724": "agreeable", "9725": " graceful", "9726": " ×××¨×¥", "9727": "scape", "9728": "atching", "9729": " international", "9730": "××××", "9731": "××¢", "9732": "osa", "9733": " ××", "9734": "phan", "9735": " Revolution", "9736": " formation", "9737": "probably", "9738": "produ", "9739": " incred", "9740": "deep", "9741": " climate", "9742": " org", "9743": " ×××", "9744": " eastern", "9745": "asked", "9746": " commercial", "9747": " injury", "9748": " wilderness", "9749": "feeling", "9750": "wealth", "9751": "×§×", "9752": " Lincoln", "9753": " steamer", "9754": " preparing", "9755": "roduction", "9756": "eyed", "9757": " ×××××ª", "9758": " perf", "9759": " ××", "9760": "unities", "9761": " Met", "9762": " stomach", "9763": "wonder", "9764": "rim", "9765": " conquer", "9766": "works", "9767": " streams", "9768": " heap", "9769": "try", "9770": " Belg", "9771": " perfection", "9772": " XII", "9773": "attention", "9774": " brick", "9775": "alion", "9776": " noun", "9777": " wool", "9778": "really", "9779": "wl", "9780": " subsequent", "9781": " beds", "9782": " ×××××", "9783": " occurs", "9784": "mann", "9785": " flu", "9786": "become", "9787": "reath", "9788": "igence", "9789": "wen", "9790": "lock", "9791": " feeble", "9792": " achieve", "9793": " critical", "9794": " furnish", "9795": " regards", "9796": " ××", "9797": " agony", "9798": " therein", "9799": " vow", "9800": " Pacific", "9801": " Bre", "9802": "gn", "9803": " coward", "9804": "                                     ", "9805": "ensation", "9806": " perple", "9807": " upright", "9808": " voc", "9809": "aying", "9810": " ling", "9811": "ym", "9812": " translation", "9813": "Indeed", "9814": " motives", "9815": " followers", "9816": "comb", "9817": " rav", "9818": " maybe", "9819": "icking", "9820": " ×× ", "9821": " Burn", "9822": "ader", "9823": "otal", "9824": "Â§", "9825": " specimens", "9826": " ornament", "9827": " defeat", "9828": " virtues", "9829": " crept", "9830": " function", "9831": " Baron", "9832": " contrad", "9833": " ××ª×", "9834": " merc", "9835": " ×¢×××", "9836": "×¤× ×", "9837": "qual", "9838": " Author", "9839": " redu", "9840": "RAN", "9841": " villages", "9842": " XIV", "9843": " Maria", "9844": " ×××ª", "9845": "×¡×£", "9846": " Down", "9847": "uity", "9848": "tical", "9849": "daughter", "9850": "EEN", "9851": " instruments", "9852": " politics", "9853": " ××§×¨", "9854": " cannon", "9855": "inea", "9856": " Ele", "9857": " Federal", "9858": "××", "9859": "asper", "9860": " saint", "9861": "cs", "9862": "TS", "9863": "Mary", "9864": " prosperity", "9865": " withdraw", "9866": "uddy", "9867": " mutual", "9868": "OUS", "9869": "prep", "9870": " harsh", "9871": "result", "9872": " rele", "9873": " bars", "9874": "nation", "9875": " comprehend", "9876": " ××¤× ×", "9877": " boil", "9878": " brush", "9879": " Hard", "9880": " haue", "9881": " pink", "9882": "ees", "9883": "PER", "9884": " tragedy", "9885": " rug", "9886": "××¨×¥", "9887": " cents", "9888": "nut", "9889": "mur", "9890": "century", "9891": " resent", "9892": "develop", "9893": " universe", "9894": "elia", "9895": " upward", "9896": " sober", "9897": " hed", "9898": "received", "9899": " rib", "9900": " bloom", "9901": " Faith", "9902": " beard", "9903": " dried", "9904": " cens", "9905": " dollar", "9906": " breathing", "9907": " skull", "9908": " assault", "9909": " program", "9910": " vice", "9911": " barn", "9912": "cat", "9913": "famil", "9914": " disappointed", "9915": " earnestly", "9916": " Abraham", "9917": " XI", "9918": "taining", "9919": " roar", "9920": "quick", "9921": " weigh", "9922": "true", "9923": "press", "9924": "pha", "9925": "mun", "9926": " wandering", "9927": " afforded", "9928": " conceived", "9929": " Arm", "9930": " dragged", "9931": " glow", "9932": " closing", "9933": "aining", "9934": "uration", "9935": " gru", "9936": "move", "9937": " internal", "9938": " Knight", "9939": "cied", "9940": " hook", "9941": "fair", "9942": "Having", "9943": " abandon", "9944": " Committee", "9945": " occupation", "9946": " finan", "9947": " ×©×× ×", "9948": "×× ×ª", "9949": "convers", "9950": " ××", "9951": " congreg", "9952": " gardens", "9953": " fran", "9954": "pol", "9955": "Lady", "9956": "picuous", "9957": " emphas", "9958": "agne", "9959": " seal", "9960": "IES", "9961": " convenient", "9962": "comfortable", "9963": " Divine", "9964": "written", "9965": " procession", "9966": " Also", "9967": " invitation", "9968": " fourteen", "9969": " humour", "9970": "shire", "9971": " flatter", "9972": " plains", "9973": " Os", "9974": "× ×", "9975": "kept", "9976": " ber", "9977": "isd", "9978": " inherit", "9979": " puzzled", "9980": " displayed", "9981": " discussed", "9982": " colonel", "9983": " champ", "9984": " firing", "9985": "polit", "9986": "lines", "9987": "Poor", "9988": " provinces", "9989": " comrades", "9990": " timid", "9991": " daylight", "9992": " trunk", "9993": "agues", "9994": " expend", "9995": " Cab", "9996": " Mir", "9997": " lou", "9998": "bound", "9999": ".-", "10000": "abbath", "10001": " discipline", "10002": " preparation", "10003": " swiftly", "10004": " proceeding", "10005": " ××©×", "10006": " adding", "10007": "                                    ", "10008": " ×¨×¦", "10009": " chron", "10010": " roots", "10011": "emale", "10012": " heels", "10013": " cave", "10014": " fisher", "10015": " observations", "10016": " document", "10017": "writing", "10018": " blows", "10019": "×§×", "10020": "quer", "10021": " Child", "10022": "ifies", "10023": "Î»", "10024": "rise", "10025": "minded", "10026": "odge", "10027": "×× ×", "10028": "ila", "10029": "sex", "10030": " fab", "10031": "Any", "10032": " missed", "10033": " silently", "10034": "×¡××", "10035": " Pitt", "10036": "×××ª", "10037": " Ara", "10038": " Sub", "10039": "imson", "10040": " fet", "10041": "First", "10042": " instruction", "10043": " adorn", "10044": " clam", "10045": " Ob", "10046": "inence", "10047": "Ã", "10048": "fish", "10049": " /", "10050": " discharge", "10051": " angles", "10052": " embra", "10053": " awkward", "10054": "××©×", "10055": " polite", "10056": "\n              ", "10057": "ictions", "10058": " ××××", "10059": "irts", "10060": " pig", "10061": " afore", "10062": "oven", "10063": " Sarah", "10064": " columns", "10065": " customs", "10066": "Which", "10067": " Place", "10068": " painter", "10069": "ilda", "10070": "inkle", "10071": " unpleasant", "10072": " wheels", "10073": " washed", "10074": "sar", "10075": " promptly", "10076": " specific", "10077": " infantry", "10078": " realize", "10079": " impressed", "10080": " offence", "10081": " ener", "10082": "ighted", "10083": "ima", "10084": "state", "10085": "onia", "10086": " responded", "10087": " inspired", "10088": " doorway", "10089": " accused", "10090": "ranny", "10091": " Pot", "10092": " ××¨×¥", "10093": " Hind", "10094": "â", "10095": "corn", "10096": " disgust", "10097": "sufficient", "10098": " timber", "10099": "mighty", "10100": " summit", "10101": "olet", "10102": "×× ", "10103": "ivities", "10104": " vital", "10105": " pir", "10106": "esy", "10107": " Shall", "10108": " companies", "10109": " recognition", "10110": " dispute", "10111": " Being", "10112": " deaths", "10113": "itively", "10114": "mill", "10115": "Was", "10116": "Bet", "10117": " anchor", "10118": " Helen", "10119": "condition", "10120": " occasional", "10121": " differences", "10122": " simplicity", "10123": " ×¤×", "10124": "tegr", "10125": " Liber", "10126": " Penn", "10127": "raph", "10128": "talk", "10129": " Greece", "10130": " verses", "10131": " murde", "10132": " righteous", "10133": "consequ", "10134": " vest", "10135": "etic", "10136": " lace", "10137": " bir", "10138": "\n            ", "10139": " institution", "10140": "service", "10141": "Art", "10142": "×××", "10143": " musk", "10144": " namely", "10145": "landers", "10146": " overwhel", "10147": "×××", "10148": " rein", "10149": " tip", "10150": "hill", "10151": " surrender", "10152": " available", "10153": " California", "10154": " distinguish", "10155": " irregular", "10156": " rab", "10157": " peas", "10158": " planted", "10159": " Brand", "10160": "Mon", "10161": " arrested", "10162": " provision", "10163": "××××", "10164": " ×¤× ×", "10165": " Ned", "10166": " Put", "10167": " Cra", "10168": " IS", "10169": " silly", "10170": "Many", "10171": "Em", "10172": " Protestant", "10173": " acknowledged", "10174": "followed", "10175": " healthy", "10176": " errors", "10177": " ×××", "10178": " illness", "10179": " sets", "10180": " scri", "10181": " Very", "10182": " unw", "10183": " JOHN", "10184": " shells", "10185": " Wind", "10186": " Hum", "10187": "×¨××ª", "10188": "immediately", "10189": " au", "10190": " cloak", "10191": " travelling", "10192": "×××", "10193": " colony", "10194": " goin", "10195": " losing", "10196": " inser", "10197": "oubled", "10198": "civil", "10199": " fifth", "10200": " ××××", "10201": " trained", "10202": " negot", "10203": " behalf", "10204": "á½", "10205": "coh", "10206": "ba", "10207": " neglected", "10208": " ××××", "10209": " sketch", "10210": " certainty", "10211": "abri", "10212": " PRO", "10213": " haz", "10214": "icism", "10215": " mould", "10216": "bod", "10217": "became", "10218": " designed", "10219": " recognised", "10220": " advised", "10221": " ×××", "10222": "cession", "10223": " gown", "10224": "uits", "10225": " recollect", "10226": " shooting", "10227": " Jerusalem", "10228": " palm", "10229": "Still", "10230": " volumes", "10231": " lessons", "10232": " ××××¨", "10233": " lightning", "10234": " giant", "10235": " diver", "10236": " trop", "10237": "uk", "10238": "rons", "10239": "borough", "10240": " strictly", "10241": " improved", "10242": "×××", "10243": " joke", "10244": " psych", "10245": " fence", "10246": "onic", "10247": " Acad", "10248": " Ã", "10249": " Monte", "10250": " funeral", "10251": " Philadelphia", "10252": " confession", "10253": " ×§××", "10254": " smart", "10255": "urrection", "10256": " nerves", "10257": "Ã", "10258": "pa", "10259": " Confeder", "10260": " preparations", "10261": " Supp", "10262": " accomplish", "10263": " Asia", "10264": " confessed", "10265": " survey", "10266": "clot", "10267": "bery", "10268": "olis", "10269": "street", "10270": "UG", "10271": " Add", "10272": " admirable", "10273": "ââ", "10274": " LA", "10275": " Hay", "10276": "illings", "10277": " stuck", "10278": "leton", "10279": "Fran", "10280": " Florence", "10281": " tube", "10282": " transport", "10283": " Justice", "10284": " gallant", "10285": " determine", "10286": "earth", "10287": " misfortune", "10288": "lectric", "10289": "××××ª", "10290": "××××", "10291": " everyone", "10292": "dead", "10293": "deal", "10294": " thrill", "10295": "omp", "10296": " holes", "10297": "asse", "10298": "Acc", "10299": " Temple", "10300": " Senate", "10301": " annual", "10302": " flames", "10303": "unci", "10304": " Lab", "10305": " rings", "10306": " sul", "10307": "uz", "10308": "George", "10309": " frost", "10310": "priv", "10311": "help", "10312": "uset", "10313": " slope", "10314": " poems", "10315": "osis", "10316": " reminded", "10317": "requently", "10318": " Leg", "10319": " ××××", "10320": " seconds", "10321": "×××", "10322": " emotions", "10323": " ashes", "10324": " Office", "10325": " lowest", "10326": "text", "10327": "×§×©", "10328": "×××", "10329": " stem", "10330": "bott", "10331": " vengeance", "10332": " ×¦×¨××", "10333": " messenger", "10334": " response", "10335": "                                   ", "10336": " appar", "10337": " unjust", "10338": "throw", "10339": " MAN", "10340": " stolen", "10341": " organized", "10342": " satisfy", "10343": "office", "10344": "××§×", "10345": " Ol", "10346": " Home", "10347": "RIC", "10348": " surround", "10349": " bushes", "10350": " bloss", "10351": " EN", "10352": "××", "10353": "anting", "10354": " Museum", "10355": "ouri", "10356": "hair", "10357": "husband", "10358": " persuaded", "10359": "ographical", "10360": " ruined", "10361": "HAM", "10362": "×××", "10363": " ×¤×", "10364": " Chicago", "10365": " vap", "10366": " angels", "10367": " mour", "10368": "isms", "10369": " undoubtedly", "10370": " confirmed", "10371": " recalled", "10372": "compan", "10373": "strange", "10374": " mix", "10375": "Ay", "10376": " absorbed", "10377": " romance", "10378": " Lucy", "10379": "purpose", "10380": " missing", "10381": " grandfather", "10382": " heartily", "10383": " childhood", "10384": " pole", "10385": " uses", "10386": "ordon", "10387": "Ö¸×", "10388": "bable", "10389": "bun", "10390": " gesture", "10391": " mingled", "10392": " sadly", "10393": " ××¤×", "10394": "idding", "10395": " questioned", "10396": " assigned", "10397": " flashed", "10398": " cunning", "10399": "says", "10400": "Among", "10401": " calmly", "10402": " pressing", "10403": " proceedings", "10404": " ruins", "10405": " sunk", "10406": " flies", "10407": "aston", "10408": "smith", "10409": " easier", "10410": " slee", "10411": " guilt", "10412": " ×××", "10413": " peasant", "10414": " wheat", "10415": " shirt", "10416": "emp", "10417": "adm", "10418": " nav", "10419": " poll", "10420": "VII", "10421": " Order", "10422": " ××§×", "10423": " Pruss", "10424": " ×¢××", "10425": " ××××", "10426": " spin", "10427": "Ant", "10428": "appl", "10429": "ORK", "10430": " chase", "10431": "Spe", "10432": " arrangements", "10433": " defense", "10434": " prosec", "10435": " exagger", "10436": " Capt", "10437": " duck", "10438": " cock", "10439": "itals", "10440": " tenderness", "10441": " xv", "10442": " ××××", "10443": "inson", "10444": " submit", "10445": "ournal", "10446": " ××× ×", "10447": "cause", "10448": "SP", "10449": " Holland", "10450": "carried", "10451": " widely", "10452": "Those", "10453": "understood", "10454": " ×××", "10455": " puts", "10456": " challen", "10457": " peop", "10458": " ample", "10459": " Dec", "10460": " ram", "10461": "usively", "10462": " attained", "10463": "vous", "10464": "gers", "10465": "Ye", "10466": " vanity", "10467": " surrounding", "10468": " enjoyment", "10469": "×××", "10470": " formal", "10471": " warned", "10472": "sugg", "10473": " ××¨", "10474": "×©××", "10475": "icy", "10476": "zer", "10477": "LD", "10478": "Great", "10479": " summoned", "10480": "streng", "10481": " hunger", "10482": " treacher", "10483": " chemical", "10484": "acted", "10485": "                                      ", "10486": " counted", "10487": "------", "10488": " ×××", "10489": " Brig", "10490": " pistol", "10491": "orce", "10492": "circumstances", "10493": " obeyed", "10494": "ACK", "10495": "However", "10496": " represents", "10497": " muscles", "10498": " pretend", "10499": " stole", "10500": " invention", "10501": " organs", "10502": " stirred", "10503": " ordin", "10504": " Albert", "10505": " colonies", "10506": " Kate", "10507": "places", "10508": " shud", "10509": "××", "10510": " pious", "10511": "ito", "10512": "iser", "10513": "â", "10514": "pun", "10515": "obl", "10516": "SH", "10517": " Edition", "10518": " drops", "10519": " students", "10520": "×× ××ª", "10521": " ×¤×¢×", "10522": "                                       ", "10523": " \"'", "10524": " nurs", "10525": "usetts", "10526": " positions", "10527": " ×××", "10528": " executed", "10529": " gravely", "10530": " cryst", "10531": " inquire", "10532": " payment", "10533": " ××¨", "10534": " reserve", "10535": " yonder", "10536": " erect", "10537": "faith", "10538": " romantic", "10539": " hostile", "10540": "truth", "10541": "×××", "10542": " shouldn", "10543": " Ruth", "10544": " Win", "10545": " toil", "10546": " mant", "10547": " wagon", "10548": " papa", "10549": " specimen", "10550": " associated", "10551": " picturesque", "10552": " representative", "10553": "××¦×", "10554": " belt", "10555": "achusetts", "10556": "oster", "10557": "uster", "10558": " Theod", "10559": " Hart", "10560": " Athen", "10561": " review", "10562": " pitch", "10563": "inv", "10564": "oard", "10565": " moderate", "10566": " sunset", "10567": " pleasures", "10568": " management", "10569": "umbling", "10570": " dru", "10571": "fight", "10572": "Since", "10573": " extract", "10574": " ××¨×", "10575": "actions", "10576": " prices", "10577": " ridge", "10578": "emon", "10579": " MAR", "10580": " damp", "10581": " vigorous", "10582": " climbed", "10583": " imperfect", "10584": "\n\n                              ", "10585": " dipl", "10586": "athetic", "10587": " engagement", "10588": " elephant", "10589": "proceed", "10590": " ×ª×©", "10591": " commence", "10592": "soever", "10593": " quart", "10594": "perial", "10595": "×× ×¡", "10596": " vener", "10597": "ctures", "10598": " ninet", "10599": "Dear", "10600": " propriet", "10601": "Madame", "10602": " Venice", "10603": " ××¨×", "10604": " respectable", "10605": "retion", "10606": "ogs", "10607": " prime", "10608": " disorder", "10609": "aron", "10610": " wrapped", "10611": " loaded", "10612": "acked", "10613": " jury", "10614": " NEW", "10615": " ××", "10616": " kid", "10617": " dun", "10618": " sink", "10619": " sailors", "10620": " tremendous", "10621": "×××", "10622": "Three", "10623": "Öµ×", "10624": " desirable", "10625": "××ª××", "10626": "elic", "10627": " rises", "10628": " ×××", "10629": "atoes", "10630": " abruptly", "10631": " warriors", "10632": " halted", "10633": " funny", "10634": " medium", "10635": " remainder", "10636": " equip", "10637": " propose", "10638": " incap", "10639": "orship", "10640": " ××", "10641": " Pierre", "10642": " fain", "10643": " bust", "10644": " photograph", "10645": " ××©×××", "10646": " disappointment", "10647": " Franklin", "10648": " Swed", "10649": " ××¤", "10650": " HUB", "10651": "church", "10652": " induce", "10653": "'-", "10654": " á¼", "10655": " improvement", "10656": " reproach", "10657": " garments", "10658": " warn", "10659": "                                        ", "10660": "oche", "10661": " × ×¡", "10662": "iders", "10663": "stro", "10664": "ships", "10665": "ipping", "10666": "die", "10667": "Tom", "10668": "olutely", "10669": " admir", "10670": " restore", "10671": "hio", "10672": " Nay", "10673": "outs", "10674": " upstairs", "10675": "owl", "10676": "isible", "10677": "ridge", "10678": "nold", "10679": "bright", "10680": "Cle", "10681": " criticism", "10682": "expression", "10683": "IRST", "10684": " secretary", "10685": " corners", "10686": "brance", "10687": " percent", "10688": " aroused", "10689": "empl", "10690": " stable", "10691": " mig", "10692": " abundant", "10693": " changing", "10694": "spo", "10695": "ansas", "10696": " OR", "10697": "×××ª", "10698": " Ill", "10699": " majesty", "10700": " mock", "10701": " heavenly", "10702": " wax", "10703": "excl", "10704": " nob", "10705": "amen", "10706": " weeping", "10707": " eh", "10708": " bewild", "10709": "aning", "10710": "iour", "10711": "CON", "10712": " bands", "10713": "evening", "10714": " warmth", "10715": "××××", "10716": " representation", "10717": "Though", "10718": " crimes", "10719": "const", "10720": "immer", "10721": " cub", "10722": " oft", "10723": "posed", "10724": "Cor", "10725": "ironment", "10726": "xxx", "10727": " Jerry", "10728": "syl", "10729": "changed", "10730": " oun", "10731": "shi", "10732": "distance", "10733": "Trans", "10734": "××¦×", "10735": " curse", "10736": " indicate", "10737": "alling", "10738": " ink", "10739": "TON", "10740": " indignation", "10741": "-----+-----+-----+-----+-----+-----+-----+-----+", "10742": " purchased", "10743": " purely", "10744": "×××", "10745": " Leon", "10746": " defin", "10747": " Marquis", "10748": " artistic", "10749": " commit", "10750": " someone", "10751": " Ha", "10752": " Six", "10753": " Si", "10754": "entire", "10755": "inated", "10756": "â", "10757": " arguments", "10758": "Once", "10759": " salvation", "10760": " divisions", "10761": " colors", "10762": "remember", "10763": " answers", "10764": " intercourse", "10765": "venth", "10766": "ano", "10767": "Whe", "10768": " Atlantic", "10769": " cultivated", "10770": " ×¨××¢", "10771": " ××§××", "10772": "azine", "10773": " trump", "10774": " ××¤×", "10775": " Fox", "10776": "else", "10777": " roused", "10778": "××§", "10779": " conj", "10780": " Monday", "10781": " Mod", "10782": " Mas", "10783": "Mer", "10784": " Samuel", "10785": " explos", "10786": " conspir", "10787": " alarmed", "10788": " Tex", "10789": " tract", "10790": "IB", "10791": "castle", "10792": "advantage", "10793": " peaceful", "10794": "nox", "10795": " bush", "10796": ".\"--", "10797": " prolong", "10798": " Dou", "10799": " ××¡", "10800": " ×××", "10801": " ××× ×", "10802": "NOT", "10803": "avern", "10804": " strangely", "10805": " infant", "10806": " ×¨×", "10807": " manuscript", "10808": " convent", "10809": " whirl", "10810": "aters", "10811": " narrative", "10812": " fancied", "10813": " favorite", "10814": " Countess", "10815": " ×©×××", "10816": " chiefs", "10817": " ×××", "10818": " reluct", "10819": " deserve", "10820": " ×¢××©××", "10821": "ruit", "10822": " ×××", "10823": "××", "10824": " tub", "10825": "Life", "10826": "EX", "10827": "Certainly", "10828": "Enter", "10829": " lovers", "10830": " bitterly", "10831": " verd", "10832": " inspect", "10833": " ××¨", "10834": " ×ª××ª", "10835": " passengers", "10836": " chuck", "10837": " Rus", "10838": " hay", "10839": " pall", "10840": "god", "10841": "VIII", "10842": " HUBERT", "10843": " farewell", "10844": " culture", "10845": "arently", "10846": " driver", "10847": " Armen", "10848": "ending", "10849": " rural", "10850": " subl", "10851": " Sop", "10852": " grie", "10853": " nomin", "10854": " wounds", "10855": " inevitable", "10856": " judges", "10857": "ignor", "10858": " ××©×", "10859": "umerable", "10860": " Bru", "10861": " lunch", "10862": "rum", "10863": "British", "10864": "William", "10865": " Wilson", "10866": " sickness", "10867": " portions", "10868": "rost", "10869": " fetch", "10870": "suddenly", "10871": "cit", "10872": "aired", "10873": "Nat", "10874": " chimney", "10875": "ependence", "10876": "shaped", "10877": "secret", "10878": " charity", "10879": " cris", "10880": " sentiments", "10881": "esley", "10882": " foe", "10883": " citizen", "10884": " engage", "10885": " ×××××", "10886": " repent", "10887": "neither", "10888": " Ay", "10889": " gam", "10890": " siege", "10891": " wilt", "10892": "gun", "10893": " ridiculous", "10894": " stopping", "10895": "ortions", "10896": " whit", "10897": " fib", "10898": "rusted", "10899": "Mil", "10900": ",=", "10901": " Spaniards", "10902": " jewels", "10903": " Hamilton", "10904": " newly", "10905": "ials", "10906": " plague", "10907": " Goth", "10908": "× ×", "10909": " Sing", "10910": "seem", "10911": " Neither", "10912": "ACE", "10913": " trembled", "10914": "ENTS", "10915": " combat", "10916": " Adams", "10917": "attempt", "10918": " boiling", "10919": " Les", "10920": "entially", "10921": "lee", "10922": "iastic", "10923": "dam", "10924": " acknowledge", "10925": " shores", "10926": " neighbours", "10927": " murdered", "10928": "×××", "10929": " Lind", "10930": " seeds", "10931": " hiding", "10932": " saints", "10933": "ez", "10934": "Count", "10935": "phew", "10936": " Providence", "10937": " diameter", "10938": "vania", "10939": " Brother", "10940": " team", "10941": "enery", "10942": " liable", "10943": "agraph", "10944": " ×©××", "10945": " leaped", "10946": "rod", "10947": " dashed", "10948": "Pres", "10949": " pattern", "10950": "experience", "10951": " #-", "10952": "××¤×", "10953": " accommod", "10954": " pleasing", "10955": " ministers", "10956": " returns", "10957": " remedy", "10958": " preacher", "10959": " amused", "10960": " Point", "10961": "tery", "10962": " hint", "10963": "reve", "10964": "sense", "10965": " scarlet", "10966": " ×××ª", "10967": " ×©×§", "10968": " altered", "10969": "×¢×¨×", "10970": " saving", "10971": " deceived", "10972": " tread", "10973": "Des", "10974": " constructed", "10975": " renewed", "10976": " Whether", "10977": "returned", "10978": "built", "10979": " forests", "10980": " opera", "10981": "uese", "10982": "cloth", "10983": " Fanny", "10984": " Ing", "10985": " tie", "10986": "iac", "10987": "FO", "10988": "isdiction", "10989": " blew", "10990": " fragments", "10991": " meantime", "10992": " replaced", "10993": " boast", "10994": "ggy", "10995": "eline", "10996": " saith", "10997": "across", "10998": " hes", "10999": " eighty", "11000": " ××¢×©××ª", "11001": "××©××", "11002": " confer", "11003": " Eastern", "11004": " Alf", "11005": "hear", "11006": "Colonel", "11007": " yielded", "11008": " Burg", "11009": " conceive", "11010": " surprising", "11011": "added", "11012": " descent", "11013": "fear", "11014": " throng", "11015": " unl", "11016": " jail", "11017": "thened", "11018": " mail", "11019": "mad", "11020": " rigid", "11021": "â", "11022": " sailor", "11023": " Jewish", "11024": " destined", "11025": " temporary", "11026": " appointment", "11027": " raw", "11028": "eled", "11029": "oland", "11030": " Sac", "11031": " phenomena", "11032": " Roger", "11033": " Josh", "11034": " mechanical", "11035": " Blue", "11036": " assurance", "11037": "concl", "11038": " aged", "11039": " quit", "11040": " Rec", "11041": " butt", "11042": " gang", "11043": "Jan", "11044": " exercised", "11045": "riday", "11046": " furious", "11047": " Hebrew", "11048": " GRI", "11049": "×¢×", "11050": " Cas", "11051": " MA", "11052": "later", "11053": "vellous", "11054": " Michael", "11055": "ADY", "11056": "×¨×××", "11057": " Social", "11058": " ××¢×", "11059": " enchant", "11060": " knock", "11061": " abol", "11062": " SH", "11063": " stores", "11064": "Ne", "11065": "Im", "11066": " African", "11067": "books", "11068": " climb", "11069": " bullet", "11070": " filling", "11071": " reverence", "11072": " hymn", "11073": " bloody", "11074": " ensu", "11075": " lip", "11076": "aren", "11077": "rob", "11078": "mid", "11079": "Church", "11080": " Englishman", "11081": " differ", "11082": " plane", "11083": "odes", "11084": " ××××¨", "11085": " woe", "11086": " ward", "11087": "Ro", "11088": " telegraph", "11089": "joining", "11090": "×¨××¢", "11091": " trusted", "11092": " types", "11093": " Alice", "11094": " advoc", "11095": " ××", "11096": " Next", "11097": "ayer", "11098": " dense", "11099": "mach", "11100": "France", "11101": " doctrines", "11102": " balls", "11103": " Northern", "11104": " bron", "11105": " ×××", "11106": " asks", "11107": " foul", "11108": "rell", "11109": "hent", "11110": " tact", "11111": "habited", "11112": " appropriate", "11113": " districts", "11114": "udding", "11115": " intent", "11116": " trap", "11117": "expl", "11118": " ×××", "11119": " ××××¨", "11120": " ×××", "11121": "asury", "11122": " dyn", "11123": " cards", "11124": " crest", "11125": "danger", "11126": "Bel", "11127": " wandered", "11128": " entertained", "11129": "ITY", "11130": " madam", "11131": "OME", "11132": "belong", "11133": "aneously", "11134": " admired", "11135": "upreme", "11136": " Wel", "11137": " Has", "11138": " Tor", "11139": "utor", "11140": "Ï", "11141": " impatient", "11142": " smoking", "11143": "Although", "11144": " create", "11145": " experiences", "11146": " fairy", "11147": " Dean", "11148": " inval", "11149": " ××¤", "11150": "liver", "11151": " succ", "11152": "imer", "11153": "further", "11154": "camp", "11155": " stretch", "11156": " Alexand", "11157": "erer", "11158": "ASS", "11159": " faced", "11160": " advancing", "11161": "grown", "11162": " apple", "11163": " workers", "11164": " ×©×¨", "11165": " mans", "11166": " gross", "11167": " nerve", "11168": "anx", "11169": "apped", "11170": " ××××ª×", "11171": " extravag", "11172": " despite", "11173": " canal", "11174": " Por", "11175": "essie", "11176": " sou", "11177": "folk", "11178": "Would", "11179": " leisure", "11180": " fiery", "11181": " ××× ×", "11182": " killing", "11183": " educated", "11184": "party", "11185": " considerably", "11186": " producing", "11187": " oppon", "11188": "Ö¸Ö¼×", "11189": "××", "11190": "apsed", "11191": " roses", "11192": " BE", "11193": "×ª×", "11194": "esar", "11195": " mun", "11196": " dangers", "11197": " Japanese", "11198": " attractive", "11199": " floating", "11200": "\n\n                 ", "11201": " ×××¨××", "11202": " occupy", "11203": "impse", "11204": " discourse", "11205": "cribe", "11206": " pretended", "11207": "×¡×", "11208": " dearest", "11209": " Turn", "11210": "wich", "11211": "uzz", "11212": "_.\"", "11213": " embro", "11214": " publication", "11215": " edges", "11216": " evolution", "11217": " repose", "11218": "assy", "11219": "××¨×", "11220": " Soc", "11221": " cake", "11222": "hable", "11223": "fine", "11224": "LAND", "11225": "KING", "11226": "Cal", "11227": "App", "11228": " battery", "11229": "chers", "11230": "××¨×", "11231": " owners", "11232": "ultural", "11233": "beyond", "11234": " Prop", "11235": " Sa", "11236": "idable", "11237": "inement", "11238": " exhibited", "11239": " witnesses", "11240": " pursue", "11241": " generations", "11242": " chances", "11243": "version", "11244": " unity", "11245": " sear", "11246": "raits", "11247": "reached", "11248": " hesitation", "11249": " Library", "11250": " springs", "11251": " Party", "11252": " avoided", "11253": " dreamed", "11254": " contest", "11255": " reserved", "11256": "usal", "11257": "×××", "11258": "asily", "11259": "sn", "11260": " holiday", "11261": " Nicholas", "11262": " teachers", "11263": " ventured", "11264": "skin", "11265": " crimson", "11266": "emen", "11267": " yer", "11268": "itia", "11269": "occupied", "11270": "ulsion", "11271": " chairs", "11272": "afterwards", "11273": "ivering", "11274": " charges", "11275": " indisp", "11276": "angled", "11277": " scul", "11278": " adequ", "11279": "neg", "11280": "opl", "11281": " worry", "11282": " push", "11283": " mic", "11284": "voc", "11285": "Nay", "11286": " ashore", "11287": " rescue", "11288": "istrict", "11289": " Columb", "11290": " awoke", "11291": " placing", "11292": " lasted", "11293": " Grant", "11294": "amy", "11295": " nut", "11296": "onge", "11297": "Ã«", "11298": "welt", "11299": "];", "11300": " appetite", "11301": " artificial", "11302": " significance", "11303": " resemblance", "11304": " Egyptian", "11305": " moonlight", "11306": "countered", "11307": " dealing", "11308": "××©×", "11309": " ×××¨", "11310": " subtle", "11311": " × ×§", "11312": " resign", "11313": " Gil", "11314": " selection", "11315": "urable", "11316": " wreck", "11317": "liter", "11318": " conquered", "11319": "natured", "11320": "××××ª", "11321": " repair", "11322": " sphere", "11323": " aristo", "11324": " arbit", "11325": " Ra", "11326": " Bed", "11327": " goss", "11328": "male", "11329": "laid", "11330": "gall", "11331": "TO", "11332": "â¦", "11333": " cares", "11334": "××¢×", "11335": " ××× ×", "11336": "unting", "11337": "eches", "11338": " ×××©", "11339": "IND", "11340": " SC", "11341": " wept", "11342": "via", "11343": "uart", "11344": " injured", "11345": " sweep", "11346": " letting", "11347": " scant", "11348": " Valley", "11349": " Var", "11350": " ××¡", "11351": "ciences", "11352": "aders", "11353": " financial", "11354": " warrant", "11355": "ceptible", "11356": "asty", "11357": "accept", "11358": " deemed", "11359": " etern", "11360": " mourn", "11361": " fox", "11362": "living", "11363": "Give", "11364": " symptoms", "11365": " luxury", "11366": " abundance", "11367": " privileges", "11368": " ××¢××¨", "11369": " drag", "11370": " flushed", "11371": " brut", "11372": " parting", "11373": "××ª×", "11374": " ×××",
[...]
