{"version": 1, "special_tokens": ["<|endoftext|>"], "vocab": {"0": "\u0000", "1": "\u0001", "2": "\u0002", "3": "\u0003", "4": "\u0004", "5": "\u0005", "6": "\u0006", "7": "\u0007", "8": "\b", "9": "\t", "10": "\n", "11": "\u000b", "12": "\f", "13": "\r", "14": "\u000e", "15": "\u000f", "16": "\u0010", "17": "\u0011", "18": "\u0012", "19": "\u0013", "20": "\u0014", "21": "\u0015", "22": "\u0016", "23": "\u0017", "24": "\u0018", "25": "\u0019", "26": "\u001a", "27": "\u001b", "28": "\u001c", "29": "\u001d", "30": "\u001e", "31": "\u001f", "32": " ", "33": "!", "34": "\"", "35": "#", "36": "$", "37": "%", "38": "&", "39": "'", "40": "(", "41": ")", "42": "*", "43": "+", "44": ",", "45": "-", "46": ".", "47": "/", "48": "0", "49": "1", "50": "2", "51": "3", "52": "4", "53": "5", "54": "6", "55": "7", "56": "8", "57": "9", "58": ":", "59": ";", "60": "<", "61": "=", "62": ">", "63": "?", "64": "@", "65": "A", "66": "B", "67": "C", "68": "D", "69": "E", "70": "F", "71": "G", "72": "H", "73": "I", "74": "J", "75": "K", "76": "L", "77": "M", "78": "N", "79": "O", "80": "P", "81": "Q", "82": "R", "83": "S", "84": "T", "85": "U", "86": "V", "87": "W", "88": "X", "89": "Y", "90": "Z", "91": "[", "92": "\\", "93": "]", "94": "^", "95": "_", "96": "`", "97": "a", "98": "b", "99": "c", "100": "d", "101": "e", "102": "f", "103": "g", "104": "h", "105": "i", "106": "j", "107": "k", "108": "l", "109": "m", "110": "n", "111": "o", "112": "p", "113": "q", "114": "r", "115": "s", "116": "t", "117": "u", "118": "v", "119": "w", "120": "x", "121": "y", "122": "z", "123": "{", "124": "|", "125": "}", "126": "~", "127": "", "128": "", "129": "", "130": "", "131": "", "132": "", "133": "", "134": "", "135": "", "136": "", "137": "", "138": "", "139": "", "140": "", "141": "", "142": "", "143": "", "144": "", "145": "", "146": "", "147": "", "148": "", "149": "", "150": "", "151": "", "152": "", "153": "", "154": "", "155": "", "156": "", "157": "", "158": "", "159": "", "160": " ", "161": "¡", "162": "¢", "163": "£", "164": "¤", "165": "¥", "166": "¦", "167": "§", "168": "¨", "169": "©", "170": "ª", "171": "«", "172": "¬", "173": "­", "174": "®", "175": "¯", "176": "°", "177": "±", "178": "²", "179": "³", "180": "´", "181": "µ", "182": "¶", "183": "·", "184": "¸", "185": "¹", "186": "º", "187": "»", "188": "¼", "189": "½", "190": "¾", "191": "¿", "192": "À", "193": "Á", "194": "Â", "195": "Ã", "196": "Ä", "197": "Å", "198": "Æ", "199": "Ç", "200": "È", "201": "É", "202": "Ê", "203": "Ë", "204": "Ì", "205": "Í", "206": "Î", "207": "Ï", "208": "Ð", "209": "Ñ", "210": "Ò", "211": "Ó", "212": "Ô", "213": "Õ", "214": "Ö", "215": "×", "216": "Ø", "217": "Ù", "218": "Ú", "219": "Û", "220": "Ü", "221": "Ý", "222": "Þ", "223": "ß", "224": "à", "225": "á", "226": "â", "227": "ã", "228": "ä", "229": "å", "230": "æ", "231": "ç", "232": "è", "233": "é", "234": "ê", "235": "ë", "236": "ì", "237": "í", "238": "î", "239": "ï", "240": "ð", "241": "ñ", "242": "ò", "243": "ó", "244": "ô", "245": "õ", "246": "ö", "247": "÷", "248": "ø", "249": "ù", "250": "ú", "251": "û", "252": "ü", "253": "ý", "254": "þ", "255": "ÿ", "256": " ×", "257": "×", "258": "×", "259": "××", "260": " t", "261": "××", "262": "×", "263": "he", "264": "×", "265": "×¨", "266": " a", "267": " ×", "268": "×ª", "269": "×", "270": "in", "271": "×", "272": "Ö¼", "273": "×", "274": " the", "275": "×©", "276": " s", "277": " w", "278": "re", "279": " ×", "280": "× ", "281": " o", "282": "×¢", "283": "â", "284": "nd", "285": " ×", "286": "×", "287": " ×", "288": " ×", "289": "ha", "290": "×", "291": "er", "292": "××", "293": "ou", "294": " ×", "295": "Ö¹", "296": "it", "297": "×", "298": " b", "299": "is", "300": " m", "301": " ×©", "302": "ed", "303": "on", "304": "×", "305": "en", "306": "×¤", "307": " f", "308": " c", "309": "×§", "310": " of", "311": " and", "312": " to", "313": "ing", "314": "or", "315": "Ö¸", "316": "××ª", "317": " ×¢", "318": "es", "319": "Ö·", "320": "ll", "321": "Ö°", "322": " d", "323": " ×", "324": " p", "325": " in", "326": "an", "327": "ar", "328": " h", "329": "as", "330": "at", "331": "×¦", "332": "  ", "333": " he", "334": "Ö´", "335": "×", "336": " l", "337": "×¡", "338": " ×", "339": " n", "340": "om", "341": " ha", "342": "hat", "343": " I", "344": "×", "345": "le", "346": "×", "347": " be", "348": "××", "349": "ot", "350": "×", "351": "ic", "352": " g", "353": " â", "354": "ow", "355": "ve", "356": "ut", "357": "st", "358": "se", "359": "im", "360": " × ", "361": " e", "362": "××ª", "363": "id", "364": "ly", "365": " th", "366": "ld", "367": " y", "368": "ent", "369": " that", "370": "ion", "371": "××¨", "372": "Ö¶", "373": "â", "374": "××", "375": "×× ", "376": " ××ª", "377": "××", "378": "gh", "379": " it", "380": " ×¨", "381": "ce", "382": " re", "383": "×", "384": " was", "385": "al", "386": "Öµ", "387": " on", "388": "× ×", "389": "ver", "390": " you", "391": " u", "392": "et", "393": "ith", "394": " ×©×", "395": "××¨", "396": " ×", "397": "ay", "398": "â", "399": "ir", "400": "××", "401": "ur", "402": " wh", "403": " for", "404": " his", "405": "××¨", "406": " ×¢×", "407": " as", "408": " with", "409": "××", "410": " ××", "411": "ad", "412": "ro", "413": " ×", "414": " â", "415": " ××", "416": " ×ª", "417": "Ö¾", "418": "her", "419": "××", "420": "× ×", "421": "ght", "422": " ×¤", "423": " not", "424": "×× ", "425": " we", "426": " is", "427": " ×", "428": " st", "429": "×", "430": "××", "431": "ct", "432": "××", "433": "ri", "434": "ch", "435": "×©×¨", "436": " an", "437": "××", "438": " her", "439": "am", "440": " ××", "441": " had", "442": "ould", "443": " ×§", "444": "oo", "445": "××", "446": "××", "447": " ××", "448": " T", "449": " M", "450": "××", "451": "××©", "452": "â", "453": " ×", "454": " at", "455": "ill", "456": "    ", "457": " me", "458": "ter", "459": "ke", "460": " ××", "461": " \"", "462": "if", "463": " A", "464": "××", "465": " him", "466": "and", "467": "ain", "468": " sa", "469": "×¨×", "470": " se", "471": " ××", "472": "××", "473": "Ö¸Ö¼", "474": "ore", "475": "ess", "476": "××", "477": "× ×", "478": " my", "479": "th", "480": "××", "481": " S", "482": " ××¢", "483": "ra", "484": "pe", "485": "ich", "486": " su", "487": " so", "488": " have", "489": "×¨×", "490": " ××", "491": "il", "492": "red", "493": "××", "494": "××", "495": "all", "496": " de", "497": "ome", "498": "\n    ", "499": " all", "500": " she", "501": "××©", "502": "Ö°Ö¼", "503": "××", "504": " ××", "505": "rom", "506": " H", "507": "×ª×", "508": "qu", "509": "×¢×", "510": "ge", "511": " by", "512": "to", "513": " k", "514": " con", "515": "ation", "516": "ul", "517": "×", "518": " said", "519": " which", "520": "ck", "521": "ight", "522": " but", "523": "×ª×", "524": "×¨×", "525": "â¦", "526": "hen", "527": "××", "528": "××", "529": "res", "530": "Ö´Ö¼", "531": "×¤×¨", "532": "us", "533": " ×¡", "534": " ××©", "535": " ×¦", "536": " up", "537": " this", "538": "××¢", "539": " ne", "540": "ble", "541": "×¥", "542": "×©×", "543": " â", "544": "\n     ", "545": "××§", "546": "est", "547": "pp", "548": " do", "549": "the", "550": "Ö²", "551": " C", "552": "ant", "553": "××¨", "554": " B", "555": " ×××", "556": "×£", "557": " or", "558": " sh", "559": ".â", "560": "ust", "561": " ××", "562": " from", "563": "××", "564": "Ö·Ö¼", "565": " ××", "566": "lf", "567": " ××", "568": " ex", "569": "our", "570": "em", "571": " r", "572": "very", "573": "×× ×", "574": "ous", "575": "os", "576": "ard", "577": " they", "578": "nt", "579": " v", "580": " ××", "581": "â", "582": " The", "583": " man", "584": "××", "585": "ind", "586": "art", "587": " ××", "588": "××", "589": "out", "590": " ×××", "591": " are", "592": "ers", "593": "××¢", "594": " W", "595": "el", "596": " who", "597": " ××", "598": "× ××", "599": " ××ª", "600": " ×©×", "601": "××", "602": " li", "603": "××¡", "604": " al", "605": "ate", "606": " no", "607": " were", "608": " ××©×¨", "609": " them", "610": "××ª", "611": " P", "612": "ong", "613": "ol", "614": " ××", "615": "ood", "616": "ame", "617": " ××¨", "618": "××¤", "619": "ist", "620": "ast", "621": "××", "622": " kn", "623": " one", "624": "××", "625": " ××", "626": "×××", "627": "××¨", "628": "ell", "629": " ××", "630": "han", "631": "×××ª", "632": " ××", "633": "××§", "634": "um", "635": "un", "636": "××©", "637": "ak", "638": "one", "639": " com", "640": "××¡", "641": "×¨××", "642": " ×× ", "643": "ie", "644": "self", "645": "ort", "646": ",â", "647": " there", "648": " ××§", "649": " wor", "650": "The", "651": "××", "652": "×ª×", "653": "ound", "654": " would", "655": " ××¢", "656": "ive", "657": "ity", "658": "××¦", "659": "ig", "660": "ook", "661": "××¢", "662": "××", "663": "×©×", "664": " L", "665": " pro", "666": "××", "667": "××", "668": " out", "669": " will", "670": " ××", "671": "od", "672": "la", "673": "ven", "674": "×¨×", "675": "ough", "676": "â", "677": " un", "678": " ××", "679": " ab", "680": " le", "681": " been", "682": " their", "683": " ××¢", "684": "itt", "685": "--", "686": "own", "687": " ××", "688": "reat", "689": " Mr", "690": "pt", "691": "××¨", "692": " what", "693": "×©×", "694": "ure", "695": "ther", "696": "××", "697": " when", "698": " G", "699": " ××", "700": "ost", "701": "××", "702": " ×©×", "703": " (", "704": "×××", "705": " if", "706": "×××¨", "707": " D", "708": "ry", "709": " ×", "710": " j", "711": "××¤", "712": " ××¤", "713": " ××¤", "714": "××ª", "715": " ××", "716": " ××¢", "717": "ake", "718": "op", "719": " ××ª", "720": " ××©", "721": " ag", "722": " go", "723": " more", "724": " sha", "725": "ment", "726": "××", "727": " your", "728": "×××", "729": "ect", "730": " ××¦", "731": "ff", "732": " F", "733": " fa", "734": " any", "735": "au", "736": "××¦", "737": " ×©×", "738": "ag", "739": " He", "740": "ose", "741": "te", "742": "×¨×¥", "743": " am", "744": " ××", "745": "ide", "746": " ××¡", "747": " E", "748": "××", "749": " ××©", "750": " can", "751": " ××", "752": " could", "753": "ies", "754": " ×××ª", "755": " qu", "756": " ××", "757": "able", "758": "×¢×", "759": "hed", "760": "ime", "761": " ××©", "762": " ××©", "763": "ice", "764": "fore", "765": "hing", "766": " ××", "767": "×××", "768": " know", "769": "×§×", "770": "nder", "771": "××", "772": " fe", "773": "×××", "774": "ence", "775": "××", "776": "ass", "777": "?â", "778": "pl", "779": " ××", "780": "×¢×", "781": "ine", "782": "per", "783": "ved", "784": "×¢×ª", "785": "way", "786": " some", "787": " into", "788": "cc", "789": " N", "790": "urn", "791": "××", "792": "other", "793": "××", "794": "ci", "795": " ××", "796": "ab", "797": "×××", "798": "ÖµÖ¼", "799": "ance", "800": " ar", "801": "××", "802": " than", "803": "ud", "804": " very", "805": " im", "806": " sp", "807": " ×××", "808": "ink", "809": " us", "810": "are", "811": "ep", "812": "ite", "813": " other", "814": "×¨×", "815": " tr", "816": " say", "817": " ×¢×", "818": " ××", "819": "ress", "820": "×©××", "821": "ally", "822": "ought", "823": " look", "824": " our", "825": " And", "826": "×××", "827": " like", "828": "we", "829": "here", "830": " ×××", "831": " ××¢", "832": " ×××", "833": "××", "834": " en", "835": "×¨×ª", "836": " ××¨", "837": " now", "838": " ro", "839": " see", "840": "ade", "841": "ittle", "842": "wn", "843": " J", "844": " has", "845": "××", "846": "ick", "847": " dis", "848": "ount", "849": " did", "850": " O", "851": "\",", "852": "× ×¡", "853": " time", "854": " too", "855": "ond", "856": "ire", "857": " again", "858": "of", "859": " upon", "860": " about", "861": "××ª×", "862": "ving", "863": " R", "864": "fter", "865": "'s", "866": " should", "867": "××", "868": " hand", "869": "××", "870": " br", "871": "be", "872": " ad", "873": "× ××ª", "874": "uch", "875": "ings", "876": "××", "877": " ×××¨", "878": "×× ×", "879": "ove", "880": " tw", "881": " ××©", "882": "ather", "883": "ack", "884": "hi", "885": " ××", "886": "××", "887": " over", "888": "ac", "889": "ars", "890": "age", "891": "×¤×ª", "892": "××", "893": "ue", "894": "ne", "895": " ×× ", "896": " then", "897": "ord", "898": "ions", "899": " ××", "900": "××ª", "901": " great", "902": " only", "903": "ary", "904": "Ö¶Ö¼", "905": " ×××", "906": "×¢×", "907": " ××", "908": "ish", "909": " little", "910": "×¨×", "911": "××¨×", "912": " ××", "913": " ××ª", "914": " ××", "915": "ree", "916": " ×¢×", "917": " ,", "918": "×¨×", "919": " ××", "920": "ng", "921": "××", "922": "\".", "923": "××", "924": "××", "925": "ness", "926": "Ö°×", "927": " cl", "928": "iss", "929": " pr", "930": "×× ×", "931": "××ª", "932": " ××¦", "933": "×××", "934": "××", "935": "ber", "936": " It", "937": " good", "938": " pe", "939": " ×× ×", "940": "ves", "941": "..", "942": "××¦", "943": " ××", "944": "â", "945": " gr", "946": " off", "947": " ××", "948": " day", "949": " must", "950": "!â", "951": " per", "952": "ied", "953": " ×××", "954": "end", "955": "Ö¶×", "956": " ××", "957": " ××", "958": "×××", "959": " ××", "960": " how", "961": "his", "962": " ××¡", "963": " shall", "964": " ×©× ", "965": " ×¨×§", "966": "×¢×¨", "967": "You", "968": "ap", "969": "×©×ª", "970": " ×¨×", "971": " ×¢××", "972": "ife", "973": "ked", "974": " part", "975": " down", "976": " ×××", "977": "×¤×©", "978": "××", "979": " such", "980": "bl", "981": " before", "982": "××ª", "983": "××¨×", "984": "ful", "985": "××", "986": " ×¢×¦", "987": " â", "988": "××", "989": "×¨××©", "990": " ××§", "991": " But", "992": "×¢××", "993": "ull", "994": "oy", "995": " ××¤", "996": " ××", "997": "ady", "998": " ××", "999": "ty", "1000": "××", "1001": "ious", "1002": " after", "1003": "\n\n", "1004": " po", "1005": "ise", "1006": "for", "1007": "ated", "1008": " 1", "1009": " much", "1010": " ××", "1011": " every", "1012": " own", "1013": " made", "1014": " ××", "1015": "irst", "1016": "×××", "1017": "ward", "1018": "×× ×", "1019": "×× ××", "1020": "××", "1021": "ach", "1022": "ru", "1023": " pre", "1024": " ××", "1025": "right", "1026": " ye", "1027": "×§×¨", "1028": "old", "1029": " .", "1030": " rem", "1031": " ×××", "1032": "ile", "1033": "ily", "1034": " ××", "1035": " under", "1036": " ××", "1037": "tain", "1038": " long", "1039": "ons", "1040": "××", "1041": " way", "1042": " ×××", "1043": " ×××", "1044": " think", "1045": " come", "1046": " may", "1047": "×¤×", "1048": "××¨", "1049": "ans", "1050": "that", "1051": "××¨", "1052": " its", "1053": " spe", "1054": " even", "1055": " ×× ", "1056": "×× ", "1057": " res", "1058": "ouse", "1059": "××", "1060": "×¦×", "1061": "×× ××ª", "1062": "×××", "1063": "ign", "1064": "so", "1065": " never", "1066": " two", "1067": " sm", "1068": " bet", "1069": "de", "1070": "oll", "1071": "ark", "1072": " pl", "1073": "ried", "1074": " ××", "1075": "ps", "1076": " ×××ª×", "1077": "ren", "1078": "lo", "1079": " old", "1080": " cha", "1081": " cont", "1082": "man", "1083": "ces", "1084": "orn", "1085": " bec", "1086": "××¨", "1087": " himself", "1088": " ×¨×", "1089": "××", "1090": " ey", "1091": "li", "1092": " thr", "1093": "ave", "1094": "×××", "1095": " imp", "1096": "Ö¸×", "1097": " where", "1098": " comp", "1099": " these", "1100": " ××ª", "1101": " ××§", "1102": " first", "1103": " ××", "1104": " ××", "1105": " × ×ª", "1106": "×¨××", "1107": "int", "1108": "ran", "1109": " × ×©", "1110": " thought", "1111": " came", "1112": " might", "1113": "ced", "1114": "He", "1115": "×¤×", "1116": "ever", "1117": " well", "1118": "×××ª", "1119": " bl", "1120": "ft", "1121": "ath", "1122": "not", "1123": " ××§", "1124": "ause", "1125": " ×××¨", "1126": " ×¢×", "1127": " des", "1128": "fe", "1129": "led", "1130": "××§", "1131": " beg", "1132": " sc", "1133": "And", "1134": "×××", "1135": " back", "1136": "××", "1137": " let", "1138": "oss", "1139": " seem", "1140": " ×× ×", "1141": " just", "1142": " ××¤", "1143": " ××¨×", "1144": "pect", "1145": "omet", "1146": " make", "1147": "××£", "1148": " cons", "1149": " ××", "1150": " ××", "1151": "ople", "1152": "Ö»", "1153": " ×××", "1154": " ××", "1155": "×¡×ª", "1156": " ×©×", "1157": "××××", "1158": "×¤×", "1159": "×¤×", "1160": " here", "1161": " ××××", "1162": "×©×", "1163": " ××ª", "1164": "××ª×", "1165": " pla", "1166": "×¨×", "1167": " went", "1168": "ened", "1169": "×× ×", "1170": "It", "1171": " word", "1172": "××ª", "1173": "×××", "1174": " being", "1175": " those", "1176": " ×©×", "1177": "ase", "1178": "××", "1179": "×¨×¦", "1180": " comm", "1181": " acc", "1182": " pass", "1183": " ××", "1184": "××¢", "1185": "cl", "1186": " ×××", "1187": " op", "1188": "ens", "1189": " turn", "1190": "×©××ª", "1191": "×××", "1192": " men", "1193": "× ×", "1194": "×××", "1195": " She", "1196": " ob", "1197": " ×©××", "1198": " away", "1199": "× ×ª", "1200": "ations", "1201": "riend", "1202": "×××¨", "1203": "×§×", "1204": " most", "1205": " without", "1206": ".\"", "1207": "×××", "1208": "ult", "1209": ",â", "1210": "less", "1211": " ××", "1212": "thing", "1213": " fl", "1214": "×¡×¤×¨", "1215": " last", "1216": "oth", "1217": "××", "1218": " ××", "1219": " ra", "1220": " K", "1221": "×××ª", "1222": " head", "1223": " people", "1224": " gl", "1225": "ible", "1226": "×¦×", "1227": " pres", "1228": "×¡×", "1229": "×××ª", "1230": "wh", "1231": "get", "1232": " ke", "1233": " still", "1234": "ince", "1235": " life", "1236": "mer", "1237": "iv", "1238": "××", "1239": " ×××©", "1240": "××", "1241": "××¨××", "1242": "×ª×", "1243": " ×××ª", "1244": "××", "1245": " ser", "1246": " ×××ª×", "1247": " eyes", "1248": "ew", "1249": "Ö¼,", "1250": " ××××¨", "1251": " bel", "1252": "aking", "1253": "ition", "1254": " ch", "1255": "× ××", "1256": " house", "1257": "Ö¹Ö¼", "1258": " ××", "1259": " ×××", "1260": " get", "1261": " ap", "1262": "××××", "1263": "ject", "1264": " _", "1265": " app", "1266": "iz", "1267": " ret", "1268": "hes", "1269": "me", "1270": "×¨××", "1271": "con", "1272": "alk", "1273": "ory", "1274": " want", "1275": " ×¦×¨", "1276": "ope", "1277": " count", "1278": " ××× ", "1279": " same", "1280": " through", "1281": " ××", "1282": "ction", "1283": " don", "1284": "ret", "1285": " te", "1286": " take", "1287": " call", "1288": " ××¦", "1289": "aw", "1290": " V", "1291": "igh", "1292": "××", "1293": "××¨", "1294": " put", "1295": " ××", "1296": "×ª×¨", "1297": " ××", "1298": "with", "1299": "×××", "1300": "××", "1301": " ××", "1302": "××", "1303": " ××", "1304": "×§××", "1305": "But", "1306": "row", "1307": " somet", "1308": " ××¤", "1309": "ple", "1310": " friend", "1311": "med", "1312": " ent", "1313": " nothing", "1314": "ged", "1315": "ered", "1316": " ××", "1317": " face", "1318": " right", "1319": "ix", "1320": " new", "1321": " wr", "1322": "××ª×¨", "1323": "ors", "1324": " tell", "1325": " Mrs", "1326": "ways", "1327": "ertain", "1328": "××¨×", "1329": " ×××¨", "1330": ".â", "1331": " many", "1332": " ×× ", "1333": " rep", "1334": "ither", "1335": " work", "1336": " ××", "1337": "×ª×", "1338": "×××", "1339": "av", "1340": " end", "1341": " chi", "1342": "××", "1343": "×¢×©", "1344": " young", "1345": " ××©×¨", "1346": "og", "1347": "air", "1348": "××", "1349": "les", "1350": "× ××ª", "1351": " ××¨", "1352": "atter", "1353": " ×¤×¨", "1354": "ict", "1355": "but", "1356": "×¤×§", "1357": "××", "1358": "hy", "1359": " ××¢×", "1360": "ared", "1361": "ater", "1362": " ×¢×", "1363": "ian", "1364": " ××", "1365": " ×××ª", "1366": " ××¢××¨", "1367": "×××", "1368": "ody", "1369": "×××", "1370": " child", "1371": "×¦×¨", "1372": " though", "1373": " wom", "1374": "ently", "1375": "××¨", "1376": "Ö´×", "1377": "××ª", "1378": "×©×", "1379": "ia", "1380": " ever", "1381": " har", "1382": " ××¤× ×", "1383": " St", "1384": "×§×", "1385": "over", "1386": " saw", "1387": "up", "1388": "×¦×", "1389": " ×××¨", "1390": " another", "1391": " mind", "1392": " ××", "1393": " ear", "1394": " In", "1395": "ang", "1396": "sel", "1397": "× ××", "1398": " yet", "1399": " happ", "1400": " att", "1401": "com", "1402": "oment", "1403": " God", "1404": "Ö¹,", "1405": " ×©×", "1406": "ener", "1407": " ××¢×", "1408": "×¨×", "1409": " ×××", "1410": " looked", "1411": "cess", "1412": " em", "1413": "××§×", "1414": " supp", "1415": " car", "1416": " found", "1417": "ner", "1418": " ×× ×", "1419": " ×××", "1420": " ×¢××¨", "1421": "××ª×", "1422": "×× ××", "1423": "eth", "1424": " ×××", "1425": "××¢", "1426": "you", "1427": "cy", "1428": " ×××ª×¨", "1429": " night", "1430": " heart", "1431": " You", "1432": " place", "1433": " ×××", "1434": " ×× ×", "1435": " room", "1436": "×¢××¨", "1437": "'t", "1438": " ×××©", "1439": " dist", "1440": " ×¨×", "1441": "was", "1442": "×××", "1443": " once", "1444": " inst", "1445": "××£", "1446": "×××", "1447": " sec", "1448": "ted", "1449": " ×××ª", "1450": " things", "1451": " ××¨××©", "1452": " world", "1453": "ting", "1454": "imes", "1455": "ished", "1456": "und", "1457": "× ××", "1458": " ple", "1459": "den", "1460": "×¤××", "1461": "×××", "1462": " ××¨", "1463": "iness", "1464": "××", "1465": " cour", "1466": " while", "1467": "××©×¨××", "1468": " set", "1469": " pers", "1470": " took", "1471": " always", "1472": "××©", "1473": " sub", "1474": " exp", "1475": " ×¢×××", "1476": "××", "1477": " far", "1478": " give", "1479": "aid", "1480": "ock", "1481": "ower", "1482": " left", "1483": " moment", "1484": "ace", "1485": " feel", "1486": "rest", "1487": "ning", "1488": " ××", "1489": "ms", "1490": " also", "1491": "ract", "1492": " appe", "1493": "ex", "1494": "ss", "1495": " thou", "1496": "××¥", "1497": "owed", "1498": " ×××", "1499": " door", "1500": " ××©×¨××", "1501": " heard", "1502": "×××¨", "1503": "×¢××ª", "1504": " father", "1505": "××¨×", "1506": "ual", "1507": "ial", "1508": "×××", "1509": "ser", "1510": " ××ª×", "1511": "by", "1512": "ical", "1513": "rew", "1514": " ×××××", "1515": "ense", "1516": " ac", "1517": "×××", "1518": " ×××ª", "1519": "××", "1520": " thing", "1521": "du", "1522": "××", "1523": "vent", "1524": "××", "1525": " ××", "1526": " ×××ª", "1527": "ov", "1528": "irl", "1529": " ××£", "1530": "elt", "1531": ",\"", "1532": " because", "1533": "××", "1534": "×××", "1535": "most", "1536": " reg", "1537": " dif", "1538": "×××ª", "1539": " ×××¨×", "1540": " love", "1541": " seemed", "1542": " ×× ", "1543": " against", "1544": "×××ª", "1545": " return", "1546": " ans", "1547": "\n\n     ", "1548": " gu", "1549": " light", "1550": "su", "1551": "×¦×", "1552": " got", "1553": "its", "1554": "What", "1555": "ild", "1556": " belie", "1557": " ××", "1558": " going", "1559": " ××", "1560": " mar", "1561": " ××§", "1562": "×××", "1563": "ined", "1564": " ××¢", "1565": "my", "1566": " done", "1567": " ××", "1568": " hands", "1569": " ××", "1570": " ×××", "1571": " sl", "1572": " Miss", "1573": " rec", "1574": " find", "1575": "×©×", "1576": "×××", "1577": " nat", "1578": "cept", "1579": "ip", "1580": " quite", "1581": "×× ×¡", "1582": "ool", "1583": " wa", "1584": " sat", "1585": "entle", "1586": " gi", "1587": " conf", "1588": "×©×", "1589": "oice", "1590": " myself", "1591": "        ", "1592": "wards", "1593": "oc", "1594": "!\"", "1595": " something", "1596": " ×× ×", "1597": "pped", "1598": " ××", "1599": " ××", "1600": "××¨××ª", "1601": " ×××©", "1602": " three", "1603": " × ×¢", "1604": " better", "1605": "ited", "1606": "In", "1607": "ular", "1608": "ob", "1609": " kind", "1610": " ×××", "1611": " ××××ª", "1612": " ××××", "1613": " × ×¤", "1614": "ween", "1615": " thy", "1616": " chan", "1617": "der", "1618": " rest", "1619": "ised", "1620": "××¡×", "1621": "ffect", "1622": " We", "1623": " U", "1624": " asked", "1625": "ired", "1626": "××¢", "1627": " ×××", "1628": "××¥", "1629": " str", "1630": "×××", "1631": " ×§×¨", "1632": " ××", "1633": "osed", "1634": "×ª× ×", "1635": " wind", "1636": " unto", "1637": "×××ª", "1638": " ×¢×ª×", "1639": " ×©×¢", "1640": " fell", "1641": "Yes", "1642": "),", "1643": "ched", "1644": "ason", "1645": "ks", "1646": "××××", "1647": " poss", "1648": " home", "1649": "××", "1650": "uth", "1651": " int", "1652": " There", "1653": " ××¤×©×¨", "1654": " add", "1655": " co", "1656": "gether", "1657": "gr", "1658": "×§××", "1659": " ind", "1660": " years", "1661": " ×××¨", "1662": " sur", "1663": "?\"", "1664": " sil", "1665": " 2", "1666": "aught", "1667": "vers", "1668": "ating", "1669": "×¡×¤", "1670": " ××××", "1671": "×× ×", "1672": " ××××", "1673": " cle", "1674": " rel", "1675": "ates", "1676": "××¨××ª", "1677": "read", "1678": "××", "1679": "selves", "1680": " × ×", "1681": " ×××", "1682": " ××", "1683": "××¤", "1684": " They", "1685": "×××ª", "1686": "pr", "1687": "aken", "1688": "×××", "1689": "ier", "1690": "had", "1691": " ×××", "1692": " pur", "1693": " war", "1694": " ××©×", "1695": " foll", "1696": "ows", "1697": "stand", "1698": " ×××", "1699": " does", "1700": " ×§×", "1701": " soon", "1702": "×× ×", "1703": " inte", "1704": "day", "1705": "xt", "1706": "sh", "1707": "××©×", "1708": " dear", "1709": " ×¡×¤×¨", "1710": " act", "1711": "ten", "1712": "ER", "1713": " ××ª××", "1714": " inter", "1715": " told", "1716": " both", "1717": "××¤×", "1718": " ××××", "1719": "act", "1720": " ×¨××", "1721": " woman", "1722": " whole", "1723": "×§×", "1724": "×××", "1725": " words", "1726": " round", "1727": " â", "1728": " whom", "1729": " certain", "1730": " seen", "1731": " nor", "1732": "gg", "1733": "ures", "1734": " ×××¨×¥", "1735": " × ×", "1736": "Ö¼.", "1737": "raw", "1738": "××", "1739": " side", "1740": " knew", "1741": "×¦×ª", "1742": "×× ×", "1743": "fort", "1744": " bo", "1745": "Ö¹.", "1746": "××©", "1747": "×××", "1748": "×ª×", "1749": " felt", "1750": "haps", "1751": " ××¦", "1752": " stre", "1753": "Mr", "1754": " ××× ×", "1755": " ×§×", "1756": "×¨××", "1757": "Ö±", "1758": " ×××", "1759": "××", "1760": " mean", "1761": " ×× ", "1762": "××¢×", "1763": " enough", "1764": " having", "1765": "aster", "1766": "ents", "1767": " ×××", "1768": "ully", "1769": " hel", "1770": "ling", "1771": " between", "1772": "×××", "1773": " occ", "1774": " mother", "1775": "×§×", "1776": " inc", "1777": "ail", "1778": "××¨××", "1779": " ××¨×", "1780": " disc", "1781": " ××", "1782": " gentle", "1783": "ale", "1784": "ute", "1785": " hear", "1786": " began", "1787": " ××", "1788": "iet", "1789": "×××", "1790": " need", "1791": " cr", "1792": " ××××ª", "1793": " ×©×", "1794": "him", "1795": " name", "1796": "××¢×", "1797": " ××¦", "1798": "ities", "1799": " gener", "1800": " pleas", "1801": "××", "1802": "×××ª×¨", "1803": "plied", "1804": "vel", "1805": "any", "1806": "ments", "1807": " cur", "1808": " fam", "1809": "vant", "1810": " ××¢×", "1811": " ×××©", "1812": " ××", "1813": "ger", "1814": "ib", "1815": "×¡×§", "1816": "××", "1817": " thee", "1818": " ass", "1819": "×× ××", "1820": " ×××¢", "1821": "oun", "1822": " half", "1823": " sir", "1824": " ×××ª×", "1825": " ××ª", "1826": "aut", "1827": "××§", "1828": " present", "1829": " × ×", "1830": " hour", "1831": " ×ª×××", "1832": "××ª", "1833": "orning", "1834": "OR", "1835": ").", "1836": " point", "1837": " ××", "1838": " × ×¤×©", "1839": "ately", "1840": " ×××", "1841": " ×©×××", "1842": " ××ª", "1843": "ern", "1844": "××", "1845": "land", "1846": " ter", "1847": "She", "1848": " herself", "1849": " ××", "1850": " keep", "1851": " ×¨×", "1852": "No", "1853": " del", "1854": "oke", "1855": "unt", "1856": "We", "1857": " ×××", "1858": " ×¨××©", "1859": " hum", "1860": "ross", "1861": "atch", "1862": "××××", "1863": " What", "1864": "×¨×¢", "1865": " ×©×××", "1866": " dec", "1867": "rem", "1868": " care", "1869": " che", "1870": "ah", "1871": " ref", "1872": " hard", "1873": " sw", "1874": " few", "1875": "ained", "1876": "rent", "1877": " open", "1878": " min", "1879": "har", "1880": " cried", "1881": "ident", "1882": " matter", "1883": " course", "1884": " sure", "1885": " ××", "1886": " voice", "1887": "××", "1888": "bt", "1889": " inde", "1890": "ins", "1891": " among", "1892": "××", "1893": " dou", "1894": "ery", "1895": " Ch", "1896": "oney", "1897": "×¨××ª", "1898": "now", "1899": "×¢×××", "1900": "×¤×¡", "1901": "which", "1902": "ister", "1903": " quest", "1904": " boy", "1905": " girl", "1906": " turned", "1907": "ider", "1908": " stand", "1909": " exc", "1910": " read", "1911": "ention", "1912": "××", "1913": " ××××", "1914": "××¨×", "1915": " each", "1916": "oud", "1917": "××§", "1918": " ×××¢", "1919": " replied", "1920": " If", "1921": "ield", "1922": " ××××¢", "1923": " speak", "1924": "cei", "1925": " land", "1926": " ××©", "1927": " ×©××", "1928": " near", "1929": " less", "1930": " ××©", "1931": " contin", "1932": " Th", "1933": " ××¦×", "1934": "she", "1935": " ×©× ××", "1936": "That", "1937": " '", "1938": " bus", "1939": "king", "1940": "ont", "1941": " ×××", "1942": "oul", "1943": " ×ª×§", "1944": "men", "1945": "uck", "1946": " best", "1947": " ×¢×©", "1948": "××§×¨", "1949": " gave", "1950": " talk", "1951": " For", "1952": "××", "1953": " ×©× ×", "1954": " ×××¨×¥", "1955": " ××¨", "1956": " ev", "1957": "There", "1958": " poor", "1959": " help", "1960": "××§", "1961": "owing", "1962": " whe", "1963": " bre", "1964": "××¤×", "1965": " ××", "1966": " mon", "1967": "×¡×¨", "1968": "ressed", "1969": " ×××", "1970": " el", "1971": " ×¢×¦××", "1972": " anything", "1973": " high", "1974": "××ª×", "1975": "Well", "1976": "This", "1977": " Y", "1978": "?â", "1979": " This", "1980": "××", "1981": " looking", "1982": " rather", "1983": " morning", "1984": " ××¨", "1985": "×ª××", "1986": "×¨×××ª", "1987": " use", "1988": " ins", "1989": "××¨", "1990": "×××", "1991": " ××", "1992": "××¦×", "1993": " person", "1994": "××××", "1995": " since", "1996": " An", "1997": "   ", "1998": "××", "1999": "××©", "2000": "ev", "2001": " ××¨××", "2002": " vis", "2003": " mo", "2004": " prop", "2005": " ×××¢", "2006": " stood", "2007": " called", "2008": " pol", "2009": "× ×", "2010": "× ×", "2011": "××©", "2012": "× ×§", "2013": "ably", "2014": "na", "2015": "als", "2016": " small", "2017": " ×©××©", "2018": " ×××©", "2019": " bro", "2020": " cannot", "2021": " country", "2022": " ××¡", "2023": "ph", "2024": "Oh", "2025": " inf", "2026": "ken", "2027": "××¢×", "2028": "ote", "2029": "×´", "2030": " ××", "2031": "aint", "2032": " believe", "2033": " ××¡", "2034": " fore", "2035": "××¨×", "2036": " hope", "2037": " almost", "2038": " Then", "2039": " ×©×× ×", "2040": " ×××××××", "2041": "ude", "2042": " beh", "2043": "body", "2044": " days", "2045": "lack", "2046": " As", "2047": "×××¨", "2048": "×¢×××", "2049": " ××¦×", "2050": " ext", "2051": "×××", "2052": " interest", "2053": "×××", "2054": " brought", "2055": " ×××", "2056": " ××¤×¨", "2057": "××¡", "2058": " ××¤× ×", "2059": "ief", "2060": " ××©", "2061": " ×¨×¢", "2062": "×¤×©×¨", "2063": " ×××××ª", "2064": " tra", "2065": "××©××", "2066": "dden", "2067": " lady", "2068": "fully", "2069": "cha", "2070": " fact", "2071": "oot", "2072": "ub", "2073": "×××", "2074": "ility", "2075": "××¨×ª", "2076": "×××", "2077": " stran", "2078": " suff", "2079": "ering", "2080": " aw", "2081": " reason", "2082": "cri", "2083": " ×©× ×", "2084": " Is", "2085": "Ö°×", "2086": " together", "2087": "×××", "2088": " till", "2089": " Com", "2090": " ××××¨", "2091": " ××¡×¤×¨", "2092": " ××××", "2093": "ORD", "2094": " ×¢××", "2095": "Ö·×", "2096": " ×××ª×", "2097": "×××", "2098": "××¢×", "2099": "ready", "2100": " ×©××¢", "2101": "××", "2102": " sent", "2103": " dire", "2104": "ec", "2105": " however", "2106": " son", "2107": "az", "2108": "××××", "2109": "×× ", "2110": "××©×", "2111": "br", "2112": " ××©×", "2113": "...", "2114": " ××¢×¦", "2115": " ×××", "2116": " next", "2117": " ca", "2118": " cond", "2119": " ××¢×", "2120": " hor", "2121": "×§×", "2122": " money", "2123": " ××ª×", "2124": "××©", "2125": "××××", "2126": " ste", "2127": "×××", "2128": " ××", "2129": " art", "2130": " lo", "2131": " ×××", "2132": "×¢×", "2133": " dark", "2134": "ually", "2135": "××", "2136": " sudden", "2137": " inv", "2138": " air", "2139": " ××¢×", "2140": "×× ×", "2141": "ird", "2142": " ×××", "2143": " sle", "2144": " taken", "2145": "tend", "2146": " hon", "2147": " ××", "2148": "ubl", "2149": " sim", "2150": " ×¦×¨××", "2151": "ember", "2152": " fall", "2153": "××¢", "2154": " ××¨", "2155": "×××", "2156": " ×××", "2157": "bed", "2158": " ×××", "2159": "used", "2160": "iting", "2161": " pri", "2162": " gone", "2163": "!â", "2164": " children", "2165": "what", "2166": " dr", "2167": "××××", "2168": " full", "2169": " ×©×ª", "2170": "uring", "2171": " Ar", "2172": "irc", "2173": "×××", "2174": "ides", "2175": "××", "2176": " law", "2177": " ××× ×", "2178": "×¡××", "2179": "fic", "2180": " understand", "2181": " ××¢×××", "2182": "ceed", "2183": "aring", "2184": " ×§××", "2185": " ×××", "2186": " det", "2187": "××", "2188": "ung", "2189": "ash", "2190": " bed", "2191": "att", "2192": " That", "2193": " LORD", "2194": "arn", "2195": "arge", "2196": " sort", "2197": " gra", "2198": " letter", "2199": " ××¤×", "2200": " So", "2201": " ide", "2202": "×× ××ª", "2203": " death", "2204": "ene", "2205": " ××", "2206": " diffe", "2207": " ×¢×××", "2208": "use", "2209": "×××", "2210": " Jo", "2211": " really", "2212": "××××ª", "2213": " ××¤", "2214": " ×××××", "2215": "ured", "2216": " soul", "2217": "××¨×¨", "2218": "××", "2219": " ××¨×¥", "2220": " ×©×××", "2221": "cious", "2222": " wife", "2223": " opp", "2224": " ×××", "2225": " ×¨×¦", "2226": "×¡×£", "2227": "itch", "2228": "sp", "2229": "iew", "2230": " indeed", "2231": " When", "2232": "××¨×¥", "2233": "×§×©", "2234": "have", "2235": "×××ª", "2236": " bu", "2237": " lay", "2238": "ying", "2239": " power", "2240": " ××××", "2241": " fr", "2242": "form", "2243": " alone", "2244": "×¤× ×", "2245": " sk", "2246": " doubt", "2247": "fect", "2248": " king", "2249": " ×ª×©", "2250": "××§", "2251": "××¦×", "2252": " ×××ª", "2253": "×× ", "2254": " why", "2255": " towards", "2256": " fin", "2257": "×××", "2258": "ank", "2259": " water", "2260": " lau", "2261": " ××§××", "2262": " ××××", "2263": "orrow", "2264": " four", "2265": " least", "2266": "ets", "2267": "××××", "2268": " given", "2269": " ××××", "2270": " partic", "2271": " whose", "2272": " dep", "2273": "miss", "2274": "HA", "2275": "rying", "2276": " spir", "2277": " fire", "2278": " ××××¨", "2279": " ××", "2280": " ×¤×", "2281": "ee", "2282": "×§×", "2283": " perhaps", "2284": "no", "2285": "aven", "2286": "ott", "2287": " real", "2288": "××ª××", "2289": "pro", "2290": " aff", "2291": " *", "2292": " obser", "2293": " ××§×", "2294": " ×××", "2295": " ××¢×¦", "2296": " ××¡", "2297": " ×××", "2298": "alked", "2299": " leave", "2300": " ××§×¨", "2301": " ××", "2302": "ceived", "2303": "××ª×", "2304": " themselves", "2305": " question", "2306": " passed", "2307": "××¦×", "2308": "lect", "2309": " therefore", "2310": "××§×", "2311": "hip", "2312": " prom", "2313": " ××× ×", "2314": "wer", "2315": " ×××", "2316": "outh", "2317": " run", "2318": "osition", "2319": " consider", "2320": "ific", "2321": " already", "2322": "onder", "2323": "empt", "2324": "As", "2325": " ××¤×", "2326": " says", "2327": " year", "2328": " ××××", "2329": "ati", "2330": " unt", "2331": "ided", "2332": "there", "2333": "×××¨", "2334": "×¨×××", "2335": " sun", "2336": "ages", "2337": " ××¨", "2338": " Eur", "2339": " strong", "2340": " ××¨×", "2341": " ×ª××ª", "2342": " ×¤×¢×", "2343": "ught", "2344": " ×××", "2345": " × ×¡", "2346": " ××××", "2347": " sound", "2348": " ××", "2349": "rence", "2350": " tri", "2351": " hold", "2352": " ×ª×¨", "2353": " conc", "2354": "×××", "2355": "cial", "2356": "× ×", "2357": " necess", "2358": " ×××ª", "2359": "×××", "2360": " adm", "2361": "××××", "2362": " short", "2363": " true", "2364": "To", "2365": "wered", "2366": " ill", "2367": " ××©×××", "2368": " whether", "2369": "×¦××", "2370": "×ª×", "2371": "ream", "2372": " ri", "2373": "do", "2374": "ances", "2375": " At", "2376": " expect", "2377": " else", "2378": " ×××", "2379": "ative", "2380": "××©××", "2381": " ×©×", "2382": " case", "2383": " ×¤×", "2384": "cing", "2385": "Öµ×", "2386": " ××¢××¨", "2387": "TER", "2388": "××", "2389": "ey", "2390": "××××", "2391": " dead", "2392": " ask", "2393": "where", "2394": " others", "2395": " ×¢××", "2396": "×§×", "2397": "Ö¸×", "2398": "undred", "2399": "×¤××ª", "2400": "×××", "2401": " along", "2402": " ×××", "2403": "meric", "2404": " either", "2405": " ×××©", "2406": " ××©×", "2407": "ublic", "2408": " manner", "2409": " times", "2410": "××××ª", "2411": " play", "2412": " wish", "2413": "band", "2414": "akes", "2415": "×××", "2416": " ××", "2417": " order", "2418": "×©××", "2419": " ×××", "2420": " No", "2421": " Europe", "2422": "amp", "2423": "lock", "2424": " sy", "2425": "room", "2426": " behind", "2427": " sign", "2428": "mon", "2429": " ××× ×", "2430": " mis", "2431": " es", "2432": " ××¨", "2433": " ×©×§", "2434": "ression", "2435": "×¨×××ª", "2436": "××¨×", "2437": " ××¡", "2438": "××¤×", "2439": "ution", "2440": "If", "2441": " brother", "2442": "iled", "2443": " ×××©", "2444": " Mar", "2445": "ole", "2446": "wor", "2447": " char", "2448": " friends", "2449": "they", "2450": " ××", "2451": " ××××¨", "2452": " ×¢×ª", "2453": "×××", "2454": "×¦×", "2455": " prof", "2456": " ××¨", "2457": " fur", "2458": " ××××¨××", "2459": " within", "2460": " bring", "2461": " fear", "2462": "××¦××", "2463": " business", "2464": "They", "2465": " swe", "2466": " ××¢×©××ª", "2467": "alth", "2468": "oura", "2469": "××", "2470": " ×××", "2471": "airs", "2472": "×¦×", "2473": " often", "2474": " ×¤× ×", "2475": "××§", "2476": "ural", "2477": "My", "2478": " ×××××", "2479": "ains", "2480": "ached", "2481": " eas", "2482": " start", "2483": " His", "2484": " ××¤", "2485": " est", "2486": " live", "2487": " ××¢××¨××ª", "2488": " def", "2489": " ×××¨", "2490": "×××", "2491": " dro", "2492": " cap", "2493": " appro", "2494": "××¨×", "2495": "ug", "2496": " ×××ª", "2497": " hus", "2498": " itself", "2499": " ××", "2500": "××¨×ª", "2501": " list", "2502": " ××× ×", "2503": " ×¨×", "2504": " white", "2505": " circ", "2506": " clear", "2507": " saying", "2508": "××", "2509": "×××", "2510": " walk", "2511": " ××××¨", "2512": "××©×", "2513": "×¨××", "2514": " ×¢××©××", "2515": "×××", "2516": "\n\n    ", "2517": " answered", "2518": "×¦×", "2519": " ×¨×××", "2520": "like", "2521": "ued", "2522": " returned", "2523": " earth", "2524": " ×××¨××", "2525": "××", "2526": " ××××¨", "2527": "××¨××©", "2528": " jud", "2529": " adv", "2530": "×× ×", "2531": " ×× ", "2532": " beaut", "2533": "×§×¢", "2534": " second", "2535": " ×¢××", "2536": " ××× ×", "2537": "×¨××", "2538": "ts", "2539": "×××", "2540": " ×××", "2541": " book", "2542": " × ×", "2543": "×××ª", "2544": "×××", "2545": "×©××", "2546": " ××××ª×", "2547": "When", "2548": "pend", "2549": " × ×§", "2550": " ××× ×", "2551": "×××", "2552": " sing", "2553": " Americ", "2554": " ×©×¨", "2555": " ××©×", "2556": " large", "2557": "ices", "2558": "Th", "2559": " family", "2560": " subject", "2561": " requ", "2562": "ousand", "2563": "itting", "2564": " produ", "2565": " black", "2566": "tered", "2567": "××", "2568": " bur", "2569": "How", "2570": "××¢×", "2571": " stru", "2572": " ×× ×©××", "2573": " abs", "2574": " sit", "2575": " object", "2576": " ×××××", "2577": " import", "2578": "Then", "2579": " step", "2580": " ×¢× ", "2581": " state", "2582": "ax", "2583": " 3", "2584": " used", "2585": " cor", "2586": "×× ", "2587": "peri", "2588": " ×××¨××", "2589": " ×××", "2590": " Em", "2591": "×××", "2592": " ×××××", "2593": " ××¡", "2594": " ×¡×", "2595": "ety", "2596": " table", "2597": " ×ª×", "2598": " unc", "2599": "×××", "2600": " ×¢××××", "2601": " ×××", "2602": "II", "2603": " form", "2604": " ×¢×©×¨", "2605": "××", "2606": " meet", "2607": " gentleman", "2608": "××ª×", "2609": " --", "2610": " leg", "2611": "××¢×", "2612": "××", "2613": "\n   ", "2614": " particular", "2615": " ×©×¢×", "2616": " arm", "2617": " coming", "2618": "×××", "2619": "enty", "2620": "ards", "2621": "ison", "2622": " ××××¨", "2623": " evening", "2624": "××××ª", "2625": "!â¦", "2626": "eng", "2627": " ×× ×× ×", "2628": " hundred", "2629": " close", "2630": " ××¢×", "2631": " ×××", "2632": " ××§×", "2633": " ground", "2634": "×××", "2635": "ines", "2636": " direct", "2637": " means", "2638": " ×©××", "2639": " ××", "2640": "ination", "2641": " dev", "2642": "×××", "2643": "ton", "2644": " ××ª××", "2645": "sha", "2646": " num", "2647": "ny", "2648": "this", "2649": " ××", "2650": "from", "2651": " ×××", "2652": " above", "2653": " ××ª× ", "2654": " until", "2655": " ××©×", "2656": "×¦××", "2657": ",â", "2658": " Un", "2659": "ising", "2660": "ho", "2661": "uc", "2662": "ek", "2663": "×¢××", "2664": "HAP", "2665": " common", "2666": " ×ª× ", "2667": " hast", "2668": "oint", "2669": "uss", "2670": " ××× ", "2671": "ane", "2672": "HAPTER", "2673": "aughter", "2674": " effect", "2675": " master", "2676": " thus", "2677": " mer", "2678": "une", "2679": "××", "2680": " ×××××", "2681": " ××", "2682": " Be", "2683": "××¨×", "2684": " window", "2685": "××¡", "2686": "Qu", "2687": " ××××", "2688": " body", "2689": " ×§×", "2690": " ×××©", "2691": " equ", "2692": "×¢×¦", "2693": "HE", "2694": "laim", "2695": " everything", "2696": "××¤×¨", "2697": " ×©×¤", "2698": "irt", "2699": " prov", "2700": " respect", "2701": " ×××§", "2702": " ×××", "2703": " feet", "2704": " ××××ª", "2705": " ×××", "2706": "tr", "2707": "Why", "2708": "×××", "2709": " answer", "2710": " ir", "2711": " To", "2712": " Pr", "2713": " truth", "2714": "vern", "2715": " expl", "2716": " ××¢××¨×", "2717": "riage", "2718": " ×××", "2719": " met", "2720": "bit", "2721": "××", "2722": " gre", "2723": "rit", "2724": "them", "2725": " ××¢×", "2726": "×××", "2727": "iously", "2728": " ×××ª", "2729": "mission", "2730": "×× ×ª", "2731": " val", "2732": "ased", "2733": " free", "2734": " Sir", "2735": " ×¢××", "2736": " known", "2737": "××¡×¨", "2738": "×¢×", "2739": "××", "2740": " begin", "2741": " ran", "2742": " ×¨××", "2743": "××§×", "2744": "××¦", "2745": "isf", "2746": " ××××", "2747": " ×××", "2748": " draw", "2749": "××§", "2750": "app", "2751": "Ö¸Ö¼×", "2752": " ×××", "2753": " ××××¨", "2754": "overed", "2755": " ××", "2756": " human", "2757": " nature", "2758": "hile", "2759": " appear", "2760": " par", "2761": " How", "2762": " possible", "2763": "×××ª", "2764": "ley", "2765": " making", "2766": "look", "2767": "×××", "2768": " thousand", "2769": " ××", "2770": " sense", "2771": "For", "2772": " Al", "2773": " ×××", "2774": "××©×¨", "2775": " hur", "2776": "night", "2777": "asion", "2778": " general", "2779": " ××", "2780": " Eng", "2781": " ××¢×ª", "2782": " past", "2783": " sister", "2784": " bar", "2785": "×¢×ª×", "2786": "head", "2787": "dle", "2788": "ploy", "2789": " ×××¨", "2790": " lost", "2791": "idence", "2792": " bes", "2793": " ××¤×××", "2794": " husband", "2795": " prin", "2796": " eye", "2797": "××¢×××", "2798": " wonder", "2799": " ××××©", "2800": "×××", "2801": " ××××", "2802": "×××ª", "2803": "ney", "2804": " account", "2805": "val", "2806": " dri", "2807": "×××", "2808": "ging", "2809": "che", "2810": "× ×××", "2811": "medi", "2812": " Lord", "2813": " ut", "2814": " ×¨××¢", "2815": "×©×", "2816": "××§×¨", "2817": "××¨×", "2818": " suddenly", "2819": "× ××", "2820": "though", "2821": "×¡×§×", "2822": " trou", "2823": " deep", "2824": " pa", "2825": "cho", "2826": " My", "2827": " mid", "2828": "××ª×", "2829": " ×××", "2830": " ×××", "2831": "come", "2832": " ×××", "2833": "×××", "2834": " ××§", "2835": " pain", "2836": " sea", "2837": "×××", "2838": " ××¦", "2839": " ××ª×", "2840": " low", "2841": "Ã©", "2842": " ten", "2843": "illed", "2844": "××", "2845": " fre", "2846": " col", "2847": " different", "2848": "ement", "2849": " view", "2850": "××", "2851": "itude", "2852": " pay", "2853": "ament", "2854": " mem", "2855": " proper", "2856": " comple", "2857": " ×©×××", "2858": " deal", "2859": "ats", "2860": " kept", "2861": "×©××ª", "2862": "ury", "2863": "would", "2864": " exam", "2865": "×××", "2866": " mist", "2867": "×¤×", "2868": " sight", "2869": " lad", "2870": " wall", "2871": " able", "2872": "So", "2873": " ×××¨", "2874": " ×××¨×", "2875": "ingly", "2876": " servant", "2877": "ants", "2878": " ××", "2879": "par", "2880": " × ×", "2881": " -", "2882": " ×××¢×", "2883": " won", "2884": " perfect", "2885": "××××ª", "2886": " trans", "2887": " const", "2888": " ××¨××©××", "2889": "will", "2890": "que", "2891": " bad", "2892": "under", "2893": "ush", "2894": "arch", "2895": " tou", "2896": " ××× ", "2897": " ×¤×ª×", "2898": "×¤××¨", "2899": "uff", "2900": " ×××", "2901": " ×¢×", "2902": "ches", "2903": "itted", "2904": " strange", "2905": " ××¨×", "2906": "ring", "2907": " All", "2908": "××¨×", "2909": " fort", "2910": "××¢××", "2911": "hil", "2912": " ×××", "2913": " six", "2914": " sleep", "2915": "ledge", "2916": " ××¨××©", "2917": " lead", "2918": " ×××¡", "2919": "××§××", "2920": " fellow", "2921": "××", "2922": "ror", "2923": "dis", "2924": "××", "2925": "ask", "2926": "were", "2927": "ized", "2928": "pose", "2929": " five", "2930": " foot", "2931": "how", "2932": "××", "2933": "side", "2934": "ctor", "2935": " ××¢", "2936": " ×××§", "2937": "lish", "2938": "×× ×××", "2939": "rist", "2940": " quiet", "2941": " mine", "2942": " sum", "2943": " idea", "2944": " ×××¨×ª", "2945": "××¡×", "2946": " ed", "2947": "cul", "2948": "ession", "2949": " X", "2950": " ××××××", "2951": " red", "2952": "ster", "2953": " ×××", "2954": "rel", "2955": " ×¢××", "2956": " On", "2957": " happy", "2958": " ××××", "2959": "×××", "2960": " ×§×©×", "2961": " ×ª×¢", "2962": "××§××", "2963": "ality", "2964": "ead", "2965": " public", "2966": " cut", "2967": " opin", "2968": "×¡××£", "2969": " ××××ª", "2970": "×¢×¨×", "2971": " town", "2972": " ×¢××××", "2973": " ready", "2974": " arms", "2975": " ×©×©", "2976": " bit", "2977": " ×¢×¨", "2978": " surpr", "2979": "××", "2980": " ××¨×", "2981": " ×××¨×¥", "2982": " mod", "2983": " ×¨××", "2984": "××¡", "2985": " show", "2986": " become", "2987": "hand", "2988": " ×¦×", "2989": " appeared", "2990": " pret", "2991": " held", "2992": " ××××", "2993": "agn", "2994": " ××ª×", "2995": " govern", "2996": "ef", "2997": "×××", "2998": " × ×× ×¡", "2999": " yourself", "3000": "×¨×¡", "3001": " [", "3002": " Now", "3003": "well", "3004": "got", "3005": " ××¨××", "3006": "××©×", "3007": "×××¨", "3008": " Don", "3009": " ×§×¦×ª", "3010": " imag", "3011": " corn", "3012": " ought", "3013": " taking", "3014": "××¢××ª", "3015": "ries", "3016": "××", "3017": " ×××£", "3018": " didn", "3019": "At", "3020": " diffic", "3021": " remember", "3022": "× ×", "3023": "bled", "3024": " ×ª×¤", "3025": "×××", "3026": " affect", "3027": " ×¢××× ×", "3028": " mil", "3029": "×××", "3030": "×× ××ª", "3031": " hair", "3032": " ××¡×¤×¨", "3033": " ××¦×¢××¨", "3034": " dra", "3035": " quick", "3036": " peace", "3037": " spoke", "3038": "××¡×", "3039": " lab", "3040": "×ª×§", "3041": "erm", "3042": " tre", "3043": " ×××", "3044": "ues", "3045": " ×§×", "3046": "ptain", "3047": " ×××ª", "3048": "when", "3049": "ici", "3050": " af", "3051": "tern", "3052": " ××××", "3053": " ××©×", "3054": "××××", "3055": " wanted", "3056": " ×××", "3057": "urch", "3058": "sc", "3059": "iful", "3060": "otion", "3061": " spirit", "3062": "ening", "3063": "××¨×", "3064": " ×××©", "3065": "Not", "3066": " sever", "3067": " ××××", "3068": " ××××", "3069": "utes", "3070": " creat", "3071": " ××¨×××ª", "3072": "Now", "3073": " fav", "3074": " stud", "3075": " accord", "3076": " hath", "3077": " ×××", "3078": " â", "3079": "hn", "3080": " ××ª×", "3081": " ××¨", "3082": " cal", "3083": " month", "3084": " yes", "3085": " ×××", "3086": "raid", "3087": "× ×", "3088": " women", "3089": "On", "3090": " charact", "3091": " gold", "3092": "ear", "3093": "××¤×", "3094": " ×××", "3095": " fair", "3096": " mere", "3097": "××¢", "3098": "ump", "3099": " ma", "3100": " feeling", "3101": " acqu", "3102": "×××¨", "3103": " blood", "3104": " ××©×", "3105": " ×××§", "3106": "××¨××", "3107": "× ×©", "3108": " ×××××", "3109": "×××", "3110": " ×××", "3111": " sto", "3112": " road", "3113": " Do", "3114": "light", "3115": " ×©××", "3116": "inary", "3117": " stay", "3118": "××××ª", "3119": "××§×", "3120": " ×§×¨×", "3121": "××©×", "3122": " ×××", "3123": "×××¨××", "3124": "'d", "3125": " sometimes", "3126": "rupt", "3127": " employ", "3128": "××¨×", "3129": " worth", "3130": " ××©× ×", "3131": " inqu", "3132": "gy", "3133": " ××××ª×¨", "3134": " incre", "3135": " longer", "3136": "×¦××", "3137": " ve", "3138": "ik", "3139": "××ª×", "3140": "aving", "3141": " ×××¢", "3142": "chool", "3143": "××¡××£", "3144": " ××¢××", "3145": "×©×¨×", "3146": " dem", "3147": "× ×", "3148": " ×××¢", "3149": "co", "3150": " #", "3151": " cent", "3152": " fine", "3153": "ature", "3154": "go", "3155": " greater", "3156": " mur", "3157": " repe", "3158": " eng", "3159": "arent", "3160": " ××©×ª", "3161": "×¨××©×", "3162": " glad", "3163": " ×¨××¦×", "3164": "ges", "3165": " opened", "3166": " din", "3167": "iling", "3168": " wood", "3169": "×××", "3170": " break", "3171": " ×××", "3172": " around", "3173": "antly", "3174": "str", "3175": " cold", "3176": " ××¦", "3177": "let", "3178": " ××¡", "3179": "××××", "3180": " ×¤×©", "3181": " secret", "3182": " Mad", "3183": "sequ", "3184": " sol", "3185": " laugh", "3186": " mark", "3187": " ××××", "3188": "×§×ª", "3189": " ×¢×× ××", "3190": "\"â¦", "3191": " ××¦×", "3192": " ce", "3193": " arri", "3194": "×××", "3195": " command", "3196": " serv", "3197": " ×©×ª×", "3198": " ×× ×", "3199": " Mary", "3200": " ×××¨×", "3201": " neither", "3202": "ational", "3203": "unity", "3204": "irm", "3205": "× ×××", "3206": " watch", "3207": " added", "3208": " div", "3209": " became", "3210": " ××¦×", "3211": "××¨××ª", "3212": " mad", "3213": "×××", "3214": "iar", "3215": " Well", "3216": " immedi", "3217": "umst", "3218": "ancy", "3219": " streng", "3220": " ××", "3221": "resh", "3222": " ×××", "3223": " dest", "3224": " continued", "3225": " ××¦××", "3226": " regard", "3227": "ert", "3228": "With", "3229": "××××ª", "3230": "ushed", "3231": " ××", "3232": "uthor", "3233": "ism", "3234": "××××ª", "3235": "son", "3236": " change", "3237": " ××©×¢×", "3238": " ×××¦", "3239": " disp", "3240": " ×××©", "3241": " ××¦×", "3242": " doing", "3243": " ×¨×××", "3244": " resol", "3245": " move", "3246": "ours", "3247": " during", "3248": "ham", "3249": " ×ª×", "3250": " heav", "3251": " ××××××", "3252": "iment", "3253": "imp", "3254": "ceive", "3255": " suppose", "3256": "ony", "3257": "house", "3258": " ×××", "3259": "××¨×©", "3260": " eff", "3261": " ××××", "3262": "××××", "3263": " occasion", "3264": " cast", "3265": "××©", "3266": " seems", "3267": " ×©× ×ª", "3268": "× ×¢", "3269": "××××ª", "3270": "gin", "3271": " several", "3272": " late", "3273": "some", "3274": " ××××ª", "3275": "ames", "3276": " breat", "3277": "×¨×", "3278": " Dor", "3279": " ××××", "3280": " ×¢×××", "3281": " ×¢×××", "3282": " ×××", "3283": " visit", "3284": " chair", "3285": "',", "3286": " self", "3287": " ××××", "3288": "anger", "3289": "ollect", "3290": " heaven", "3291": " walked", "3292": "××¦×¨", "3293": "××¨×", "3294": " satisf", "3295": "rench", "3296": "lled", "3297": "who", "3298": " ×¦×", "3299": "××", "3300": " ×¤× ××", "3301": " ×§××", "3302": "××××ª", "3303": " ××¢×©", "3304": " Par", "3305": " ×××¨", "3306": "bs", "3307": "×××", "3308": " ×××¨", "3309": "××××", "3310": " × ×", "3311": "××", "3312": " ××¨×", "3313": " ×××", "3314": " tem", "3315": " Qu", "3316": " ×××", "3317": " obl", "3318": " ××¨××©×× ×", "3319": " ××¢×××", "3320": " dream", "3321": " smile", "3322": " ××§", "3323": " ×××", "3324": " × ××", "3325": "just", "3326": "××××ª", "3327": "pan", "3328": " ××", "3329": "ler", "3330": " ele", "3331": "ighb", "3332": "×××", "3333": " fig", "3334": "more", "3335": " learn", "3336": " Her", "3337": "pre", "3338": "Ö¾Ö¾", "3339": " followed", "3340": " mus", "3341": "××¦××", "3342": " ××", "3343": "ize", "3344": " forth", "3345": " horse", "3346": "ency", "3347": "their", "3348": "ically", "3349": " cause", "3350": "××", "3351": " necessary", "3352": "×¡×ª××¨×", "3353": " ×××", "3354": " ××¦×", "3355": "××©××", "3356": "lt", "3357": " main", "3358": " ×××¨", "3359": "×©××", "3360": "iol", "3361": "××¡×£", "3362": "×¦××ª", "3363": "×¢××", "3364": " 4", "3365": "usion", "3366": "× ×× ×", "3367": " ×§×", "3368": "bers", "3369": "Ar", "3370": " ××¢××", "3371": "yond", "3372": "els", "3373": " priv", "3374": "×××©", "3375": "×××", "3376": " character", "3377": " except", "3378": "×¡×", "3379": " ×ª×", "3380": ".)", "3381": " ×××¨", "3382": " rose", "3383": " dog", "3384": " ××××", "3385": "Do", "3386": " ××××××", "3387": "Ö»Ö¼", "3388": "acc", "3389": " ××¡×ª", "3390": " Ad", "3391": "reg", "3392": " afraid", "3393": " ××¢×ª", "3394": "ky", "3395": " ××©×", "3396": "×××", "3397": "ager", "3398": "CHAPTER", "3399": " sens", "3400": "××", "3401": "×¨××", "3402": " ×××", "3403": " ×××¢", "3404": "×××", "3405": " number", "3406": " pray", "3407": " slow", "3408": "resent", "3409": " ×××¦", "3410": "×××", "3411": " dut", "3412": " delight", "3413": "ancho", "3414": " ×××§××", "3415": " opinion", "3416": "ones", "3417": " pretty", "3418": " pleasure", "3419": " ××¨×¢", "3420": " ×××", "3421": " var", "3422": "velop", "3423": " comfort", "3424": "pping", "3425": "Of", "3426": "ively", "3427": " wild", "3428": "uct", "3429": "gl", "3430": "ously", "3431": " hat", "3432": "could", "3433": " Commission", "3434": " ××× × ×", "3435": " prob", "3436": " tried", "3437": "××ª×", "3438": "bo", "3439": "then", "3440": " ××¢×", "3441": "ustom", "3442": "appe", "3443": "ossible", "3444": " ××¤× ××", "3445": " contr", "3446": " daughter", "3447": " ×¨××", "3448": " ×××", "3449": " silence", "3450": "×× ×", "3451": " ×××¢×ª", "3452": "ots", "3453": " ××¢×ª", "3454": "iece", "3455": " ×××", "3456": "ma", "3457": "×ª×××", "3458": " Christ", "3459": " ××¡×¤×¨", "3460": "××", "3461": "                ", "3462": " wrong", "3463": "anced", "3464": "oured", "3465": " ×¡××£", "3466": "icked", "3467": "spect", "3468": " ××× ×", "3469": " field", "3470": " ×××©×¨", "3471": " ×××××", "3472": " spo", "3473": " incl", "3474": " soft", "3475": "×××§", "3476": "×¤×ª×", "3477": " ××§×", "3478": " desp", "3479": " ×¡×¤", "3480": " received", "3481": " mount", "3482": " mouth", "3483": "ned", "3484": " scar", "3485": "ified", "3486": " ×¤×ª×××", "3487": " across", "3488": "wise", "3489": " purpose", "3490": " European", "3491": " ×¨×©", "3492": "××¡××", "3493": " forward", "3494": " offic", "3495": " ××¨×", "3496": "××××", "3497": " happened", "3498": "×××¢", "3499": "mp", "3500": " ××¨×§", "3501": " av", "3502": " ××¢××¨", "3503": "cell", "3504": "×¨×", "3505": "××¤", "3506": " stri", "3507": " drink", "3508": " ang", "3509": " ×¢××", "3510": " ×××©", "3511": "Ã¡", "3512": " ×××××", "3513": " further", "3514": "×××", "3515": " seeing", "3516": " prot", "3517": "said", "3518": "×©×§", "3519": " comes", "3520": "ressing", "3521": "dom", "3522": "××", "3523": "××××", "3524": " bear", "3525": "×× ××", "3526": " mention", "3527": " flo", "3528": "×××", "3529": " hours", "3530": "....", "3531": "uture", "3532": " ord", "3533": " ×©××", "3534": " school", "3535": "joy", "3536": "ength", "3537": "aged", "3538": " Pres", "3539": "oman", "3540": " ×××", "3541": "lex", "3542": " ann", "3543": " ×××", "3544": "inter", "3545": "iff", "3546": "Ah", "3547": " company", "3548": " wis", "3549": "×××", "3550": "×¡×", "3551": " di", "3552": "×¨××", "3553": " ××××", "3554": " position", "3555": " carried", "3556": " age", "3557": " ×××", "3558": "essed", "3559": " ×¢×¨×", "3560": " certainly", "3561": " × ×¤×©×", "3562": " living", "3563": " ×××¨×", "3564": " exist", "3565": " convers", "3566": "×××", "3567": " princi", "3568": " ru", "3569": "ounded", "3570": " ×©××", "3571": " ×××§", "3572": " beyond", "3573": "ital", "3574": "mes", "3575": "××¦×", "3576": "inct", "3577": "Is", "3578": " ×××§×", "3579": " none", "3580": " eat", "3581": " ××¨×", "3582": "?â¦", "3583": " John", "3584": " anx", "3585": " ×¢×××", "3586": "××¨×ª", "3587": "your", "3588": " ×¤× ××", "3589": "ciety", "3590": " Why", "3591": " send", "3592": " ××©×¤", "3593": "×××", "3594": "ining", "3595": " ××©×", "3596": " ×××©××", "3597": " ××¢×©×", "3598": "ming", "3599": "××ª×", "3600": " circumst", "3601": "××××", "3602": " ago", "3603": " ××¤×¨", "3604": "×××¨", "3605": " hist", "3606": "cil", "3607": " entered", "3608": "ze", "3609": "ric", "3610": " ×××¨", "3611": " ××", "3612": " conv", "3613": " ×××", "3614": "cend", "3615": " natural", "3616": " knowledge", "3617": " joy", "3618": " bene", "3619": "iter", "3620": "×ª××", "3621": " ×××¢×", "3622": " ××××", "3623": "part", "3624": " quar", "3625": " enc", "3626": "race", "3627": "__", "3628": " ××¤×¨", "3629": " stopped", "3630": "×¢×", "3631": " twenty", "3632": "ON", "3633": " accom", "3634": " ××", "3635": "××", "3636": "bling", "3637": "×¨××¢", "3638": "ogn", "3639": "××ª×", "3640": "bar", "3641": "rible", "3642": " cross", "3643": " plain", "3644": "×××", "3645": "ilt", "3646": " ×©×¢×", "3647": " prince", "3648": " ××××", "3649": " ×©×", "3650": " ×××", "3651": " stra", "3652": " ×¤×¡", "3653": "××", "3654": "eg", "3655": "×× ", "3656": "rael", "3657": " ×©××", "3658": "hel", "3659": "oly", "3660": " compan", "3661": "×¨×¦×", "3662": " ×××", "3663": "arden", "3664": "ters", "3665": " laid", "3666": " big", "3667": " ×©×××", "3668": " ××¡", "3669": "××××ª", "3670": "ply", "3671": "ca", "3672": " Pet", "3673": "ixed", "3674": " led", "3675": " tears", "3676": " thinking", "3677": "×¤×¢×", "3678": " succ", "3679": " ×××", "3680": " ×××××¨", "3681": " ×¤×ª", "3682": " sn", "3683": " author", "3684": "×× ×", "3685": "××¨××ª", "3686": "Ö´×", "3687": " thoughts", "3688": " ××©×ª", "3689": " ×¨××", "3690": "×××ª", "3691": "×××¨", "3692": " ×× ×©×", "3693": " city", "3694": " support", "3695": " ××¢××××", "3696": " ×××", "3697": "××××", "3698": " danger", "3699": " Let", "3700": "××¤××ª", "3701": " ××ª×", "3702": "St", "3703": "lu", "3704": "ision", "3705": " sitting", "3706": "asure", "3707": " pen", "3708": " bright", "3709": "××©×××", "3710": " ×× ×", "3711": "××¡××", "3712": "ift", "3713": "× ×××ª", "3714": " whis", "3715": " trem", "3716": " remain", "3717": " lips", "3718": "××××ª", "3719": "cially", "3720": " ×©××", "3721": " THE", "3722": " sweet", "3723": "rank", "3724": " Br", "3725": " port", "3726": " fast", "3727": "×¤×××", "3728": "×¨×¦××ª", "3729": " ×××", "3730": " ×××¢", "3731": "ics", "3732": " future", "3733": " ×××ª", "3734": "tw", "3735": " inn", "3736": " ×××ª", "3737": " Pro", "3738": "pla", "3739": " × ×ª×", "3740": " ×©×××", "3741": " ×¦×", "3742": "×× ×", "3743": " faith", "3744": "time", "3745": " hardly", "3746": " ×××", "3747": " proceed", "3748": " enem", "3749": " â", "3750": " ××××", "3751": "off", "3752": "cons", "3753": "××¤×", "3754": " ××§×¨", "3755": "owers", "3756": " story", "3757": " prep", "3758": " sold", "3759": "attle", "3760": "stood", "3761": "ourage", "3762": " ××ª××", "3763": " squ", "3764": "×××¨", "3765": " try", "3766": " Gr", "3767": "itten", "3768": "ference", "3769": "erv", "3770": " ×¨××©×", "3771": "×××", "3772": " ×××", "3773": " One", "3774": " report", "3775": "×¨×§", "3776": "××××¨", "3777": "××¤×©×¨", "3778": "ls", "3779": "ences", "3780": "ondon", "3781": " minutes", "3782": " French", "3783": "An", "3784": "comm", "3785": " ××××××", "3786": "Ã³", "3787": " evil", "3788": " fool", "3789": "All", "3790": " neighb", "3791": " × ×©××¢", "3792": "××©×¨", "3793": " ×¤× ", "3794": " ××××", "3795": "can", "3796": " length", "3797": "×©×¨××", "3798": "××¨×××", "3799": " Oh", "3800": " med", "3801": "××¨××", "3802": "×× ××", "3803": "'m", "3804": "×§××", "3805": " strength", "3806": "about", "3807": "×× ×", "3808": " trust", "3809": "×××ª", "3810": " ××××", "3811": " ×××©×", "3812": " front", "3813": " ×××©×ª", "3814": " ×××××", "3815": ";;", "3816": " ××××", "3817": " ×××", "3818": " bott", "3819": "×××", "3820": " slight", "3821": " experi", "3822": " Ca", "3823": " trouble", "3824": " tor", "3825": "been", "3826": " ×××", "3827": " event", "3828": " sett", "3829": "×× ×× ×", "3830": " ×¢×©×", "3831": "ians", "3832": " New", "3833": " ××¢×× ×", "3834": " ××", "3835": "× ×¤×©", "3836": "××¢××ª", "3837": "roy", "3838": " dread", "3839": " ×××", "3840": "×××", "3841": "orm", "3842": " resp", "3843": "××¦×××", "3844": "His", "3845": " ××¤× ×", "3846": " 5", "3847": " ×¢× ××", "3848": "ists", "3849": " ×××", "3850": " miss", "3851": " ×××", "3852": " dinner", "3853": " god", "3854": " shad", "3855": "××ª", "3856": " × ××ª", "3857": " standing", "3858": " Not", "3859": " ×××", "3860": " ×ª×××", "3861": "ron", "3862": "×× ×", "3863": "cher", "3864": " attention", "3865": " ×ª×", "3866": " ×××ª×", "3867": " ×××©×", "3868": "bert", "3869": " force", "3870": " immediately", "3871": "××¨××", "3872": "ires", "3873": "ises", "3874": " ××ª×§", "3875": " Will", "3876": "hood", "3877": " important", "3878": " determ", "3879": "again", "3880": " ×××¨", "3881": " ××©××", "3882": "×¤× ××", "3883": " ×××× ×", "3884": "dd", "3885": "ives", "3886": " ××§××", "3887": " ×××", "3888": "van", "3889": "×××", "3890": " struck", "3891": " knows", "3892": " turning", "3893": " ××©×", "3894": " oblig", "3895": " meant", "3896": "ases", "3897": "\"?", "3898": " ××××", "3899": "oose", "3900": " ××××", "3901": " ××¨×", "3902": "ped", "3903": " ××©×", "3904": "eor", "3905": " remark", "3906": "×× ×××ª", "3907": " plan", "3908": "should", "3909": " die", "3910": " chief", "3911": "×¤×©×", "3912": "eness", "3913": "iding", "3914": "Â ", "3915": "stem", "3916": " ×××¨", "3917": " entire", "3918": " ××××¢××", "3919": " develop", "3920": " ×¤×¢×××", "3921": "after", "3922": " ×¢××¨××ª", "3923": " remained", "3924": " ×××", "3925": "×××¨", "3926": "gan", "3927": " ×ª×", "3928": "gram", "3929": " early", "3930": " hop", "3931": "wick", "3932": "sem", "3933": "×¤×¨××", "3934": "ille", "3935": "sm", "3936": "×× ×ª", "3937": " Tom", "3938": " hig", "3939": "kn", "3940": " glass", "3941": " ×©××", "3942": "×××", "3943": " beautiful", "3944": " observed", "3945": " ××¤×¢×", "3946": "××ª×", "3947": " Israel", "3948": "×¨×", "3949": "×¨×××©", "3950": " ×××", "3951": "×××", "3952": "conom", "3953": "ored", "3954": " × ×©×", "3955": "tained", "3956": " ×©××ª", "3957": "together", "3958": " concern", "3959": " viol", "3960": " ×¨××", "3961": " sad", "3962": " impro", "3963": " makes", "3964": " wat", "3965": "into", "3966": "×¨××ª", "3967": "××", "3968": "××¡×¤×¨", "3969": " ×¢×¦××", "3970": " ××××", "3971": " effort", "3972": "×¤×", "3973": "ounds", "3974": "ibility", "3975": "×××ª", "3976": "laimed", "3977": " ××¨×", "3978": " Count", "3979": " fif", "3980": "mit", "3981": " ××", "3982": " jo", "3983": " build", "3984": "××¦×", "3985": "××¤×ª", "3986": " exact", "3987": "××¤×", "3988": "orry", "3989": " tone", "3990": "ivid", "3991": "rowd", "3992": " wit", "3993": "IN", "3994": " gri", "3995": " ×××", "3996": " complete", "3997": "××©×", "3998": "happ", "3999": "××ª", "4000": " ××× ", "4001": " ×ª××××", "4002": " reached", "4003": "ples", "4004": "××¦×", "4005": " pract", "4006": " ×××¨", "4007": " ××××", "4008": "×¢×ª×", "4009": " talking", "4010": "×××××", "4011": "×××ª", "4012": " ××× ×", "4013": " ×××©×", "4014": "osing", "4015": " usual", "4016": " weak", "4017": " top", "4018": " fight", "4019": " × ×¢×©×", "4020": "××¤××", "4021": " ××¤", "4022": "×××", "4023": " ×¢××××", "4024": "×××", "4025": " service", "4026": " ×××", "4027": "dy", "4028": "ribut", "4029": " drew", "4030": "××¡×××", "4031": " former", "4032": " ××××¨", "4033": " speaking", "4034": "hold", "4035": "every", "4036": "enn", "4037": " result", "4038": "Ö¸,", "4039": "×××ª×", "4040": " Man", "4041": " ×¢×¦××", "4042": " rev", "4043": " ××××", "4044": " ×ª× ×", "4045": " cre", "4046": "pecially", "4047": " silent", "4048": " ×× ×¤×©", "4049": "××××ª", "4050": " ×××¨", "4051": " anim", "4052": "×××¨", "4053": " expression", "4054": "×××¨", "4055": " ship", "4056": "×× ××ª", "4057": " London", "4058": " according", "4059": " vill", "4060": " enjoy", "4061": "oses", "4062": " polic", "4063": " ××", "4064": " accept", "4065": " Per", "4066": "×××", "4067": " ×××", "4068": " ××¢×§×", "4069": "×××", "4070": "×××¢", "4071": " line", "4072": " ××¦×", "4073": "Ö³", "4074": " ×× ×©", "4075": "itation", "4076": " touch", "4077": "ââ", "4078": " ×©×× ×", "4079": " paper", "4080": " consequ", "4081": "angu", "4082": " third", "4083": "××", "4084": " glo", "4085": " tax", "4086": " rich", "4087": " ×©××", "4088": "uation", "4089": " ×¦×¢××¨", "4090": " ×¦×¢", "4091": " La", "4092": " ×©×¤×ª", "4093": " ××¡×××", "4094": "ââ", "4095": " Ind", "4096": " ××¢×××", "4097": " fing", "4098": " Z", "4099": " ××©×", "4100": "××××", "4101": " lived", "4102": "cont", "4103": "×××", "4104": " ×××ª×", "4105": " desire", "4106": " ×××¨", "4107": " easy", "4108": "isto", "4109": "Mrs", "4110": " please", "4111": " ××©×", "4112": " pict", "4113": " getting", "4114": "×¨×©", "4115": "×××", "4116": "Ö°,", "4117": " States", "4118": "itions", "4119": " Of", "4120": "×¡×", "4121": " ××©×¢×ª", "4122": " shut", "4123": " sal", "4124": "set", "4125": "little", "4126": " descri", "4127": " conversation", "4128": " ×©××", "4129": "ius", "4130": "×¡×", "4131": " ××ª×ª", "4132": "olog", "4133": "olas", "4134": " Madame", "4135": " moved", "4136": " ×¢××", "4137": " heavy", "4138": " forget", "4139": " ×××", "4140": " society", "4141": "aded", "4142": " hot", "4143": " × ××©", "4144": " chance", "4145": "×××¢", "4146": " ××××", "4147": " ××", "4148": " depart", "4149": "××", "4150": " Sp", "4151": " ××××", "4152": " ×¢××¨", "4153": " straight", "4154": "×¦×××", "4155": " wait", "4156": " ×××¦", "4157": "lin", "4158": " ××××¨×", "4159": "××¨×", "4160": " ××××", "4161": " ×¢××©×", "4162": "×¢×", "4163": " grow", "4164": " ××¤×¢×××", "4165": " ladies", "4166": " Lady", "4167": " Sam", "4168": "×××", "4169": " concl", "4170": " eight", "4171": " fat", "4172": " action", "4173": "××××", "4174": " ×××", "4175": " ××§×", "4176": "before", "4177": " × ×¢×©", "4178": "××××ª", "4179": " steps", "4180": "ested", "4181": " cry", "4182": " ××××ª", "4183": " ××¡×", "4184": "morrow", "4185": "long", "4186": " ×§×× ×", "4187": " court", "4188": "mn", "4189": " corner", "4190": "cience", "4191": " ×¡×¤×§", "4192": "ray", "4193": " party", "4194": " prison", "4195": "×¡×", "4196": "than", "4197": "cient", "4198": "Ö°Ö¼×", "4199": " ×©××", "4200": ".,", "4201": " system", "4202": " imm", "4203": "×©×¨×ª", "4204": " ×××¡", "4205": " attempt", "4206": " aunt", "4207": "EN", "4208": "××¤×¨××", "4209": "icholas", "4210": " ×§×¦", "4211": "arm", "4212": "×¤×", "4213": " President", "4214": " ×××¢××", "4215": " econom", "4216": " cost", "4217": " uncle", "4218": "ickwick", "4219": " compl", "4220": " mill", "4221": " difficult", "4222": " ××", "4223": "'ll", "4224": " ××××ª", "4225": "××¤××", "4226": " success", "4227": " beginning", "4228": " nearly", "4229": " virt", "4230": " lim", "4231": " post", "4232": " week", "4233": " health", "4234": " ××¢×", "4235": "AR", "4236": " ×××", "4237": " ×©××¢", "4238": "_,", "4239": "rance", "4240": "AN", "4241": " sin", "4242": "'.", "4243": "×× ××¨", "4244": " ××§×¨", "4245": " gentlemen", "4246": " × ×", "4247": " ××××ª", "4248": " × ×", "4249": " ×××¨", "4250": " broken", "4251": "fast", "4252": " ××¢×¦××", "4253": " Cl", "4254": "××©×", "4255": " pock", "4256": "ils", "4257": " instant", "4258": "een", "4259": " English", "4260": " ×××¨", "4261": " Am", "4262": " warm", "4263": "idered", "4264": "bered", "4265": "face", "4266": " opport", "4267": "××¨×", "4268": "ina", "4269": " ×××××¨", "4270": " ××", "4271": "iety", "4272": "×ª×××", "4273": " ××ª×¢", "4274": "athe", "4275": "pass", "4276": " ×××", "4277": "Â­", "4278": "××××ª", "4279": "eed", "4280": "has", "4281": " ××××ª", "4282": " ××", "4283": "× ×× ××", "4284": "upon", "4285": " bri", "4286": " ×©×××", "4287": " ×©××¨", "4288": " ×©××× ×", "4289": " With", "4290": " ×××", "4291": "×××ª", "4292": "ibly", "4293": "overn", "4294": " er", "4295": "know", "4296": " presence", "4297": " married", "4298": " lie", "4299": " ×¤×§", "4300": "even", "4301": "××¨×", "4302": "iced", "4303": " King", "4304": " Ste", "4305": "×§××ª", "4306": "eks", "4307": " ××©××©", "4308": "lling", "4309": " ×××¦", "4310": "×××¡", "4311": " street", "4312": " ××××©××", "4313": " × ×¨××", "4314": " honour", "4315": "fer", "4316": "osop", "4317": "cour", "4318": " clot", "4319": " ×××", "4320": " kiss", "4321": " sole", "4322": "×¢×©×", "4323": " treat", "4324": " attend", "4325": "ship", "4326": " Le", "4327": "×××", "4328": " polit", "4329": " ×©×××", "4330": "himself", "4331": "ument", "4332": " garden", "4333": " expected", "4334": "new", "4335": " ×©××", "4336": " minute", "4337": " remem", "4338": " ××¡×ª", "4339": " ××××", "4340": "orses", "4341": " ×©××", "4342": " × ××¡", "4343": "cks", "4344": "arer", "4345": "cely", "4346": "range", "4347": " Tr", "4348": " government", "4349": " shar", "4350": " ×××¡", "4351": "chan", "4352": " dress", "4353": "mber", "4354": " recogn", "4355": "××¦×××", "4356": " Pe", "4357": " ××¤×¥", "4358": " waiting", "4359": "aching", "4360": " repeated", "4361": "bles", "4362": " ××©×", "4363": " ×¨××", "4364": " ×××¨", "4365": "ption", "4366": " program", "4367": "ests", "4368": " estab", "4369": "××¢×ª", "4370": "ume", "4371": " demand", "4372": " ×××", "4373": " ×ª××¨×", "4374": " ×× ××", "4375": " ×××¨", "4376": "×××", "4377": " jour", "4378": "ike", "4379": " ×¢× ×", "4380": "irty", "4381": "action", "4382": " cra", "4383": "ishing", "4384": " forgot", "4385": " ××××××ª", "4386": "iction", "4387": " impossible", "4388": " ××ª××¨×", "4389": " ××××©", "4390": " Con", "4391": " pull", "4392": " church", "4393": "formed", "4394": " ××¡×£", "4395": "×¢×", "4396": " wine", "4397": " raised", "4398": "ays", "4399": "ker", "4400": "×¨×××", "4401": "×××¨", "4402": "road", "4403": " instead", "4404": " ××××", "4405": "ners", "4406": " months", "4407": " ×××", "4408": "isted", "4409": " deg", "4410": " ××× ×©××", "4411": " distance", "4412": "××××", "4413": " ××××©×", "4414": " advant", "4415": "acy", "4416": " whatever", "4417": " ××", "4418": " figure", "4419": "rough", "4420": "tic", "4421": " ×××§×", "4422": "×××", "4423": " × ×", "4424": " und", "4425": " ×××©×", "4426": ".]", "4427": " ×¢×©×", "4428": " ×××", "4429": "while", "4430": "unk", "4431": "umed", "4432": " youth", "4433": " ×××", "4434": " ×××¨", "4435": "×¡×ª×¨", "4436": " save", "4437": "see", "4438": "iles", "4439": " ××ª×¤", "4440": "×¢×××ª", "4441": " coun", "4442": "××¨××©×××", "4443": " ××©×", "4444": " burn", "4445": "×××©", "4446": " ×××", "4447": " mor", "4448": "bly", "4449": " afterwards", "4450": " wished", "4451": "×××", "4452": "pid", "4453": " ××§××", "4454": "××××", "4455": " ×××", "4456": "×××", "4457": "down", "4458": "aff", "4459": " duty", "4460": "clock", "4461": " ×¢××", "4462": "iers", "4463": " famil", "4464": " ×¡×", "4465": " ××¤×¢×", "4466": "sec", "4467": "××××", "4468": "××¢×", "4469": "rid", "4470": " Hol", "4471": " fresh", "4472": "ills", "4473": " fright", "4474": " shout", "4475": "××××", "4476": " den", "4477": " ×©×", "4478": "gu", "4479": " crowd", "4480": "reme", "4481": "×××ª", "4482": "ghed", "4483": "don", "4484": "eorge", "4485": " breath", "4486": " host", "4487": " toward", "4488": "retched", "4489": " ×©××", "4490": " ××¨××", "4491": "Be", "4492": " died", "4493": "×××©", "4494": " ××¢×¦××", "4495": " ××××××", "4496": " De", "4497": "itary", "4498": " × ×¦", "4499": "erc", "4500": "×ª×¢", "4501": " ××¡×", "4502": " ××¢×ª", "4503": " ×××©×", "4504": "ixote", "4505": " follow", "4506": " later", "4507": " private", "4508": "ye", "4509": " ×××¢", "4510": " ××¢××", "4511": " Pickwick", "4512": "×××", "4513": " ×××", "4514": " pale", "4515": " ×××", "4516": " × ××¦×", "4517": "nest", "4518": " ××××", "4519": "××××ª", "4520": " ×©××", "4521": " ast", "4522": "jo", "4523": " Char", "4524": "field", "4525": "×¢×¨××ª", "4526": " train", "4527": " ×¦××¨×", "4528": " ××××", "4529": "vere", "4530": " trying", "4531": " occup", "4532": "××¨×", "4533": "×××ª", "4534": "××", "4535": " ××××¨××", "4536": " ××¨××©×× ××", "4537": " likely", "4538": " green", "4539": "uous", "4540": "des", "4541": "atic", "4542": " ×××", "4543": " cand", "4544": " ××¨××©", "4545": " ver", "4546": "hys", "4547": " ××××", "4548": "××", "4549": "×ª×", "4550": "×××", "4551": " ×××", "4552": " bound", "4553": " slowly", "4554": " price", "4555": " stop", "4556": " value", "4557": " ×××©××", "4558": " ××××", "4559": " grand", "4560": "××××", "4561": "×¦×××", "4562": " giving", "4563": "××××", "4564": " ×××¤×", "4565": "ites", "4566": "ech", "4567": "××¨×", "4568": "×§×¨×", "4569": " ×¢×× ×", "4570": "××¡×××ª", "4571": "iod", "4572": " America", "4573": " liber", "4574": " sugg", "4575": "pter", "4576": " ×¤×", "4577": " ×××", "4578": " ××ª××¨", "4579": "give", "4580": " Wh", "4581": "urs", "4582": " ×××¨××", "4583": "bet", "4584": "Let", "4585": " written", "4586": " extra", "4587": "××", "4588": " ××©×", "4589": "fl", "4590": "×××ª", "4591": " appearance", "4592": "min", "4593": " ××©×ª×", "4594": "××××", "4595": "olute", "4596": "ication", "4597": "ocked", "4598": " carry", "4599": " prev", "4600": " ×©××", "4601": " Se", "4602": " suffici", "4603": " ×××©", "4604": "oe", "4605": " protect", "4606": "×××", "4607": " ××¡×¤", "4608": " ××¢×××", "4609": " favour", "4610": " ××××", "4611": "×× ××", "4612": "××©", "4613": "somet", "4614": "iver", "4615": "aled", "4616": "Don", "4617": " trees", "4618": " ××§×¨×", "4619": " loved", "4620": "×©×¢×", "4621": " history", "4622": " grave", "4623": " circumstances", "4624": " probably", "4625": " simply", "4626": " ×××©×¨", "4627": "thought", "4628": " ×××¦", "4629": " ur", "4630": " safe", "4631": "kes", "4632": " gaz", "4633": " intell", "4634": " ×××", "4635": "ignor", "4636": " ××¤××¢×××", "4637": "××¡", "4638": " ××××¨××", "4639": " ××©×", "4640": " couldn", "4641": " Alex", "4642": " worse", "4643": " Re", "4644": " ××§×¨×", "4645": "arily", "4646": " drawing", "4647": "oor", "4648": " ××××", "4649": " ×¦×", "4650": " ××¨", "4651": " ××××¢", "4652": "Ö·,", "4653": "ruct", "4654": " excell", "4655": "nect", "4656": " ×©×××", "4657": " ×××", "4658": " ×§××¨×", "4659": " mut", "4660": " ××ª×", "4661": "××", "4662": "edom", "4663": " prevent", "4664": " ×××", "4665": " justice", "4666": "Here", "4667": "××©×", "4668": "spe", "4669": "One", "4670": " Cr", "4671": " box", "4672": " guard", "4673": "only", "4674": "××××", "4675": "××©×ª", "4676": " fun", "4677": "×©×¢", "4678": " sake", "4679": " ×××××", "4680": " caught", "4681": "Who", "4682": "×××", "4683": "××¨×", "4684": "×§×¨×", "4685": " bra", "4686": " ×´", "4687": "××¢××", "4688": " write", "4689": "uded", "4690": " ×××", "4691": "×©×¨×", "4692": " hung", "4693": " single", "4694": " belong", "4695": " showed", "4696": " Mor", "4697": " commun", "4698": "××¢×ª", "4699": "rer", "4700": "stairs", "4701": "pri", "4702": " trade", "4703": "oup", "4704": " American", "4705": "ords", "4706": "cle", "4707": " latter", "4708": " 6", "4709": "××¢×¨", "4710": "amed", "4711": " condition", "4712": " dim", "4713": " ××××©", "4714": " note", "4715": "××¨×", "4716": "× ××", "4717": " carriage", "4718": "io", "4719": " da", "4720": " ××¦××ª", "4721": " wouldn", "4722": " ××©×××", "4723": "××× ×", "4724": "bor", "4725": "×××", "4726": " allow", "4727": " ×××", "4728": " sick", "4729": "×××", "4730": " inform", "4731": "By", "4732": " ×¨×××ª×", "4733": " ×× ×", "4734": " beauty", "4735": "agnan", "4736": " ×××¢", "4737": " pati", "4738": " ×¢××", "4739": " proble", "4740": "××", "4741": " floor", "4742": " utter", "4743": "ient", "4744": "bur", "4745": "'re", "4746": " nar", "4747": "bel", "4748": "phe", "4749": " simple", "4750": " happiness", "4751": " hang", "4752": " exclaimed", "4753": " pursu", "4754": " ty", "4755": " ×××©×¨", "4756": "zz", "4757": "law", "4758": " ××××ª×¨", "4759": "××¨××", "4760": " ××¡×¤", "4761": " agree", "4762": " ××¤×¡", "4763": "ierre", "4764": " class", "4765": " firm", "4766": " enter", "4767": " offer", "4768": "×××", "4769": "hilosop", "4770": "×××¨", "4771": " cou", "4772": " ×××£", "4773": "×§××", "4774": "place", "4775": " doctor", "4776": " ×¨×¢×", "4777": " seven", "4778": " fixed", "4779": " conduct", "4780": "uy", "4781": " tast", "4782": "ories", "4783": "reet", "4784": " Quixote", "4785": " Nicholas", "4786": "×©××¢", "4787": " ×××¨×", "4788": "ancing", "4789": "Ã­", "4790": "×¤×××", "4791": " Prince", "4792": "ieve", "4793": " ×©×××ª×", "4794": " fortune", "4795": " × ×©××¨", "4796": " ×××", "4797": "kind", "4798": " servants", "4799": " fancy", "4800": "××¨", "4801": "heart", "4802": "Where", "4803": " ×¦×¨××××", "4804": " period", "4805": " ××¡×", "4806": " ×××× ×", "4807": " England", "4808": " ××¢×¨×", "4809": " ××¨××©", "4810": " ×§×××", "4811": " stat", "4812": "× ×× ×", "4813": "gment", "4814": "×¤×§××", "4815": " blue", "4816": " ××××", "4817": " sorry", "4818": "ashion", "4819": "Ö¼\"", "4820": "ES", "4821": " ×× ", "4822": "good", "4823": " â", "4824": "af", "4825": "ration", "4826": "back", "4827": " ×××ª× ×", "4828": " horses", "4829": "fact", "4830": " laughed", "4831": " placed", "4832": "××¤×", "4833": "×××¨×", "4834": " occur", "4835": " ××ª", "4836": " ori", "4837": " especially", "4838": "× ×¡×", "4839": " ××¢", "4840": " looks", "4841": " ×××", "4842": "××", "4843": " ××¦×× ×", "4844": "ior", "4845": " surprise", "4846": " following", "4847": " ×××¨×ª×", "4848": " ××××", "4849": "ented", "4850": " fal", "4851": "×××", "4852": "×¢××", "4853": " paid", "4854": "ox", "4855": "××××", "4856": "leep", "4857": " ××©×¤", "4858": "gress", "4859": " calm", "4860": "Art", "4861": " depend", "4862": "\n\n  ", "4863": "××ª××", "4864": " thick", "4865": " feelings", "4866": " Union", "4867": " cloud", "4868": " ×¡×", "4869": "great", "4870": "ify", "4871": "××©××", "4872": " quickly", "4873": "×××", "4874": "× ××", "4875": " silver", "4876": "××¨×", "4877": " Holmes", "4878": " cru", "4879": "ishment", "4880": " reply", "4881": " ××××", "4882": " langu", "4883": "bing", "4884": " influ", "4885": "××¡×", "4886": "itable", "4887": " ×××", "4888": " Pl", "4889": "rodu", "4890": "urity", "4891": "×,", "4892": " maj", "4893": " ××¢××§×¨", "4894": " ×××¢×ª×", "4895": " Col", "4896": "bre", "4897": " ×¢××¨×", "4898": "×©×××ª", "4899": " ×¤×¢", "4900": "××", "4901": "cer", "4902": " ××¢×©", "4903": "erve", "4904": "enance", "4905": " merely", "4906": " below", "4907": " Har", "4908": "idently", "4909": " shalt", "4910": " ××¦××× ××ª", "4911": " /", "4912": " conce", "4913": " gall", "4914": "××", "4915": " ×××¤", "4916": " closed", "4917": "×©×××", "4918": " ×©×× ×", "4919": " serious", "4920": " ×××××", "4921": " kill", "4922": "never", "4923": "ouses", "4924": " ×¢××¨×", "4925": " ×¨×××ª", "4926": " ××××¨", "4927": " ××××", "4928": "aves", "4929": "× ×¤", "4930": " fit", "4931": " ×¤×ª×", "4932": "'ve", "4933": " agre", "4934": "alled", "4935": " ×××¡", "4936": "×××¨", "4937": " ××¤", "4938": "add", "4939": " ×©×× ××", "4940": "port", "4941": "ellow", "4942": " ×××¦", "4943": " ×§××", "4944": " river", "4945": "Al", "4946": " apart", "4947": " judge", "4948": " ××××××", "4949": " lif", "4950": " easily", "4951": " ×§×¤", "4952": " grew", "4953": "××¦××ª", "4954": " neck", "4955": " ×¨×¦×", "4956": "teen", "4957": "osp", "4958": " express", "4959": "chief", "4960": " pal", "4961": " Here", "4962": "××¦××¨×", "4963": " social", "4964": "ividual", "4965": " By", "4966": " ×××§××", "4967": "rov", "4968": "××¨×", "4969": "× ×¡×ª", "4970": " considered", "4971": " ××× ", "4972": " ×××¡×ª××¨×", "4973": "cent", "4974": " understood", "4975": " terrible", "4976": "×¨××", "4977": " ×××", "4978": " outside", "4979": " van", "4980": " ×××¨", "4981": " Ed", "4982": "thur", "4983": " ×¢×¡×§", "4984": "×ª××ª", "4985": " perfectly", "4986": " ××××", "4987": " ×××××", "4988": " Jud", "4989": " pleased", "4990": " countries", "4991": " journey", "4992": " example", "4993": " greatest", "4994": " ×©××", "4995": " situation", "4996": " boat", "4997": " ×××", "4998": " ××§××", "4999": " Sancho", "5000": " ×¢××", "5001": " coll", "5002": " beside", "5003": " George", "5004": " ×¡××", "5005": "×©×ª×", "5006": "looking", "5007": " ××", "5008": "pers", "5009": "××", "5010": " vain", "5011": "dered", "5012": " spite", "5013": " ××××××", "5014": " ×××", "5015": "without", "5016": " tender", "5017": " middle", "5018": " lives", "5019": "×¢×ª×", "5020": " pleasant", "5021": "××¡", "5022": "pered", "5023": " marriage", "5024": " experience", "5025": " thank", "5026": "××¦×××ª", "5027": " ×©××©", "5028": " rid", "5029": "sy", "5030": " ×××¢", "5031": " enemy", "5032": "did", "5033": " Emily", "5034": " ×××¤×××", "5035": " ××¢×××", "5036": " ball", "5037": " spoken", "5038": " susp", "5039": "×× ××¨×¡", "5040": "××", "5041": " sorrow", "5042": "cies", "5043": " places", "5044": "××ª×", "5045": " ×××¨", "5046": "××ª× ×", "5047": "Ö¹:", "5048": " ××©×", "5049": "×©××", "5050": " started", "5051": "terday", "5052": "ikov", "5053": " ××©×", "5054": " although", "5055": " eager", "5056": "rect", "5057": " 7", "5058": " pun", "5059": " bank", "5060": " sla", "5061": " bell", "5062": " Comm", "5063": " lean", "5064": "ulty", "5065": "known", "5066": " ×©×××ª", "5067": " pocket", "5068": " piece", "5069": "ivers", "5070": "×××", "5071": "nat", "5072": " opportunity", "5073": " ×§×", "5074": " ×¢×§", "5075": "itiz", "5076": "father", "5077": "Ö¼:", "5078": "might", "5079": "gar", "5080": " foreign", "5081": "say", "5082": "×¡××¨", "5083": "×ª× ", "5084": "××¤××ª", "5085": "cap", "5086": " extreme", "5087": " passion", "5088": "?!", "5089": " advantage", "5090": " ×××¤", "5091": " ××¢×", "5092": " philosop", "5093": " key", "5094": "×××××", "5095": " stock", "5096": " notice", "5097": "lected", "5098": " OF", "5099": " ××¤×", "5100": "eper", "5101": " origin", "5102": "Artagnan", "5103": " After", "5104": "×©×¤", "5105": "liver", "5106": " super", "5107": " fly", "5108": " wide", "5109": "After", "5110": " exactly", "5111": " vol", "5112": " ×××", "5113": "car", "5114": " frequ", "5115": " assist", "5116": "××¨×©", "5117": "××¨×", "5118": " ××××", "5119": "icate", "5120": " dom", "5121": " equal", "5122": " vict", "5123": " ××", "5124": "×××", "5125": " ×××××", "5126": " ×××××", "5127": "×¨××", "5128": "×××", "5129": " spot", "5130": " ×××", "5131": " bread", "5132": "ees", "5133": " rapid", "5134": "×¦××", "5135": " ××©×", "5136": " contrary", "5137": " food", "5138": "Ã¨", "5139": "liament", "5140": "×××¨×", "5141": "acle", "5142": " × ×", "5143": "××¦×¢", "5144": " pap", "5145": " ××", "5146": "wood", "5147": " freedom", "5148": " affection", "5149": "osity", "5150": " labour", "5151": "×× ×", "5152": "Miss", "5153": " ××©×¢×", "5154": " creature", "5155": "××ª×", "5156": "×©×", "5157": "××", "5158": " running", "5159": " ourselves", "5160": " Lev", "5161": " today", "5162": " leaving", "5163": " ××××", "5164": " ××", "5165": " ×××©", "5166": " ××××", "5167": " ×××¢×", "5168": " ×××× ×", "5169": "think", "5170": " id", "5171": " ones", "5172": "Ö¶×", "5173": "×©×", "5174": "shall", "5175": "××××", "5176": "×××", "5177": " educ", "5178": " ×¢×××", "5179": " ×××××", "5180": " ×¢×××××", "5181": " ×××¡", "5182": " civ", "5183": " mess", "5184": "UR", "5185": "overnment", "5186": " fru", "5187": " Anne", "5188": "hard", "5189": " stone", "5190": " sky", "5191": " broad", "5192": " ears", "5193": " ×××", "5194": " ×××", "5195": " ×××××××ª", "5196": " ××¦×", "5197": "ability", "5198": " conscious", "5199": " seek", "5200": " ×¨××©×", "5201": " loud", "5202": "××", "5203": " aston", "5204": " ××¢×××", "5205": " ××¢×ª×", "5206": " ×××", "5207": " path", "5208": " ××××¨", "5209": " dare", "5210": " × ××¦", "5211": "work", "5212": " ×××", "5213": "such", "5214": "nothing", "5215": " ×××¨", "5216": " eld", "5217": " ×¢××", "5218": " custom", "5219": " news", "5220": " scene", "5221": " bird", "5222": "\";", "5223": " broke", "5224": "itive", "5225": "por", "5226": "bec", "5227": " shook", "5228": "ointed", "5229": " cheer", "5230": "fortun", "5231": " Nor", "5232": "iring", "5233": " × ×©×ª", "5234": " Captain", "5235": "× ××", "5236": " entirely", "5237": " arrived", "5238": "ching", "5239": " scarcely", "5240": " spirits", "5241": " emb", "5242": " stranger", "5243": "hens", "5244": " ×××ª", "5245": " ××××", "5246": " ××¨×¦", "5247": "Ch", "5248": " ××¢×××", "5249": "much", "5250": " music", "5251": " ××¢××", "5252": "××©××", "5253": " proud", "5254": " ×××", "5255": " letters", "5256": " ××©×¨", "5257": "Come", "5258": "××§××ª", "5259": " ×××¡×£", "5260": "×××", "5261": " obliged", "5262": " ××××", "5263": "××", "5264": "bey", "5265": " ×××", "5266": "×× ×", "5267": "ieur", "5268": " gate", "5269": " oper", "5270": " aware", "5271": " ××©××", "5272": "noon", "5273": " ××©× ××", "5274": " du", "5275": " questions", "5276": " goes", "5277": "ordinary", "5278": " ×ª××", "5279": "×¡×ª××¨××ª", "5280": " pat", "5281": "uses", "5282": "×§××¨", "5283": " ××× ×", "5284": " decla", "5285": " changed", "5286": " office", "5287": " individual", "5288": " These", "5289": " ××××¨", "5290": "\n ", "5291": " ××©×××", "5292": " ×××¨××", "5293": " iron", "5294": "chant", "5295": " represent", "5296": " ×××ª×", "5297": " ××©×", "5298": "×× ×", "5299": " wise", "5300": "oid", "5301": " talked", "5302": "×××¨", "5303": " ××©×", "5304": "×××", "5305": " ×××¢", "5306": " ××¨", "5307": " ××¦××× ××ª", "5308": "onsieur", "5309": " ××¢×©", "5310": "cceed", "5311": " particularly", "5312": " ×××¨×××××", "5313": " persons", "5314": " ways", "5315": "×××ª", "5316": "inite", "5317": "gi", "5318": " ×××©", "5319": " ×××¨", "5320": " intend", "5321": " ××©× ×ª", "5322": "iam", "5323": "anted", "5324": "××§××ª", "5325": "Girl", "5326": " ××××", "5327": " ××¢×¦", "5328": " Mon", "5329": " bas", "5330": " ××ª×××", "5331": " knowing", "5332": " angry", "5333": " Russ", "5334": " Where", "5335": " ××××¨", "5336": "××¨×", "5337": " pity", "5338": " ××ª××ª", "5339": "Ö¼×", "5340": " × ×¤×©×", "5341": " ris", "5342": " ××", "5343": "ux", "5344": " ×××", "5345": "××¦××ª", "5346": "osite", "5347": "×©××", "5348": " sons", "5349": " ××¦×¨", "5350": " Sc", "5351": "× ××¨", "5352": "ades", "5353": " ××ª×", "5354": " ××××", "5355": "××©", "5356": "××¢×¨", "5357": " ××", "5358": " direction", "5359": " threw", "5360": " speech", "5361": " ××§×", "5362": "inal", "5363": " ××××ª×", "5364": "××©××ª", "5365": " hall", "5366": "mark", "5367": " ×§×", "5368": " ×©×", "5369": "×××", "5370": " burst", "5371": " supposed", "5372": "erable", "5373": " believed", "5374": "××©××", "5375": " ××××¨×", "5376": " ××××", "5377": "oes", "5378": "mar", "5379": " ×××¨××", "5380": "emed", "5381": "urally", "5382": " Ivan", "5383": " filled", "5384": " empt", "5385": " appl", "5386": " separ", "5387": "Ö¶Ö¼×", "5388": "pper", "5389": " clothes", "5390": " ××©×", "5391": " seat", "5392": " 8", "5393": "cape", "5394": " ×××", "5395": " lying", "5396": "×× ×", "5397": " ×¢×¨×", "5398": "×× ×", "5399": "ka", "5400": " ×××", "5401": " produce", "5402": "igned", "5403": "imate", "5404": " ×××", "5405": "culiar", "5406": " ×××", "5407": "×¨××", "5408": " market", "5409": " ×××ª", "5410": " ×××××", "5411": " ×××××××", "5412": " rise", "5413": " ××¢× ××", "5414": "×¨××", "5415": " ××¢×", "5416": "ator", "5417": " ××", "5418": " ××¢×× ××", "5419": " nobody", "5420": " boys", "5421": " ××××", "5422": " beha", "5423": " various", "5424": "onel", "5425": " ××¨××©×", "5426": " walking", "5427": "××§×", "5428": " ×¢×××", "5429": "tis", "5430": " ××××", "5431": "×× × ×", "5432": " lower", "5433": "×¦×¢", "5434": " ×××¨×", "5435": " shore", "5436": "ience", "5437": " respons", "5438": " connect", "5439": " learned", "5440": " promise", "5441": " Ly", "5442": " faint", "5443": "××××ª", "5444": "× ×", "5445": " nations", "5446": "×××¨", "5447": " discuss", "5448": "×××¨", "5449": " ××ª×¨", "5450": " ×××¢", "5451": " tab", "5452": "oon", "5453": " ××¦××§", "5454": "othe", "5455": " fle", "5456": " Dav", "5457": " ×××", "5458": " ××¢×××", "5459": "×× ×××", "5460": "×××ª×", "5461": "From", "5462": " honest", "5463": " × ××", "5464": "hapter", "5465": " Every", "5466": "irth", "5467": "eav", "5468": "××××", "5469": "zen", "5470": "××¤××", "5471": " clean", "5472": "eral", "5473": "hum", "5474": "ended", "5475": " ×©××× ×", "5476": "××¢×", "5477": " loc", "5478": " fro", "5479": "× ×¨", "5480": " memory", "5481": "eneral", "5482": " ×ª×", "5483": " fond", "5484": " ××¤×¨", "5485": "uge", "5486": "Wh", "5487": " ×¡××¤", "5488": "×¡×ª××", "5489": "×¡××", "5490": " indust", "5491": " fail", "5492": "â¦\"", "5493": " maid", "5494": " ××§×××©", "5495": " doesn", "5496": " passing", "5497": " tro", "5498": " meaning", "5499": "play", "5500": " ×××ª", "5501": "tering", "5502": " tong", "5503": " furn", "5504": " ××¡×¤×¨××ª", "5505": " process", "5506": " ×××©", "5507": "×××", "5508": " phys", "5509": " sli", "5510": " higher", "5511": " capital", "5512": "××××", "5513": " mel", "5514": "asant", "5515": "×¤××", "5516": " tree", "5517": "ulation", "5518": "×××", "5519": " prec", "5520": " ××××", "5521": "illa", "5522": "asy", "5523": " ×××§×©", "5524": " ××¡×¤×¨", "5525": "××× ××ª", "5526": "oved", "5527": "Guy", "5528": " ××××", "5529": " tea", "5530": " gen", "5531": "ails", "5532": "×¦×¨××", "5533": " ××©×", "5534": " ××¢×", "5535": "×××", "5536": " strugg", "5537": "×××", "5538": "sue", "5539": " marry", "5540": " ×× ×©", "5541": " i", "5542": " determined", "5543": "××§×©", "5544": " ××¢××", "5545": " ××©×¨", "5546": " ××§××", "5547": "gain", "5548": " ×¢×× ×", "5549": "××¤×ª", "5550": " reven", "5551": " Father", "5552": " girls", "5553": " working", "5554": " pop", "5555": " becom", "5556": " ×××", "5557": " ×××", "5558": "vey", "5559": "â", "5560": " temper", "5561": "×××××§", "5562": " mater", "5563": "made", "5564": "friend", "5565": " ××ª× ×", "5566": "anny", "5567": " policy", "5568": "appeared", "5569": " ×× ×ª", "5570": " covered", "5571": " besides", "5572": " Af", "5573": " mort", "5574": " bill", "5575": " ×××ª×", "5576": " ×©××", "5577": " Can", "5578": " ××¤×¨", "5579": "×××¨×¥", "5580": " smo", "5581": " citiz", "5582": " ×××", "5583": "pet", "5584": " absolute", "5585": " ××¤×", "5586": " gro", "5587": " books", "5588": " ××¡××", "5589": " blind", "5590": " Bar", "5591": "gel", "5592": "idge", "5593": " ××¦××", "5594": "×× × ×", "5595": " nation", "5596": " ××©××ª", "5597": " redu", "5598": "gate", "5599": " smiled", "5600": " ××¢×¨", "5601": " surprised", "5602": " earnest", "5603": "eping", "5604": "×¤××¡", "5605": "ergy", "5606": "×××", "5607": " attack", "5608": " ××¢×¨×××", "5609": " reach", "5610": " hid", "5611": " ×××©××", "5612": " ×§×¨×", "5613": " receive", "5614": " habit", "5615": "TH", "5616": " rate", "5617": " interrupt", "5618": " army", "5619": "×¦××", "5620": " mass", "5621": " ×××××", "5622": " ×××", "5623": " ×¦×¨×××", "5624": " contro", "5625": " drawn", "5626": "×××", "5627": "iant", "5628": "ingu", "5629": "rey", "5630": " lose", "5631": "LL", "5632": "Good", "5633": "These", "5634": " ×©××¦", "5635": "×¨×××", "5636": " ×××××××ª", "5637": " ××§×", "5638": " cover", "5639": " ×× × ×", "5640": " suffer", "5641": " ××××¢", "5642": " ×××", "5643": " ××¤× ××", "5644": "oted", "5645": " arg", "5646": " ××××¡×", "5647": "×× ×", "5648": "iah", "5649": " Pierre", "5650": "asons", "5651": "×¤××", "5652": " ×× ×¢×¨", "5653": "elve", "5654": " ×××× ", "5655": "key", "5656": " destroy", "5657": "×××", "5658": " ×¤× ××", "5659": " ×××¦×", "5660": " invol", "5661": " bless", "5662": " ×¨××××", "5663": " ×××", "5664": "×ª×£", "5665": "fa", "5666": " ×× ×¡", "5667": " ×××", "5668": " liked", "5669": "gged", "5670": " ×××©", "5671": " spread", "5672": " ××©×§", "5673": " ××¨×", "5674": "×× ×¡×ª", "5675": " ××××¤×", "5676": " ×××¨", "5677": "uted", "5678": " sharp", "5679": " ××××ª", "5680": "Ö¸Ö¼×", "5681": " ×¨××©", "5682": " born", "5683": " ×× ×¡", "5684": "×ª××", "5685": "take", "5686": "aly", "5687": " rul", "5688": "×××¨", "5689": " noble", "5690": " ×××", "5691": " ×§××", "5692": " breast", "5693": " village", "5694": " study", "5695": " parts", "5696": " nice", "5697": " ×××¨", "5698": " meeting", "5699": " confidence", "5700": " noise", "5701": " miles", "5702": " ×¡×××", "5703": " Or", "5704": " ×××", "5705": "× × ×", "5706": " remembered", "5707": " ××¢×¦×", "5708": " altogether", "5709": " ×××", "5710": "×¢××", "5711": "something", "5712": " bitter", "5713": " cred", "5714": "×¤×", "5715": "ulous", "5716": " nose", "5717": " pra", "5718": "may", "5719": " captain", "5720": " ××©× ××", "5721": " Hen", "5722": " allowed", "5723": " ××¢×", "5724": " ×××", "5725": "× ××¡", "5726": " prepared", "5727": " trave", "5728": " ×©× ×××", "5729": "cr", "5730": "ague", "5731": " battle", "5732": "×¤××", "5733": " lot", "5734": " Arthur", "5735": " ×××¤××", "5736": "×©×ª×", "5737": " Law", "5738": " rain", "5739": " false", "5740": "expect", "5741": "×××", "5742": " putting", "5743": "ruction", "5744": "××¢×©", "5745": "×××¢", "5746": " motion", "5747": " env", "5748": " breakfast", "5749": " ×©××©", "5750": " bow", "5751": "aked", "5752": " murm", "5753": " spring", "5754": " ××¨×", "5755": "ium", "5756": " legs", "5757": " ×××", "5758": " darkness", "5759": "×××", "5760": " ×¤×©××", "5761": " ×¨×¦××", "5762": " Fl", "5763": "thos", "5764": "sk", "5765": "??", "5766": " decided", "5767": "××¢××ª", "5768": "×¢××", "5769": "\n  ", "5770": " State", "5771": "certain", "5772": " succeed", "5773": "turn", "5774": "gs", "5775": "ding", "5776": " anxious", "5777": " lord", "5778": "×××", "5779": " Cong", "5780": "×××¨××", "5781": " ×××©", "5782": " degree", "5783": " terms", "5784": " ××× ×", "5785": " Who", "5786": " innoc", "5787": " ×©××××", "5788": " ×××× ×", "5789": "IS", "5790": " ×××¦××", "5791": " generally", "5792": " ×××××", "5793": "itated", "5794": "**", "5795": " suspic", "5796": " thin", "5797": " cab", "5798": "ops", "5799": " companion", "5800": " ××§×× ×", "5801": " somewhat", "5802": " ×××¡", "5803": " ×××", "5804": " ××××", "5805": "acher", "5806": " Sm", "5807": " ×××", "5808": "dist", "5809": " fallen", "5810": " faces", "5811": "×§××", "5812": " ×××¢×", "5813": " ××× × ×", "5814": "××××", "5815": "×××", "5816": " 9", "5817": " picture", "5818": " comb", "5819": " Coun", "5820": " mot", "5821": "hall", "5822": " laughing", "5823": " yesterday", "5824": " Ger", "5825": " level", "5826": " ××××", "5827": " ××ª×", "5828": " ×××©", "5829": "××¨×¢", "5830": "ception", "5831": " loss", "5832": " ×××××ª", "5833": " countenance", "5834": " passage", "5835": " shoulder", "5836": " rising", "5837": "×× ×××", "5838": " beat", "5839": " introdu", "5840": " waited", "5841": " share", "5842": " special", "5843": "×××", "5844": " difficulty", "5845": "× ×¡××", "5846": " ××¢××", "5847": "ext", "5848": " ×××§", "5849": "):", "5850": " solemn", "5851": "worth", "5852": "×××", "5853": "××¨×", "5854": " ×××", "5855": " ×ª×", "5856": " listened", "5857": " appre", "5858": "×¤×©×", "5859": " ×©××¨", "5860": "vation", "5861": " threat", "5862": "enced", "5863": " ×××", "5864": "Ex", "5865": " wrote", "5866": "××¨×£", "5867": " influence", "5868": "nding", "5869": "\"!", "5870": "asp", "5871": " press", "5872": "eds", "5873": " reading", "5874": "Very", "5875": " Yes", "5876": " ×¢××§×¨", "5877": "itution", "5878": " tall", "5879": "gra", "5880": " moon", "5881": " fault", "5882": "×××", "5883": " ××××¢", "5884": " ×¦×××", "5885": "××", "5886": " ××××ª", "5887": " shame", "5888": "quest", "5889": "××", "5890": " mentioned", "5891": " glance", "5892": " pride", "5893": "××××", "5894": "×××", "5895": " ×× ××", "5896": " ×××¨", "5897": " ××××", "5898": " test", "5899": " ×××", "5900": "oned", "5901": " ××¨×××©", "5902": " relig", "5903": " ×××¤××", "5904": " ×©××", "5905": "sed", "5906": " witness", "5907": " Craw", "5908": "××¦××", "5909": " ×××¤", "5910": "××", "5911": " windows", "5912": "××××ª", "5913": " ××", "5914": " Ab", "5915": " courage", "5916": " ××××", "5917": "being", "5918": " ×××¨", "5919": "××× ××", "5920": "chen", "5921": " escape", "5922": " ×ª×", "5923": " reve", "5924": " collect", "5925": "must", "5926": " dropped", "5927": " ××× ×", "5928": " ××¦×", "5929": "×××", "5930": " happen", "5931": "×××ª", "5932": " cell", "5933": " bal", "5934": "erved", "5935": " ×××¡", "5936": " Ma", "5937": " stir", "5938": "×××××ª", "5939": " coat", "5940": " smiling", "5941": " ××", "5942": " ×××¦×", "5943": "hale", "5944": "occ", "5945": " matters", "5946": " stick", "5947": " fan", "5948": "×¢×××", "5949": " behold", "5950": "aintance", "5951": " apparent", "5952": "××¢×ª", "5953": "×× ××¡", "5954": " terror", "5955": " holding", "5956": " grace", "5957": "count", "5958": " peculiar", "5959": " Jim", "5960": " une", "5961": " vent", "5962": "first", "5963": "××××¥", "5964": " hero", "5965": "urd", "5966": " wand", "5967": " Jes", "5968": " ×©××", "5969": " wicked", "5970": " walls", "5971": " devil", "5972": " ×¢×××", "5973": " ×××¤×", "5974": " ban", "5975": " Parliament", "5976": " evidently", "5977": " search", "5978": " ×××§", "5979": "icated", "5980": "wr", "5981": " XX", "5982": "ounced", "5983": "     ", "5984": "tended", "5985": " ××¨××¢", "5986": "×××××", "5987": " fra", "5988": "×¨×¦×", "5989": " ×©×", "5990": " ×××¦", "5991": "×××", "5992": " sword", "5993": "×××", "5994": " ××××ª×", "5995": " ××", "5996": "Ö¼!", "5997": " relations", "5998": " ××¡×¨", "5999": "uly", "6000": " gloom", "6001": " Some", "6002": " ×××××", "6003": " persu", "6004": " ××¢××", "6005": " Mont", "6006": " ××××", "6007": " ××¨×", "6008": "ford", "6009": "Ö¾Ö¾Ö¾Ö¾", "6010": " offered", "6011": " ph", "6012": " neighbour", "6013": " directly", "6014": "××××", "6015": "lly", "6016": "×¤×ª×", "6017": "×××ª", "6018": " aid", "6019": " ××§×¨××", "6020": " ×××¡", "6021": " bare", "6022": " ×× ×¨××", "6023": " ××××¢", "6024": "×××", "6025": " × ×¢×¨", "6026": " anyone", "6027": " ×××", "6028": " ×××¤×", "6029": " afternoon", "6030": " pure", "6031": "×¢×¨××", "6032": " civil", "6033": " events", "6034": " ×××", "6035": "×××", "6036": " rock", "6037": "aby", "6038": "×××£", "6039": "ashed", "6040": "hest", "6041": "happy", "6042": " shadow", "6043": "×××ª", "6044": " ×××", "6045": "through", "6046": " stro", "6047": "××¨×§", "6048": " due", "6049": " ring", "6050": " wel", "6051": " imagine", "6052": " opposite", "6053": " ××××¨×× ×", "6054": " national", "6055": "×¨×¨", "6056": "gers", "6057": " ×××××", "6058": " quant", "6059": "ushing", "6060": "III", "6061": " descend", "6062": "Her", "6063": "yer", "6064": "aul", "6065": "iration", "6066": " ××××ª", "6067": "standing", "6068": "××©×", "6069": " ×××", "6070": " difference", "6071": " propos", "6072": "ethod", "6073": " ××ª×¢", "6074": " island", "6075": " × ××ª×", "6076": " ×××", "6077": " increase", "6078": " everybody", "6079": " ××", "6080": " mult", "6081": " ××¢×¨×", "6082": " Dr", "6083": " ×©××", "6084": " ignor", "6085": " endeav", "6086": " ××¦×", "6087": " × ×¤×ª", "6088": " dust", "6089": " ×××", "6090": "_.", "6091": "antic", "6092": " ××©×§", "6093": "esh", "6094": "ral", "6095": " ×××××ª", "6096": " CHAPTER", "6097": " ××ª×", "6098": " meas", "6099": " Mic", "6100": "ocr", "6101": " ×××", "6102": " pos", "6103": " weight", "6104": " ×ª×ª", "6105": " houses", "6106": " ×××¦×", "6107": "inst", "6108": " taste", "6109": " forgotten", "6110": " United", "6111": "×¢××", "6112": "ading", "6113": "rees", "6114": " otherwise", "6115": " ××ª×", "6116": "×××", "6117": "×¤××", "6118": " writing", "6119": " ××××¦××", "6120": "××¢", "6121": "× ×", "6122": " ××××¨×", "6123": "round", "6124": " ××¢××¨××", "6125": "ips", "6126": " heads", "6127": " × ××ª", "6128": "net", "6129": " ×××©××", "6130": "agement", "6131": " ×××¦×", "6132": " dam", "6133": "uments", "6134": " fund", "6135": " ××××", "6136": "put", "6137": " board", "6138": "××§×", "6139": "××¦×¢××", "6140": " progress", "6141": " bottom", "6142": " affairs", "6143": " spent", "6144": "×©×××", "6145": " fashion", "6146": " handsome", "6147": "illy", "6148": ".--", "6149": "arest", "6150": "×××¨×", "6151": "×¤×¢×", "6152": "liz", "6153": "××××ª", "6154": " summer", "6155": "××ª×", "6156": " song", "6157": "God", "6158": " distur", "6159": " ×××¤", "6160": " ××××", "6161": "rec", "6162": " isn", "6163": " tot", "6164": "×××", "6165": " ×¡×¤×¨××", "6166": " recollect", "6167": " ××××¨", "6168": " ×××§", "6169": " concer", "6170": " Yet", "6171": " ×¦××", "6172": "×¦××¢", "6173": "esides", "6174": "×¨×¦× ×", "6175": " beast", "6176": " settled", "6177": "comp", "6178": " job", "6179": "child", "6180": "two", "6181": " engaged", "6182": " ××©××", "6183": " ××¢×", "6184": " saith", "6185": " ×××©×", "6186": " ××× ×", "6187": "×¨×××", "6188": " ××××¨", "6189": " ×¢×©×¨××", "6190": " unless", "6191": " empty", "6192": " ××¡××¦×××", "6193": " ××ª×¨", "6194": " ×××ª×", "6195": "!)", "6196": " information", "6197": " excellent", "6198": " ××©×××", "6199": " ×××××", "6200": "×¡×¤×¨×", "6201": " grat", "6202": " exec", "6203": " ××××", "6204": "×¤×", "6205": " killed", "6206": " ×©××", "6207": " ×××××", "6208": "××ª×", "6209": "sing", "6210": " ...", "6211": " material", "6212": "Â­â", "6213": " listen", "6214": " ×××××", "6215": " ××§××", "6216": "Ö·×", "6217": "×××", "6218": " space", "6219": " From", "6220": " bold", "6221": "reen", "6222": "×××©", "6223": " fifty", "6224": "××¦××", "6225": " thine", "6226": "×§×", "6227": " ×¢× ×", "6228": "×©× ×", "6229": "ses", "6230": " Paris", "6231": "ardon", "6232": " ×××¨", "6233": " snow", "6234": "××", "6235": "exp", "6236": " ×××", "6237": "case", "6238": " ordinary", "6239": " Ye", "6240": " disapp", "6241": " ××××ª×", "6242": " ×¢××", "6243": " parent", "6244": "hon", "6245": " Alexand", "6246": " anybody", "6247": " ×××¨×", "6248": "×××", "6249": " symp", "6250": " ×¢×¦×", "6251": " × ×××", "6252": " ×××", "6253": " dry", "6254": "× ××§", "6255": " Gree", "6256": "×××", "6257": " camp", "6258": "mother", "6259": "ecause", "6260": " personal", "6261": " ××¤×§", "6262": " ×××", "6263": "×¢×××", "6264": " opening", "6265": " hearing", "6266": " ××§×", "6267": " Ex", "6268": " virtue", "6269": " ××××××", "6270": "××¢×©×", "6271": "××¨×", "6272": "ois", "6273": "fit", "6274": " ××××", "6275": "×¤×ª×××ª", "6276": " shoulders", "6277": " rob", "6278": " ess", "6279": " address", "6280": " hes", "6281": "××¡××ª", "6282": "wo", "6283": " inquired", "6284": "×××", "6285": " political", "6286": "ieces", "6287": " ×©× ××ª", "6288": " Congress", "6289": " ×¨×××", "6290": " hill", "6291": " property", "6292": " ××¢×ª×", "6293": " ××××", "6294": " lod", "6295": " priest", "6296": " Jer", "6297": " ×××§", "6298": " charge", "6299": " spect", "6300": " ×× ×", "6301": "ousin", "6302": "theless", "6303": "××¨×ª", "6304": " judgment", "6305": " ×××××", "6306": " serve", "6307": " extraordinary", "6308": " importance", "6309": "conf", "6310": "×××ª", "6311": " Heaven", "6312": "×××", "6313": " amount", "6314": "hor", "6315": "away", "6316": " ××©×××¢", "6317": "these", "6318": " tim", "6319": " improve", "6320": "Per", "6321": " ××××××", "6322": " ××¢××", "6323": " Jane", "6324": " telling", "6325": "aker", "6326": "hus", "6327": " Council", "6328": "because", "6329": " quarter", "6330": " require", "6331": " ×× ×××", "6332": "×××× ×", "6333": "×¢×©×¨×", "6334": " development", "6335": " explain", "6336": " laws", "6337": " ××ª×§", "6338": " sacri", "6339": " ×¢×××", "6340": " la", "6341": "llen", "6342": "eal", "6343": " ×©× ××ª", "6344": "×××¡", "6345": " ×©×ª×", "6346": " authority", "6347": "ivered", "6348": "umb", "6349": "ainted", "6350": " grass", "6351": "××××", "6352": " pit", "6353": " twelve", "6354": "×××", "6355": "×¢××", "6356": "perior", "6357": " subst", "6358": "××××", "6359": " emp", "6360": "ilar", "6361": " ×§××¨", "6362": "lend", "6363": "isc", "6364": " ×××", "6365": " Government", "6366": "ââ", "6367": "×¡××", "6368": "×××¨", "6369": " ××§×", "6370": " impati", "6371": " fier", "6372": " ××× ", "6373": " Levin", "6374": " ××× ", "6375": " alive", "6376": " ××©××××", "6377": " ××××¨", "6378": " fla", "6379": " catch", "6380": "Your", "6381": " hurt", "6382": "××¡×§", "6383": " ×××", "6384": " rejo", "6385": "stone", "6386": " ××ª×", "6387": " ××§×¨×§×¢", "6388": " neg", "6389": "×§×", "6390": " fingers", "6391": " existence", "6392": " Adam", "6393": " measure", "6394": "××¤", "6395": " worthy", "6396": "lov", "6397": " ×××", "6398": " yours", "6399": "××¨××ª", "6400": " hurried", "6401": "door", "6402": " tongue", "6403": "××¨×ª", "6404": " suit", "6405": " ××", "6406": " bent", "6407": "inc", "6408": "sat", "6409": "mind", "6410": " ×§×¨××", "6411": " Ver", "6412": " asleep", "6413": " quietly", "6414": " discovered", "6415": " ×××", "6416": "× ××¢", "6417": "inced", "6418": " ×××ª× ×", "6419": "iny", "6420": "ensive", "6421": "using", "6422": "iffe", "6423": " gun", "6424": " continue", "6425": "alph", "6426": "×××××", "6427": "×¤×¥", "6428": "wind", "6429": "×××××", "6430": "udden", "6431": "ork", "6432": " ×××", "6433": " language", "6434": " beneath", "6435": " ×©××ª", "6436": "×××××ª", "6437": " wear", "6438": " ×××", "6439": "ovitch", "6440": "olly", "6441": "nce", "6442": "bon", "6443": " liberty", "6444": " clearly", "6445": "×¦××× ××ª", "6446": "cked", "6447": " ×××§", "6448": " ×××§×©", "6449": " ××××", "6450": " ××××©", "6451": "××¨××ª", "6452": "ait", "6453": " fruit", "6454": " afford", "6455": " begun", "6456": "××¡×", "6457": "hant", "6458": "AL", "6459": " ××××× ×", "6460": " exerc", "6461": " House", "6462": "×©××", "6463": " hate", "6464": "lict", "6465": "del", "6466": " ××¨××©×××", "6467": " watched", "6468": " naturally", "6469": " ×××¨", "6470": " ×××", "6471": " ×¢××××ª", "6472": " grad", "6473": " Nat", "6474": "××××ª", "6475": " ××©× ×", "6476": " Ser", "6477": "××", "6478": " teeth", "6479": "osha", "6480": " inj", "6481": " Come", "6482": "AT", "6483": " finished", "6484": " ××¤× ×× ×", "6485": "××××¡", "6486": " sail", "6487": " ×©××¨", "6488": "×××", "6489": " thro", "6490": "× ×©××", "6491": "×××", "6492": "nal", "6493": " intellig", "6494": " imper", "6495": " ××¨×¦×", "6496": " ×××©", "6497": " ancient", "6498": " der", "6499": " touched", "6500": " distinct", "6501": " harm", "6502": " May", "6503": " noticed", "6504": " hy", "6505": "hamed", "6506": " station", "6507": "ett", "6508": " page", "6509": "rate", "6510": "last", "6511": "××××××", "6512": "hal", "6513": " David", "6514": " narrow", "6515": "ification", "6516": " shown", "6517": " dwell", "6518": " cult", "6519": "rant", "6520": " ×××¢", "6521": "ââ", "6522": "×××", "6523": " ×©×¢×ª", "6524": "××ª×", "6525": "vis", "6526": "ovna", "6527": "ann", "6528": "host", "6529": " ×©×××¢", "6530": " ×××", "6531": " ×¦××§", "6532": " decl", "6533": " ×××", "6534": " ×××¨", "6535": " fold", "6536": " distant", "6537": " ××××", "6538": " × ××¦", "6539": "itchen", "6540": " vast", "6541": "rop", "6542": " reck", "6543": " ××", "6544": " × ×××", "6545": "came", "6546": " Ð", "6547": " Co", "6548": " familiar", "6549": " keeping", "6550": " group", "6551": " recomm", "6552": "×××¨", "6553": " ××××", "6554": " ××ª× ××¢×", "6555": " restr", "6556": "××××", "6557": " ×¤×¨×", "6558": " aside", "6559": " ×××©", "6560": "××ª×", "6561": " thrown", "6562": " ×××", "6563": "×××ª", "6564": " ××¨×", "6565": " ××¨×", "6566": "×××ª", "6567": "people", "6568": " wond", "6569": " coach", "6570": " moving", "6571": "×××××", "6572": "iosity", "6573": " ××××¨×× ××", "6574": "racted", "6575": " anger", "6576": " sides", "6577": " ××¦××", "6578": " suspect", "6579": "hether", "6580": " mighty", "6581": " Our", "6582": " ×××¡", "6583": " ×¡××¤×¨", "6584": "ashing", "6585": "× ××", "6586": "×××¨×", "6587": " ideas", "6588": " bran", "6589": " ×××¢×©", "6590": " satisfied", "6591": " Lu", "6592": "××¨×ª", "6593": "esty", "6594": " ×§×¨×", "6595": "× ××", "6596": " ×©××¢", "6597": "rose", "6598": "×¨×", "6599": "ald", "6600": "××¨××", "6601": "!..", "6602": " capt", "6603": " guy", "6604": "××××¨×©", "6605": " project", "6606": " × ×", "6607": " concerning", "6608": "things", "6609": " ×©××¨", "6610": " blow", "6611": "osc", "6612": " sufficient", "6613": " ×××", "6614": "×××ª", "6615": "×××", "6616": "××××", "6617": " ×××¨", "6618": " required", "6619": "××××ª", "6620": "××¦×¨××", "6621": " actually", "6622": "upid", "6623": "still", "6624": " ××¨×", "6625": " caused", "6626": " twice", "6627": "××¨×ª×", "6628": " fate", "6629": " bod", "6630": " ××××", "6631": " drive", "6632": " ××©××", "6633": " ××¢×¦", "6634": " cat", "6635": "×¤×¢", "6636": " curious", "6637": " ×××", "6638": "pret", "6639": "going", "6640": " poet", "6641": " ×¢××", "6642": " ×××", "6643": ",--", "6644": " ×××", "6645": " ×¤×××ª", "6646": " ××××¡", "6647": " tired", "6648": " midst", "6649": " ×¨××¢××", "6650": " ×××¦", "6651": " ×××××¨", "6652": " weeks", "6653": "Ö¼?", "6654": "×× ××ª", "6655": " ×××¢×©×", "6656": "athy", "6657": "another", "6658": "essor", "6659": " ××× ×", "6660": "oices", "6661": "____", "6662": " inquir", "6663": " Thus", "6664": " Good", "6665": "×¨×××ª", "6666": "×××", "6667": "×××", "6668": " hide", "6669": " ××¨×××", "6670": " glory", "6671": "××××¨", "6672": "Ã¡sha", "6673": " gives", "6674": "××××ª", "6675": " ××¢××¨", "6676": " lies", "6677": " addition", "6678": " expressed", "6679": "×××", "6680": " ×××", "6681": " formed", "6682": "orough", "6683": "××¨××", "6684": " despair", "6685": " repro", "6686": " (\"", "6687": " gar", "6688": " lam", "6689": " ×©×¢×¨", "6690": " aut", "6691": " Jesus", "6692": "order", "6693": "×××", "6694": " ×××©", "6695": " dreadful", "6696": "alent", "6697": "×¡×", "6698": " ××××¨×ª", "6699": " ××××ª", "6700": " ×××", "6701": " leaves", "6702": "×¨×ª×", "6703": "nes", "6704": " ×××××", "6705": " invest", "6706": " officer", "6707": " ××××", "6708": " dressed", "6709": " ×××××¨", "6710": "× ××¢×", "6711": " ach", "6712": " Fanny", "6713": " chamber", "6714": "××¤×©", "6715": " shop", "6716": " ×××¨×", "6717": " thirty", "6718": "athered", "6719": " stream", "6720": " ××× × ×", "6721": " ×¢×¦××", "6722": "×××ª", "6723": " ××××", "6724": " dign", "6725": " odd", "6726": "× ×ª×", "6727": " race", "6728": " ×××", "6729": " ×××", "6730": "×§××©", "6731": "××× ×", "6732": " pack", "6733": " claim", "6734": " ×©×¢××ª", "6735": "ufact", "6736": " ×ª×§×", "6737": "ential", "6738": " names", "6739": " ×××", "6740": " ××××", "6741": " yield", "6742": " education", "6743": " speed", "6744": " ×××××", "6745": " ×××", "6746": " needs", "6747": "××××ª", "6748": " Mer", "6749": " ×××", "6750": "book", "6751": " cruel", "6752": " gods", "6753": " inside", "6754": "inking", "6755": "××¨×", "6756": " economic", "6757": " flesh", "6758": " Gu", "6759": "seen", "6760": "asing", "6761": " ××©×", "6762": " ×××©×¨××", "6763": "× ××", "6764": " presently", "6765": " ××¦×", "6766": "habit", "6767": " promised", "6768": " compet", "6769": " ×××¨×", "6770": " ×××", "6771": "×××", "6772": " ×××", "6773": " ××× ×××", "6774": " streets", "6775": " ×ª××", "6776": " fully", "6777": " band", "6778": "×ª×××", "6779": "×¨×××", "6780": " quantity", "6781": " German", "6782": " ××©×", "6783": "×××", "6784": "××ª××", "6785": "××××", "6786": " regular", "6787": "ortion", "6788": "estic", "6789": "××¨××", "6790": " understanding", "6791": " height", "6792": " cott", "6793": "× ×ª×", "6794": "woman", "6795": " ××¢××", "6796": "ieved", "6797": " ×××¨", "6798": "icious", "6799": "!--", "6800": " ××××¨××", "6801": "acity", "6802": "××¢×", "6803": "×××", "6804": "OU", "6805": " ××ª×", "6806": " moments", "6807": "××¢××", "6808": " ××××©××", "6809": " distingu", "6810": " Car", "6811": " ×¨×¦×", "6812": "×××", "6813": " presented", "6814": "fulness", "6815": "atures", "6816": " ××©×", "6817": "×××", "6818": "THE", "6819": " ×××", "6820": " Sh", "6821": " ×××", "6822": " Mat", "6823": "mitted", "6824": "Or", "6825": "expected", "6826": " ×¨××××", "6827": " ×××§", "6828": " ×©×××", "6829": " ×¤××", "6830": " ×©×× ××ª", "6831": "vi", "6832": " ×××", "6833": " unf", "6834": " ×××", "6835": " ×¨××¦××", "6836": " takes", "6837": "looked", "6838": "lyosha", "6839": " ××§×", "6840": " occurred", "6841": "peror", "6842": " forced", "6843": "××××", "6844": " ××¢×", "6845": " papers", "6846": " ××××", "6847": "×××ª", "6848": "××××", "6849": "ean", "6850": " major", "6851": " ×××ª", "6852": "erous", "6853": " ××ª×", "6854": "ourable", "6855": " works", "6856": " ××××", "6857": " growing", "6858": " ×¢×", "6859": " ××ª×", "6860": "ternal", "6861": " ×××¡", "6862": " regret", "6863": " ××××××ª", "6864": "rif", "6865": " considerable", "6866": "arther", "6867": " ×¢×× ××", "6868": "×¤××", "6869": "pon", "6870": "utions", "6871": "itor", "6872": "rust", "6873": " citizens", "6874": " buy", "6875": " ado", "6876": " ××", "6877": " ××", "6878": " mal", "6879": "Thus", "6880": "××××", "6881": " impression", "6882": "××¦×", "6883": " ××¤××¢×", "6884": " ×××", "6885": "××¤×", "6886": "achel", "6887": " shape", "6888": " wealth", "6889": " ×××", "6890": "â", "6891": "aper", "6892": " interv", "6893": " wants", "6894": "loc", "6895": " ×× ×¢×¨×", "6896": " ××××¤", "6897": " ××××", "6898": "water", "6899": " whispered", "6900": " orders", "6901": "supp", "6902": " knees", "6903": " ×¡×", "6904": " card", "6905": "pal", "6906": "jud", "6907": "found", "6908": "ND", "6909": "!â", "6910": " concerned", "6911": "soci", "6912": " method", "6913": "× ×¦", "6914": "ipe", "6915": " rights", "6916": " ××ª×", "6917": " ×©××× ×", "6918": " ×××ª×", "6919": " completely", "6920": " acquaintance", "6921": " finding", "6922": " ××××", "6923": "roo", "6924": "×× ××ª", "6925": " ×ª×¨×¤", "6926": " grown", "6927": " pointed", "6928": "×©×××", "6929": " West", "6930": " ×××¤×©×¨", "6931": " security", "6932": " ××××¢×ª", "6933": " ××©×", "6934": "apt", "6935": " purcha", "6936": "××¡××", "6937": " ××××ª", "6938": " ×©××", "6939": "._", "6940": "ifferent", "6941": " ×©××", "6942": "ickle", "6943": "××××", "6944": "orted", "6945": " sty", "6946": " ××××¨×", "6947": " × ×¤×", "6948": "×¦×", "6949": " holy", "6950": " ××¢××¨", "6951": " Street", "6952": "××¦××ª", "6953": " ×××©", "6954": "sur", "6955": " affair", "6956": "××¦×", "6957": " worst", "6958": " fet", "6959": " exchan", "6960": " Church", "6961": "astic", "6962": " ××××©", "6963": "life", "6964": " drove", "6965": "×××¨", "6966": " wasn", "6967": " nine", "6968": "Some", "6969": " Christian", "6970": " ×× ×", "6971": "×××¨×¥", "6972": " lines", "6973": "×³", "6974": "LI", "6975": " consequence", "6976": " ×©×××¨", "6977": " ××××¥", "6978": " ×××", "6979": "resp", "6980": "step", "6981": "fall", "6982": " movement", "6983": " cases", "6984": "too", "6985": "×××", "6986": "hank", "6987": "××××", "6988": "×××", "6989": "Öµ×", "6990": "×¢×", "6991": " employed", "6992": " produced", "6993": " instr", "6994": "×××ª×", "6995": " pot", "6996": "held", "6997": " ××××", "6998": " maintain", "6999": " military", "7000": " forest", "7001": "ground", "7002": " farm", "7003": "××©×", "7004": " ×××", "7005": " couple", "7006": " ×¡×¤×¨×", "7007": " France", "7008": " ×××ª", "7009": " establ", "7010": " points", "7011": " ×××¨×", "7012": "ivity", "7013": " prove", "7014": "×¡××ª", "7015": " ben", "7016": " increased", "7017": " ×××××", "7018": " ×¢××©××", "7019": "××", "7020": " honor", "7021": "ailed", "7022": "××××", "7023": "iti", "7024": " ×§×× ××", "7025": " amaz", "7026": "×××ª", "7027": " Brit", "7028": "××©×¢", "7029": "×× ×", "7030": "×§×©×", "7031": " ××¨××¢", "7032": " ××¨×", "7033": "umm", "7034": " asking", "7035": "attered", "7036": " cool", "7037": " proof", "7038": " ××××¨", "7039": " grief", "7040": " watching", "7041": " ×××ª", "7042": " manufact", "7043": " ×××¨", "7044": " ×ª×§××", "7045": " smoke", "7046": "hib", "7047": " Andrew", "7048": " ××¨××©", "7049": " × ×©××", "7050": " game", "7051": "isl", "7052": " birth", "7053": "pes", "7054": " revol", "7055": " grey", "7056": "ounce", "7057": " ×©××ª", "7058": "Will", "7059": " remind", "7060": " perform", "7061": " ××©××ª", "7062": " mag", "7063": " hopes", "7064": " Jew", "7065": " doors", "7066": "××ª×", "7067": " ×©×××", "7068": " ×¦×¢×¨", "7069": " ×©× ×", "7070": "×××", "7071": "iest", "7072": " carefully", "7073": "bid", "7074": "××ª×××", "7075": " aim", "7076": "Ã³v", "7077": " resolved", "7078": " ×¢×©×¨×", "7079": " ×¨××©××", "7080": " throw", "7081": " ×ª×××£", "7082": " ×ª×××", "7083": " Ralph", "7084": " reasons", "7085": " × ××", "7086": " â¦", "7087": " pair", "7088": " aud", "7089": "×××", "7090": "Are", "7091": " usually", "7092": " ××××", "7093": "××©×××ª", "7094": " ×ª××¨", "7095": " ××©×", "7096": " ××¨×××", "7097": "oni", "7098": " ×××¨", "7099": " Even", "7100": " sigh", "7101": " necessity", "7102": " Fran", "7103": " jump", "7104": " ×××", "7105": "iments", "7106": " ×©××", "7107": " artic", "7108": "××¡×", "7109": " ×××××", "7110": " mistress", "7111": "ension", "7112": " goods", "7113": " ×××¦×", "7114": " luck", "7115": " pounds", "7116": " pet", "7117": "Em", "7118": " drop", "7119": " ves", "7120": " Cather", "7121": "verse", "7122": "××¢×××", "7123": " obey", "7124": "feel", "7125": " Peter", "7126": " members", "7127": " police", "7128": "istic", "7129": " lifted", "7130": " worked", "7131": " ×××× ×", "7132": " ashamed", "7133": " design", "7134": " ××¤×", "7135": " ××¤××××", "7136": " wonderful", "7137": " kitchen", "7138": " ××¨××", "7139": " accident", "7140": " ×××", "7141": " suggest", "7142": " appears", "7143": "aces", "7144": "××¨×", "7145": "zy", "7146": " accompl", "7147": " resolution", "7148": " evidence", "7149": "×××¨", "7150": " ×× ×©××", "7151": " shot", "7152": " ××¨×", "7153": " ×××", "7154": "hab", "7155": " ××©×ª", "7156": "××¢×", "7157": " crime", "7158": "×××¢", "7159": "×ª×", "7160": "went", "7161": " Thou", "7162": " splend", "7163": "×¨××¢", "7164": " ×××", "7165": " advent", "7166": "oscow", "7167": " colour", "7168": " Joe", "7169": " wid", "7170": " sour", "7171": "bus", "7172": " Ros", "7173": " avoid", "7174": " modern", "7175": "×¢×¦××", "7176": " assure", "7177": " needed", "7178": "inte", "7179": "RE", "7180": "Our", "7181": " organ", "7182": " yellow", "7183": " ×× ×", "7184": " calling", "7185": "×¨×××", "7186": "rig", "7187": " ×§×©", "7188": " ××¢×", "7189": " surely", "7190": " rub", "7191": " ×××", "7192": " ×¨××©××ª", "7193": "      ", "7194": " star", "7195": " ×××ª×", "7196": " superior", "7197": " ×××ª", "7198": " pulled", "7199": " ××¨×××§", "7200": " profession", "7201": "ceiving", "7202": "iqu", "7203": " ××ª×", "7204": " ×××§", "7205": " tend", "7206": "Have", "7207": "court", "7208": "×××", "7209": "××¢×", "7210": " satisfaction", "7211": " nearer", "7212": "ulated", "7213": " ×××××", "7214": " withd", "7215": " 0", "7216": "××××", "7217": " ×××¡×¨", "7218": "××§××", "7219": " ×××", "7220": " ××××", "7221": "bell", "7222": " ×××©××ª", "7223": " ×××××", "7224": " mir", "7225": " ble", "7226": "× ×ª×", "7227": " confess", "7228": "sub", "7229": " content", "7230": "××§×", "7231": " gain", "7232": " elder", "7233": " ××××¨", "7234": " Mart", "7235": "omen", "7236": " ×¢×× ××", "7237": " fol", "7238": "×¢× ×", "7239": "present", "7240": " welcome", "7241": " reflect", "7242": " belief", "7243": " flowers", "7244": "aced", "7245": "ables", "7246": " doll", "7247": " equally", "7248": " coff", "7249": "suff", "7250": " ××¨××¨", "7251": " vig", "7252": " seated", "7253": " finally", "7254": " sav", "7255": " ×××¨", "7256": "×¡×", "7257": "aries", "7258": "Never", "7259": " million", "7260": "×× ×××", "7261": " wore", "7262": " ×××¤×", "7263": "arked", "7264": "those", "7265": " ant", "7266": " heat", "7267": "××× ", "7268": "heard", "7269": "rons", "7270": "low", "7271": "LE", "7272": " vessel", "7273": "illefort", "7274": "××©×", "7275": " ×××¦×", "7276": " pieces", "7277": "××¨×", "7278": "make", "7279": "Que", "7280": " dull", "7281": " current", "7282": "ulf", "7283": " ××©×", "7284": "AC", "7285": " ×××", "7286": "bury", "7287": " wisdom", "7288": " suffering", "7289": "lessly", "7290": " greatly", "7291": " Just", "7292": " ×¦×¤", "7293": " Sund", "7294": " ××", "7295": "××ª", "7296": "incess", "7297": " advanced", "7298": " ×××©××ª", "7299": " exceed", "7300": " deb", "7301": " ××", "7302": " ease", "7303": " ××¨××", "7304": "××¦××", "7305": "×¤×¨×", "7306": "×× ×¡", "7307": " ×¤× ×", "7308": "either", "7309": " establish", "7310": " × ×¤×©×", "7311": "rang", "7312": " univers", "7313": " weather", "7314": "××ª×", "7315": " frightened", "7316": " waters", "7317": " principle", "7318": "board", "7319": " approach", "7320": " ×©××¢×ª×", "7321": "×××", "7322": " ××©××", "7323": "Did", "7324": " paused", "7325": "urely", "7326": "××¢××ª", "7327": "orous", "7328": " sought", "7329": "ially", "7330": "gentle", "7331": " problem", "7332": " advice", "7333": " ×©×¨×", "7334": "ouis", "7335": "acles", "7336": "××¡××¨", "7337": " winter", "7338": "izing", "7339": " contempt", "7340": "uding", "7341": "Ö·Ö¼×", "7342": "×× ××ª", "7343": " ain", "7344": " tum", "7345": " ×××¨××", "7346": "itz", "7347": "××¤× ×", "7348": " $", "7349": " served", "7350": "××§×", "7351": "××××¨", "7352": "cript", "7353": " expense", "7354": "×¨××", "7355": " ××ª×", "7356": " ×××", "7357": " ××¢×¨××", "7358": "×××", "7359": " ××× ×", "7360": "×¢××¨", "7361": "×©×××", "7362": " lar", "7363": "against", "7364": " possession", "7365": " raise", "7366": "××¦×¨", "7367": "××¤××", "7368": " ×××¤×××", "7369": "ato", "7370": " cousin", "7371": " cook", "7372": "coat", "7373": " ××©×××", "7374": " discover", "7375": " ×××", "7376": "××¡×", "7377": " ordered", "7378": " ×××", "7379": " roof", "7380": " ××¨×", "7381": " ××××", "7382": " ×××", "7383": "×¢×§", "7384": "ealous", "7385": " moral", "7386": " dogs", "7387": "××××ª", "7388": "lection", "7389": "lement", "7390": "××¥", "7391": "ancholy", "7392": " ×××ª", "7393": " ××××", "7394": " voices", "7395": " stairs", "7396": "××¨×", "7397": " ×××¤", "7398": " White", "7399": " curiosity", "7400": " ××©×¨", "7401": " join", "7402": " entertain", "7403": " ×××ª×", "7404": " ××× ××ª", "7405": "×××", "7406": " forty", "7407": " hither", "7408": " finger", "7409": " ×××××", "7410": " proposed", "7411": " Phil", "7412": " ×§×¦×¨", "7413": "×××××", "7414": " magn", "7415": "borne", "7416": " abroad", "7417": "empl", "7418": " Ben", "7419": "×××", "7420": " ×××¨××ª", "7421": "×××", "7422": "× ×××", "7423": " ××××", "7424": "×©×××", "7425": "Ö´Ö¼×", "7426": " ×××", "7427": " ×××", "7428": "×¦××¢", "7429": "××××", "7430": "×××", "7431": "××£", "7432": " Henry", "7433": " crim", "7434": " knight", "7435": " × ××", "7436": " soldiers", "7437": " trembling", "7438": " murder", "7439": " suffered", "7440": "itty", "7441": " issue", "7442": "RO", "7443": " rule", "7444": "××¢××", "7445": " ×××", "7446": " unable", "7447": "uddenly", "7448": " ×××©××¨×¨", "7449": " arrange", "7450": " ×× ×", "7451": " ××××ª", "7452": " ×××©×××", "7453": "×××¨", "7454": " ×××¨××©×××", "7455": " ×××", "7456": " image", "7457": " myster", "7458": " ××¡×", "7459": " ×¢××", "7460": " mour", "7461": " ×××¡××£", "7462": " observe", "7463": " disg", "7464": "ING", "7465": " ×©×××", "7466": " ××¨×", "7467": " ×××", "7468": "×××", "7469": "arth", "7470": " Ham", "7471": " por", "7472": "××× ×¡×ª", "7473": "ization", "7474": " ××××", "7475": " ×ª××", "7476": " × ×¨", "7477": " pick", "7478": "Ö¸.", "7479": " ×××¢×ª", "7480": "moment", "7481": "××¡×¨", "7482": " ×ª××¨×ª", "7483": " nur", "7484": " ××¨×", "7485": "×××××¨", "7486": " intention", "7487": "××¨×©", "7488": "lare", "7489": "unch", "7490": " ××××", "7491": " ×¨××¡××", "7492": " × ××", "7493": " bull", "7494": "tell", "7495": " â â", "7496": "×××ª", "7497": " ××××", "7498": "×× ××", "7499": " × ×¦×", "7500": "asc", "7501": " proportion", "7502": " × ×ª× ×", "7503": "always", "7504": " ×¨×", "7505": " imagination", "7506": " instance", "7507": " ××¨××¤×", "7508": "osom", "7509": "aming", "7510": "Ö°.", "7511": "mb", "7512": " seized", "7513": " ×× ", "7514": " kindness", "7515": " conscience", "7516": " lear", "7517": " ×× ×", "7518": " ××××¦×¢", "7519": "×¢××¨", "7520": "Un", "7521": " ceased", "7522": " ××ª××××", "7523": " rooms", "7524": " rare", "7525": " ×××××ª", "7526": " ×××", "7527": " pause", "7528": "iable", "7529": "rows", "7530": " truly", "7531": " quality", "7532": "ilities", "7533": "table", "7534": " miserable", "7535": " Eliz", "7536": " ×××", "7537": " excl", "7538": "cknow", "7539": "yn", "7540": "aign", "7541": " frequently", "7542": " ×××××", "7543": " ××××", "7544": " ho", "7545": "××××", "7546": "×©× ××", "7547": "××", "7548": " ×××ª", "7549": "×××ª", "7550": " ×¡××¨", "7551": " myst", "7552": "amond", "7553": " ×××", "7554": "×× ×¡×§×", "7555": " ×××", "7556": "×××", "7557": " ×××××", "7558": " ××××¢×", "7559": "uls", "7560": "×× ×", "7561": " gathered", "7562": " ××§×¨", "7563": " ×××", "7564": " ××¨××©", "7565": " )", "7566": " surface", "7567": "×××", "7568": " Frank", "7569": " ×××", "7570": " ×××", "7571": "othea", "7572": " building", "7573": " ××××", "7574": " willing", "7575": "iron", "7576": "××××", "7577": "isions", "7578": "mist", "7579": " local", "7580": " spec", "7581": " ××ª×§", "7582": "umn", "7583": " debt", "7584": " ×¢××¨", "7585": " ×××", "7586": "×××", "7587": " ××××¨×", "7588": " frame", "7589": " ××× ×", "7590": "×©×××", "7591": " coo", "7592": "×¢×¨×", "7593": "××¤", "7594": " ×××", "7595": " credit", "7596": "young", "7597": "comfort", "7598": "plic", "7599": " unknown", "7600": " ×××", "7601": " ×¤×", "7602": " fill", "7603": " ××××ª×¨", "7604": " brief", "7605": "appear", "7606": " ××§××ª", "7607": " acknow", "7608": "eyes", "7609": " ×¡×ª×", "7610": " hunt", "7611": " farther", "7612": " ××××", "7613": " ×××¦", "7614": "cur", "7615": " dangerous", "7616": " explan", "7617": "×¢×ª×", "7618": "alley", "7619": "× ××", "7620": " ××©××", "7621": "vention", "7622": "ode", "7623": "×¢×¨×", "7624": "overy", "7625": "col", "7626": " agreed", "7627": " shouted", "7628": " ×××©", "7629": "×××", "7630": "×¨××", "7631": " ×××××", "7632": " rough", "7633": " Moses", "7634": " ×××¡×ª", "7635": " ××××", "7636": " century", "7637": " interesting", "7638": " energy", "7639": " ×××ª", "7640": " proved", "7641": " ××§×", "7642": " et", "7643": "IC", "7644": " ××× ×× ×", "7645": " contribut", "7646": " stern", "7647": " ×××", "7648": " ××§×× ××", "7649": " ××××", "7650": " similar", "7651": " ×××©×¤", "7652": "×¦×¨×¤×ª", "7653": " Jack", "7654": " Great", "7655": " ×××", "7656": "eer", "7657": " correct", "7658": " double", "7659": " brown", "7660": "××§×××¨", "7661": "××××××", "7662": " pill", "7663": "erk", "7664": "××× ×ª", "7665": " ××××", "7666": "××××", "7667": "Mad", "7668": " emotion", "7669": "oln", "7670": "×¨××", "7671": " rend", "7672": "××", "7673": " ×××××", "7674": "boy", "7675": "Every", "7676": " horror", "7677": " independ", "7678": " choose", "7679": "Ö»×", "7680": " ×××", "7681": " ×××¨", "7682": " Cristo", "7683": " listening", "7684": " ×××¨××ª", "7685": "quis", "7686": "irit", "7687": "×¢××", "7688": "interest", "7689": " ××××", "7690": "×××¨", "7691": " ×¨××§", "7692": "seemed", "7693": "××× ", "7694": "Can", "7695": " possess", "7696": " elect", "7697": " ×××", "7698": " hoped", "7699": " ××××©××", "7700": " Fred", "7701": "×××", "7702": " Lyd", "7703": "gypt", "7704": " busy", "7705": "â", "7706": "××", "7707": "bes", "7708": " falling", "7709": "necess", "7710": "×××××", "7711": " ×××ª", "7712": "atory", "7713": "×××¨", "7714": "×××", "7715": " tempt", "7716": ");", "7717": " mercy", "7718": " offering", "7719": " ××××", "7720": " ××¢××", "7721": " ×××", "7722": " whisper", "7723": " Ro", "7724": " ××¨×¦", "7725": " meat", "7726": "sper", "7727": " played", "7728": " ××¨×××", "7729": " amongst", "7730": "abeth", "7731": "Sir", "7732": "\":", "7733": " delay", "7734": " actions", "7735": " ××¢×©×", "7736": " ×©××××", "7737": " ×©××¤×©×¨", "7738": " hint", "7739": " ×¤×", "7740": " lock", "7741": " industry", "7742": " ×× ××××", "7743": " saved", "7744": "××¨×¢××ª", "7745": " ×¨××©×× ×", "7746": " ××××", "7747": " bud", "7748": "×¢× ", "7749": "Ind", "7750": " guess", "7751": " ××¤×¢×", "7752": " ×××¡×ª××¨××ª", "7753": " ××¤× ×××", "7754": " ××¢××", "7755": " declared", "7756": "kerchief", "7757": " ×¡×", "7758": " stupid", "7759": " depth", "7760": "×¨××", "7761": "××¨×¨××", "7762": "××¤", "7763": "ators", "7764": "× ×××", "7765": " ×××¨×", "7766": " ×××", "7767": " issu", "7768": " ×××¥", "7769": " thorough", "7770": " dying", "7771": "While", "7772": " innocent", "7773": " interrupted", "7774": "course", "7775": " profit", "7776": " excited", "7777": " ×××", "7778": " lover", "7779": " ×××¨×", "7780": "ED", "7781": " refer", "7782": " supper", "7783": " ×× ×¤×©", "7784": " smell", "7785": "onsense", "7786": " everyone", "7787": " ××××", "7788": "perhaps", "7789": " failed", "7790": " ×××", "7791": " ××§×¨××ª", "7792": " Charles", "7793": "ennam", "7794": " ×¡×¤×¨×", "7795": " ×××©", "7796": " Fair", "7797": "××ª×", "7798": "×××¨", "7799": "Ã¨s", "7800": " relief", "7801": " text", "7802": "unning", "7803": "××××ª", "7804": "×××", "7805": "×××", "7806": " ××××", "7807": " adopt", "7808": " ××©××", "7809": " assu", "7810": " ××¨×××©", "7811": " rad", "7812": " ×¨××", "7813": " lest", "7814": " mistake", "7815": " ××©××", "7816": "iation", "7817": " interests", "7818": " excuse", "7819": " ××§×¨", "7820": " ××¦××", "7821": "××××¢", "7822": "×× ××§", "7823": "kin", "7824": " proceeded", "7825": " fields", "7826": " ×¢×××¨", "7827": " ×××©×§", "7828": " spake", "7829": " Sy", "7830": "enth", "7831": " consideration", "7832": " ××¦××× ×", "7833": " ××©××", "7834": " ×××", "7835": " ××¡×¤×¨××", "7836": " crit", "7837": " possibly", "7838": " contain", "7839": " ××××××", "7840": " ××××××", "7841": "×¦××", "7842": "ââââ", "7843": " absence", "7844": " ×¢××××ª", "7845": " ×××××ª", "7846": " qual", "7847": "oles", "7848": " ××¨××", "7849": " ×××¡", "7850": "pher", "7851": "mal", "7852": " occupied", "7853": "×××××××", "7854": " Such", "7855": " aspect", "7856": " cities", "7857": " ××××", "7858": " absolutely", "7859": "ology", "7860": " landl", "7861": "×¨××©", "7862": "× ××ª×", "7863": "ems", "7864": "×××¨×¡", "7865": " ×§××¨×××", "7866": "×¦×", "7867": " ××¤×ª", "7868": "×¢×¡", "7869": "× ××¡", "7870": "Pr", "7871": "ederal", "7872": "ickleby", "7873": " extremely", "7874": " castle", "7875": " remarked", "7876": " ××××¥", "7877": " ××§×©×", "7878": "××¡×ª", "7879": "eless", "7880": "rether", "7881": "×©×××", "7882": " ×©××¢××", "7883": " sooner", "7884": "×¡×¤×¨××", "7885": " perceived", "7886": " ×××××", "7887": " ××¦×××¨", "7888": "×××", "7889": " ×©××ª×", "7890": "master", "7891": " Â­â", "7892": " awful", "7893": " hearts", "7894": " Moscow", "7895": " cop", "7896": "Ö¹×", "7897": "reason", "7898": "××©×", "7899": "word", "7900": "uzz", "7901": "ien", "7902": "Nor", "7903": " candle", "7904": " edge", "7905": " escap", "7906": "×©×××", "7907": " ×××××", "7908": "aches", "7909": "×××", "7910": " whale", "7911": "ugg", "7912": " efforts", "7913": " extent", "7914": " ×¡×¤×¨××ª", "7915": " ×××©", "7916": " Colonel", "7917": " Mil", "7918": " ××××", "7919": " ××××××ª", "7920": "Ö·.", "7921": " Monte", "7922": " brave", "7923": "forth", "7924": " ×¦××", "7925": " ×©××ª", "7926": "iture", "7927": " ××××××§", "7928": " taught", "7929": "five", "7930": " employment", "7931": "alem", "7932": " ××¦××", "7933": " ××××", "7934": " Go", "7935": " ××¢××", "7936": "×¢×", "7937": "bted", "7938": " highest", "7939": " Isab", "7940": " indign", "7941": " ×¢××", "7942": "××××", "7943": " ××¨××¡××", "7944": " Little", "7945": " Member", "7946": " Dorrit", "7947": " product", "7948": " obst", "7949": "×¢×ª××", "7950": " doth", "7951": "orious", "7952": " bore", "7953": "×××ª", "7954": " ×ª× ××¢×ª", "7955": " advance", "7956": " ×××©", "7957": " unfortun", "7958": " ×××", "7959": "vol", "7960": " bottle", "7961": "aunt", "7962": "Just", "7963": ".'", "7964": " convinced", "7965": " ××©× ××", "7966": "××¡×", "7967": "elia", "7968": " saf", "7969": "×× ×", "7970": " lack", "7971": " ×××ª", "7972": "ere", "7973": " ×¨×¢×××", "7974": " ××××§×¨", "7975": " ×××¡×£", "7976": " ××××", "7977": " ×§×¨×", "7978": " pardon", "7979": " ×××ª××", "7980": " ×××¡××", "7981": " carrying", "7982": " ×××××ª", "7983": "--\"", "7984": " ××¨×©", "7985": " ×××", "7986": " ×©××ª", "7987": " bag", "7988": "ault", "7989": " ***", "7990": " ×¦×¨×¤×ª", "7991": " obv", "7992": " ××× ×", "7993": " style", "7994": "rovitch", "7995": " ×××¨", "7996": " control", "7997": "××¨×× ××", "7998": " deser", "7999": "×××ª", "8000": " thereof", "8001": " sand", "8002": "iance", "8003": " animal", "8004": " Emma", "8005": " ×××", "8006": " ××©× ×", "8007": " ×××¨", "8008": " wretched", "8009": "××¨××©", "8010": "×××ª×", "8011": "ustomed", "8012": " ×××× ×", "8013": " remains", "8014": " ×××§××", "8015": " ×××", "8016": "oused", "8017": " ×××¡", "8018": "×××¨×", "8019": " Laur", "8020": "retch", "8021": " flight", "8022": " removed", "8023": " Rome", "8024": " rushed", "8025": " Buck", "8026": " ×××", "8027": "iddle", "8028": " ×××", "8029": " Sunday", "8030": " legisl", "8031": " ××¨×", "8032": " ××××¨", "8033": "××¡××", "8034": "××¢×§×", "8035": " Sec", "8036": "××¨××", "8037": " choice", "8038": " ××©××", "8039": " shaking", "8040": "ldom", "8041": " ×©××", "8042": " anxiety", "8043": " interested", "8044": " ended", "8045": " ×××", "8046": " brow", "8047": " features", "8048": " Monsieur", "8049": "asions", "8050": " cow", "8051": " ×××", "8052": " kingdom", "8053": " ×¢××¨×", "8054": " ××§××¨", "8055": " fem", "8056": "×××¢", "8057": " foolish", "8058": " ××¦×¢××¨××", "8059": " Your", "8060": "myself", "8061": " ×××¨", "8062": "inate", "8063": "×× ××", "8064": "riet", "8065": "×××©", "8066": "wing", "8067": " ××¨××©××ª", "8068": " admin", "8069": " relation", "8070": " ××××", "8071": "×××", "8072": "lying", "8073": " task", "8074": "cond", "8075": " ×××××", "8076": " Anna", "8077": " compass", "8078": " ×××", "8079": " ××¡××¤×¨", "8080": " associ", "8081": "Mar", "8082": " ×××¨×××ª", "8083": " clever", "8084": "ateful", "8085": "inder", "8086": " Alyosha", "8087": "aling", "8088": " powers", "8089": " ×©×¡", "8090": "Ãº", "8091": " ××¢××ª", "8092": " ××××", "8093": " Rep", "8094": "three", "8095": " ×¢××ª×", "8096": " rent", "8097": "otty", "8098": "×¢×©×¨", "8099": "took", "8100": " ×××ª×", "8101": "itement", "8102": " ton", "8103": "AS", "8104": "ostÃ³v", "8105": "×××", "8106": " ×××§", "8107": "×××××", "8108": " crying", "8109": " ×©××", "8110": " ××©×¨", "8111": " ×××¦××¨×", "8112": " assistance", "8113": "coming", "8114": "ranged", "8115": " Did", "8116": " ××", "8117": " forgive", "8118": "cast", "8119": " built", "8120": " compre", "8121": " ×××¢×", "8122": " prospect", "8123": " ××¢××", "8124": "×¦×¨×", "8125": "lars", "8126": "VI", "8127": "Go", "8128": " request", "8129": " ××××××ª", "8130": " ×× ×", "8131": " ××ª×¨×××ª", "8132": "×××ª", "8133": "×××¨×", "8134": " Brown", "8135": " golden", "8136": "alt", "8137": " ××××ª×", "8138": "ertainly", "8139": " Ag", "8140": " ××©×", "8141": "×××¨", "8142": "ipp", "8143": " parents", "8144": "ollow", "8145": " ××¡××¤×¨××", "8146": " ××ª×", "8147": " unhappy", "8148": " ××× ×", "8149": " × ×¢×", "8150": " drunk", "8151": " stead", "8152": " forehead", "8153": " ××××", "8154": "urance", "8155": "××¨××©", "8156": " haven", "8157": "×××", "8158": "××× ×", "8159": "××××", "8160": " enemies", "8161": " ××¦××", "8162": " ×××", "8163": "ulate", "8164": " gently", "8165": " gather", "8166": " mach", "8167": "××", "8168": "××××ª", "8169": " stage", "8170": "× ×××", "8171": "×× ××", "8172": "half", "8173": " ×××", "8174": " ××©××ª", "8175": " ×¦×¢×", "8176": " bosom", "8177": " [â", "8178": " ××§×× ××¨×¡", "8179": "×××", "8180": " bid", "8181": " woods", "8182": " swift", "8183": "×××", "8184": "×¨× ×", "8185": " Russian", "8186": " ×××", "8187": "umber", "8188": "osen", "8189": " ×××", "8190": " ×××", "8191": "<|endoftext|>"}, "merges": [[" ", "×"], ["×", ""], ["×", ""], ["×", "×"], [" ", "t"], ["×", "×"], ["×", ""], ["h", "e"], ["×", ""], ["×", "¨"], [" ", "a"], [" ×", ""], ["×", "ª"], ["×", ""], ["i", "n"], ["×", ""], ["Ö", "¼"], ["×", ""], [" t", "he"], ["×", "©"], [" ", "s"], [" ", "w"], ["r", "e"], [" ×", ""], ["×", " "], [" ", "o"], ["×", "¢"], ["â", ""], ["n", "d"], [" ×", ""], ["×", ""], [" ×", ""], [" ×", ""], ["h", "a"], ["×", ""], ["e", "r"], ["××", ""], ["o", "u"], [" ×", ""], ["Ö", "¹"], ["i", "t"], ["×", ""], [" ", "b"], ["i", "s"], [" ", "m"], [" ×", "©"], ["e", "d"], ["o", "n"], ["×", ""], ["e", "n"], ["×", "¤"], [" ", "f"], [" ", "c"], ["×", "§"], [" o", "f"], [" a", "nd"], [" t", "o"], ["in", "g"], ["o", "r"], ["Ö", "¸"], ["××", "ª"], [" ×", "¢"], ["e", "s"], ["Ö", "·"], ["l", "l"], ["Ö", "°"], [" ", "d"], [" ×", ""], [" ", "p"], [" ", "in"], ["a", "n"], ["a", "r"], [" ", "h"], ["a", "s"], ["a", "t"], ["×", "¦"], [" ", " "], [" ", "he"], ["Ö", "´"], ["×", ""], [" ", "l"], ["×", "¡"], [" ×", ""], [" ", "n"], ["o", "m"], [" ", "ha"], ["ha", "t"], [" ", "I"], ["×", ""], ["l", "e"], ["×", ""], [" b", "e"], ["××", ""], ["o", "t"], ["×", ""], ["i", "c"], [" ", "g"], [" ", "â"], ["o", "w"], ["v", "e"], ["u", "t"], ["s", "t"], ["s", "e"], ["i", "m"], [" ×", " "], [" ", "e"], ["××", "ª"], ["i", "d"], ["l", "y"], [" t", "h"], ["l", "d"], [" ", "y"], ["en", "t"], [" t", "hat"], ["i", "on"], ["××", "¨"], ["Ö", "¶"], ["â", ""], ["××", ""], ["××", " "], [" ×", "×ª"], ["×", "×"], ["g", "h"], [" ", "it"], [" ×", "¨"], ["c", "e"], [" ", "re"], ["×", ""], [" w", "as"], ["a", "l"], ["Ö", "µ"], [" o", "n"], ["× ", "×"], ["v", "er"], [" y", "ou"], [" ", "u"], ["e", "t"], ["it", "h"], [" ×©", "×"], ["×", "×¨"], [" ×", ""], ["a", "y"], ["â", ""], ["i", "r"], ["××", ""], ["u", "r"], [" w", "h"], [" f", "or"], [" h", "is"], ["××", "¨"], [" ×¢", "×"], [" a", "s"], [" w", "ith"], ["××", ""], [" ×", "×"], ["a", "d"], ["r", "o"], [" ×", ""], [" â", ""], [" ×", "×"], [" ×", "ª"], ["Ö", "¾"], ["he", "r"], ["××", ""], ["× ", "×"], ["gh", "t"], [" ×", "¤"], [" n", "ot"], ["××", " "], [" w", "e"], [" ", "is"], [" ×", ""], [" s", "t"], ["×", ""], ["××", ""], ["c", "t"], ["××", ""], ["r", "i"], ["c", "h"], ["×©", "×¨"], [" a", "n"], ["××", ""], [" he", "r"], ["a", "m"], [" ×", "×"], [" ha", "d"], ["ou", "ld"], [" ×", "§"], ["o", "o"], ["××", ""], ["×", "×"], [" ×", "×"], [" ", "T"], [" ", "M"], ["×", "×"], ["××", "©"], ["â", ""], [" ×", ""], [" a", "t"], ["i", "ll"], ["  ", "  "], [" m", "e"], ["t", "er"], ["k", "e"], [" ×", "×"], [" ", "\""], ["i", "f"], [" ", "A"], ["××", ""], [" h", "im"], ["a", "nd"], ["a", "in"], [" s", "a"], ["×¨", "×"], [" s", "e"], [" ×", "×"], ["××", ""], ["Ö¸", "Ö¼"], ["o", "re"], ["es", "s"], ["×", "×"], ["× ", "×"], [" m", "y"], ["t", "h"], ["×", "×"], [" ", "S"], [" ×", "×¢"], ["r", "a"], ["p", "e"], ["ic", "h"], [" s", "u"], [" s", "o"], [" ha", "ve"], ["×¨", "×"], [" ×", "×"], ["i", "l"], ["re", "d"], ["××", ""], ["××", ""], ["a", "ll"], [" d", "e"], ["om", "e"], ["\n", "    "], [" a", "ll"], [" s", "he"], ["××", "©"], ["Ö°", "Ö¼"], ["×", "×"], [" ×", "×"], ["r", "om"], [" ", "H"], ["×ª", "×"], ["q", "u"], ["×¢", "×"], ["g", "e"], [" b", "y"], ["t", "o"], [" ", "k"], [" c", "on"], ["at", "ion"], ["u", "l"], ["×", ""], [" sa", "id"], [" wh", "ich"], ["c", "k"], ["i", "ght"], [" b", "ut"], ["×ª", "×"], ["×¨", "×"], ["â", "¦"], ["he", "n"], ["××", ""], ["×", "×"], ["re", "s"], ["Ö´", "Ö¼"], ["×¤", "×¨"], ["u", "s"], [" ×", "¡"], [" ×", "×©"], [" ×", "¦"], [" u", "p"], [" th", "is"], ["××", "¢"], [" n", "e"], ["b", "le"], ["×", "¥"], ["×©", "×"], [" â", ""], ["\n    ", " "], ["××", "§"], ["es", "t"], ["p", "p"], [" d", "o"], ["t", "he"], ["Ö", "²"], [" ", "C"], ["an", "t"], ["×", "×¨"], [" ", "B"], [" ×", "××"], ["×", "£"], [" o", "r"], [" s", "h"], [".", "â"], ["u", "st"], [" ×", "×"], [" f", "rom"], ["××", ""], ["Ö·", "Ö¼"], [" ×", "×"], ["l", "f"], [" ×", "×"], [" e", "x"], ["ou", "r"], ["e", "m"], [" ", "r"], ["ver", "y"], ["×× ", "×"], ["ou", "s"], ["o", "s"], ["ar", "d"], [" the", "y"], ["n", "t"], [" ", "v"], [" ×", "×"], ["â", ""], [" T", "he"], [" m", "an"], ["×", "×"], ["in", "d"], ["ar", "t"], [" ×", "×"], ["×", "×"], ["ou", "t"], [" ×", "××"], [" a", "re"], ["er", "s"], ["××", "¢"], [" ", "W"], ["e", "l"], [" wh", "o"], [" ×", "×"], ["× ", "××"], [" ×", "×ª"], [" ×©", "×"], ["×", "×"], [" l", "i"], ["××", "¡"], [" a", "l"], ["at", "e"], [" n", "o"], [" we", "re"], [" ×", "×©×¨"], [" the", "m"], ["×", "×ª"], [" ", "P"], ["on", "g"], ["o", "l"], [" ×", "×"], ["oo", "d"], ["am", "e"], [" ×", "×¨"], ["××", "¤"], ["is", "t"], ["as", "t"], ["××", ""], [" k", "n"], [" on", "e"], ["×", "×"], [" ×", "×"], ["×", "××"], ["×", "×¨"], ["e", "ll"], [" ×", "×"], ["ha", "n"], ["×", "××ª"], [" ×", "×"], ["××", "§"], ["u", "m"], ["u", "n"], ["×", "×©"], ["a", "k"], ["on", "e"], [" c", "om"], ["××", "¡"], ["×¨", "××"], [" ×", "× "], ["i", "e"], ["se", "lf"], ["or", "t"], [",", "â"], [" the", "re"], [" ×", "×§"], [" w", "or"], ["T", "he"], ["××", ""], ["×ª", "×"], ["ou", "nd"], [" w", "ould"], [" ×", "×¢"], ["i", "ve"], ["it", "y"], ["××", "¦"], ["i", "g"], ["oo", "k"], ["×", "×¢"], ["×", "×"], ["×©", "×"], [" ", "L"], [" p", "ro"], ["××", ""], ["××", ""], [" o", "ut"], [" w", "ill"], [" ×", "×"], ["o", "d"], ["l", "a"], ["v", "en"], ["×¨", "×"], ["ou", "gh"], ["â", ""], [" u", "n"], [" ×", "×"], [" a", "b"], [" l", "e"], [" be", "en"], [" the", "ir"], [" ×", "×¢"], ["it", "t"], ["-", "-"], ["ow", "n"], [" ×", "×"], ["re", "at"], [" M", "r"], ["p", "t"], ["×", "×¨"], [" w", "hat"], ["×©", "×"], ["u", "re"], ["t", "her"], ["××", ""], [" w", "hen"], [" ", "G"], [" ×", "×"], ["o", "st"], ["×", "×"], [" ×©", "×"], [" ", "("], ["××", "×"], [" ", "if"], ["×", "××¨"], [" ", "D"], ["r", "y"], [" ×", ""], [" ", "j"], ["××", "¤"], [" ×", "×¤"], [" ×", "×¤"], ["×", "×ª"], [" ×", "×"], [" ×", "×¢"], ["a", "ke"], ["o", "p"], [" ×", "×ª"], [" ×", "×©"], [" a", "g"], [" g", "o"], [" m", "ore"], [" s", "ha"], ["m", "ent"], ["×", "×"], [" you", "r"], ["×", "××"], ["e", "ct"], [" ×", "×¦"], ["f", "f"], [" ", "F"], [" f", "a"], [" an", "y"], ["a", "u"], ["××", "¦"], [" ×©", "×"], ["a", "g"], [" H", "e"], ["o", "se"], ["t", "e"], ["×¨", "×¥"], [" a", "m"], [" ×", "×"], ["id", "e"], [" ×", "×¡"], [" ", "E"], ["×", "×"], [" ×", "×©"], [" c", "an"], [" ×", "×"], [" c", "ould"], ["i", "es"], [" ×", "××ª"], [" ", "qu"], [" ×", "×"], ["a", "ble"], ["×¢", "×"], ["he", "d"], ["im", "e"], [" ×", "×©"], [" ×", "×©"], ["ic", "e"], ["f", "ore"], ["h", "ing"], [" ×", "×"], ["××", "×"], [" kn", "ow"], ["×§", "×"], ["nd", "er"], ["×", "×"], [" f", "e"], ["×", "××"], ["en", "ce"], ["××", ""], ["as", "s"], ["?", "â"], ["p", "l"], [" ×", "×"], ["×¢", "×"], ["in", "e"], ["p", "er"], ["v", "ed"], ["×¢", "×ª"], ["w", "ay"], [" s", "ome"], [" in", "to"], ["c", "c"], [" ", "N"], ["ur", "n"], ["××", ""], ["ot", "her"], ["××", ""], ["c", "i"], [" ×", "×"], ["a", "b"], ["×", "××"], ["Öµ", "Ö¼"], ["an", "ce"], [" a", "r"], ["×", "×"], [" t", "han"], ["u", "d"], [" ", "very"], [" ", "im"], [" s", "p"], [" ×", "××"], ["in", "k"], [" u", "s"], ["a", "re"], ["e", "p"], ["it", "e"], [" o", "ther"], ["×¨", "×"], [" t", "r"], [" s", "ay"], [" ×¢", "×"], [" ×", "×"], ["res", "s"], ["×©", "××"], ["all", "y"], ["ou", "ght"], [" l", "ook"], [" o", "ur"], [" A", "nd"], ["×", "××"], [" li", "ke"], ["w", "e"], ["he", "re"], [" ×", "××"], [" ×", "×¢"], [" ×", "××"], ["×", "×"], [" ", "en"], ["×¨", "×ª"], [" ×", "×¨"], [" n", "ow"], [" ", "ro"], [" se", "e"], ["ad", "e"], ["itt", "le"], ["w", "n"], [" ", "J"], [" ha", "s"], ["×", "×"], ["ic", "k"], [" d", "is"], ["ou", "nt"], [" d", "id"], [" ", "O"], ["\"", ","], ["× ", "×¡"], [" t", "ime"], [" to", "o"], ["o", "nd"], ["i", "re"], [" ag", "ain"], ["o", "f"], [" up", "on"], [" ab", "out"], ["××ª", "×"], ["v", "ing"], [" ", "R"], ["f", "ter"], ["'", "s"], [" sh", "ould"], ["×", "×"], [" ha", "nd"], ["×", "×"], [" b", "r"], ["b", "e"], [" a", "d"], ["× ", "××ª"], ["u", "ch"], ["ing", "s"], ["×", "×"], [" ×", "××¨"], ["×× ", "×"], ["o", "ve"], [" t", "w"], [" ×", "×©"], ["at", "her"], ["a", "ck"], ["h", "i"], [" ×", "×"], ["×", "×"], [" o", "ver"], ["a", "c"], ["ar", "s"], ["a", "ge"], ["×¤", "×ª"], ["××", ""], ["u", "e"], ["n", "e"], [" ×", "× "], [" the", "n"], ["or", "d"], ["ion", "s"], [" ×", "×"], ["×", "×ª"], [" g", "reat"], [" on", "ly"], ["ar", "y"], ["Ö¶", "Ö¼"], [" ××", "×"], ["×¢", "×"], [" ×", "×"], ["is", "h"], [" l", "ittle"], ["×¨", "×"], ["××¨", "×"], [" ×", "×"], [" ×", "×ª"], [" ×", "×"], ["re", "e"], [" ×¢", "×"], [" ", ","], ["×¨", "×"], [" ×", "×"], ["n", "g"], ["×", "×"], ["\"", "."], ["××", ""], ["×", "×"], ["n", "ess"], ["Ö°", "×"], [" c", "l"], ["is", "s"], [" p", "r"], ["×× ", "×"], ["×", "×ª"], [" ×", "×¦"], ["××", "×"], ["×", "×"], ["b", "er"], [" I", "t"], [" g", "ood"], [" p", "e"], [" ×", "× ×"], ["v", "es"], [".", "."], ["×", "×¦"], [" ×", "×"], ["â", ""], [" g", "r"], [" of", "f"], [" ×", "×"], [" d", "ay"], [" m", "ust"], ["!", "â"], [" p", "er"], ["i", "ed"], [" ×", "××"], ["e", "nd"], ["Ö¶", "×"], [" ×", "×"], [" ×", "×"], ["×", "××"], [" ×", "×"], [" h", "ow"], ["h", "is"], [" ×", "×¡"], [" sha", "ll"], [" ×©", "× "], [" ×¨", "×§"], ["×¢", "×¨"], ["Y", "ou"], ["a", "p"], ["×©", "×ª"], [" ×¨", "×"], [" ×¢", "××"], ["if", "e"], ["k", "ed"], [" p", "art"], [" d", "own"], [" ×", "××"], ["×¤", "×©"], ["×", "×"], [" su", "ch"], ["b", "l"], [" be", "fore"], ["×", "×ª"], ["××¨", "×"], ["f", "ul"], ["××", ""], [" ×¢", "×¦"], [" â", ""], ["×", "×"], ["×¨×", "×©"], [" ×", "×§"], [" B", "ut"], ["×¢", "××"], ["u", "ll"], ["o", "y"], [" ×", "×¤"], [" ×", "×"], ["ad", "y"], [" ×", "×"], ["t", "y"], ["×", "×"], ["i", "ous"], [" a", "fter"], ["\n", "\n"], [" p", "o"], ["is", "e"], ["f", "or"], ["at", "ed"], [" ", "1"], [" m", "uch"], [" ×", "×"], [" e", "very"], [" o", "wn"], [" m", "ade"], [" ×", "×"], ["ir", "st"], ["×", "××"], ["w", "ard"], ["×× ", "×"], ["×× ", "××"], ["×", "×"], ["a", "ch"], ["r", "u"], [" p", "re"], [" ×", "×"], ["ri", "ght"], [" y", "e"], ["×§", "×¨"], ["o", "ld"], [" ", "."], [" re", "m"], [" ×", "××"], ["i", "le"], ["i", "ly"], [" ×", "×"], [" u", "nder"], [" ×", "×"], ["t", "ain"], [" l", "ong"], ["on", "s"], ["×", "×"], [" w", "ay"], [" ×", "××"], [" ×", "××"], [" th", "ink"], [" c", "ome"], [" m", "ay"], ["×¤", "×"], ["×", "×¨"], ["an", "s"], ["t", "hat"], ["×", "×¨"], [" it", "s"], [" s", "pe"], [" e", "ven"], [" ×", "× "], ["×", "× "], [" re", "s"], ["ou", "se"], ["××", ""], ["×¦", "×"], ["×× ", "××ª"], ["××", "×"], ["ig", "n"], ["s", "o"], [" ne", "ver"], [" tw", "o"], [" s", "m"], [" be", "t"], ["d", "e"], ["o", "ll"], ["ar", "k"], [" p", "l"], ["ri", "ed"], [" ×", "×"], ["p", "s"], [" ×", "××ª×"], ["re", "n"], ["l", "o"], [" o", "ld"], [" c", "ha"], [" con", "t"], ["m", "an"], ["c", "es"], ["or", "n"], [" be", "c"], ["×", "×¨"], [" him", "self"], [" ×¨", "×"], ["×", "×"], [" e", "y"], ["l", "i"], [" th", "r"], ["a", "ve"], ["×", "××"], [" im", "p"], ["Ö¸", "×"], [" w", "here"], [" com", "p"], [" the", "se"], [" ×", "×ª"], [" ×", "×§"], [" f", "irst"], [" ×", "×"], [" ×", "×"], [" × ", "×ª"], ["×¨×", "×"], ["in", "t"], ["r", "an"], [" × ", "×©"], [" th", "ought"], [" c", "ame"], [" m", "ight"], ["c", "ed"], ["H", "e"], ["×¤", "×"], ["e", "ver"], [" we", "ll"], ["×", "××ª"], [" b", "l"], ["f", "t"], ["at", "h"], ["n", "ot"], [" ×", "×§"], ["au", "se"], [" ××", "×¨"], [" ×¢", "×"], [" d", "es"], ["f", "e"], ["l", "ed"], ["×", "×§"], [" be", "g"], [" s", "c"], ["A", "nd"], ["××", "×"], [" b", "ack"], ["×", "×"], [" l", "et"], ["os", "s"], [" se", "em"], [" ×", "× ×"], [" j", "ust"], [" ×", "×¤"], [" ×", "×¨×"], ["pe", "ct"], ["om", "et"], [" m", "ake"], ["××", "£"], [" con", "s"], [" ×", "×"], [" ×", "×"], ["op", "le"], ["Ö", "»"], [" ×", "××"], [" ×", "×"], ["×¡", "×ª"], [" ×©", "×"], ["××", "××"], ["×¤", "×"], ["×¤", "×"], [" he", "re"], [" ×", "×××"], ["×©", "×"], [" ×", "×ª"], ["××ª", "×"], [" p", "la"], ["×¨", "×"], [" w", "ent"], ["en", "ed"], ["×× ", "×"], ["I", "t"], [" wor", "d"], ["×", "×ª"], ["×", "××"], [" be", "ing"], [" th", "ose"], [" ×©", "×"], ["as", "e"], ["×", "×"], ["×¨", "×¦"], [" com", "m"], [" a", "cc"], [" p", "ass"], [" ×", "×"], ["×", "×¢"], ["c", "l"], [" ××", "×"], [" o", "p"], ["en", "s"], [" t", "urn"], ["×©", "××ª"], ["×", "××"], [" m", "en"], ["× ", "×"], ["××", "×"], [" S", "he"], [" o", "b"], [" ×©×", "×"], [" a", "way"], ["× ", "×ª"], ["ation", "s"], ["ri", "end"], ["××", "×¨"], ["×§", "×"], [" m", "ost"], [" with", "out"], [".", "\""], ["××", "×"], ["ul", "t"], [",", "â"], ["l", "ess"], [" ×", "×"], ["th", "ing"], [" f", "l"], ["×¡", "×¤×¨"], [" l", "ast"], ["ot", "h"], ["×", "×"], [" ×", "×"], [" ", "ra"], [" ", "K"], ["×", "××ª"], [" he", "ad"], [" pe", "ople"], [" g", "l"], ["i", "ble"], ["×¦", "×"], [" p", "res"], ["×¡", "×"], ["×", "××ª"], ["w", "h"], ["g", "et"], [" ", "ke"], [" st", "ill"], ["in", "ce"], [" l", "ife"], ["m", "er"], ["i", "v"], ["×", "×"], [" ×", "××©"], ["×", "×"], ["××¨", "××"], ["×ª", "×"], [" ××", "×ª"], ["×", "×"], [" s", "er"], [" ×××ª", "×"], [" ey", "es"], ["e", "w"], ["Ö¼", ","], [" ×", "×××¨"], [" be", "l"], ["ak", "ing"], ["it", "ion"], [" c", "h"], ["× ", "××"], [" h", "ouse"], ["Ö¹", "Ö¼"], [" ×", "×"], [" ×", "××"], [" g", "et"], [" a", "p"], ["××", "××"], ["j", "ect"], [" ", "_"], [" a", "pp"], ["i", "z"], [" re", "t"], ["he", "s"], ["m", "e"], ["×¨×", "×"], ["c", "on"], ["al", "k"], ["or", "y"], [" w", "ant"], [" ×¦", "×¨"], ["o", "pe"], [" c", "ount"], [" ×", "×× "], [" s", "ame"], [" thr", "ough"], [" ×", "×"], ["ct", "ion"], [" d", "on"], ["re", "t"], [" t", "e"], [" t", "ake"], [" c", "all"], [" ×", "×¦"], ["a", "w"], [" ", "V"], ["i", "gh"], ["×", "×"], ["×", "×¨"], [" p", "ut"], [" ×", "×"], ["×ª", "×¨"], [" ×", "×"], ["w", "ith"], ["××", "×"], ["×", "×"], [" ×", "×"], ["×", "×"], [" ×", "×"], ["×§", "××"], ["B", "ut"], ["r", "ow"], [" s", "omet"], [" ×", "×¤"], ["p", "le"], [" f", "riend"], ["m", "ed"], [" ", "ent"], [" not", "hing"], ["g", "ed"], ["e", "red"], [" ×", "×"], [" fa", "ce"], [" ", "right"], ["i", "x"], [" ne", "w"], [" w", "r"], ["××ª", "×¨"], ["or", "s"], [" t", "ell"], [" Mr", "s"], ["way", "s"], ["er", "tain"], ["××¨", "×"], [" ×", "××¨"], [".", "â"], [" man", "y"], [" ×", "× "], [" re", "p"], ["it", "her"], [" wor", "k"], [" ×", "×"], ["×ª", "×"], ["×", "××"], ["a", "v"], [" e", "nd"], [" c", "hi"], ["×", "×"], ["×¢", "×©"], [" you", "ng"], [" ×", "×©×¨"], ["o", "g"], ["a", "ir"], ["×", "×"], ["l", "es"], ["× ", "××ª"], [" ×", "×¨"], ["at", "ter"], [" ×¤", "×¨"], ["ic", "t"], ["b", "ut"], ["×¤", "×§"], ["×", "×"], ["h", "y"], [" ×", "×¢×"], ["a", "red"], ["at", "er"], [" ×¢", "×"], ["i", "an"], [" ×", "×"], [" ×", "××ª"], [" ××¢", "××¨"], ["××", "×"], ["od", "y"], ["×", "××"], [" chi", "ld"], ["×¦", "×¨"], [" th", "ough"], [" w", "om"], ["ent", "ly"], ["×", "×¨"], ["Ö´", "×"], ["×", "×ª"], ["×©", "×"], ["i", "a"], [" e", "ver"], [" ha", "r"], [" ××¤", "× ×"], [" S", "t"], ["×§", "×"], ["o", "ver"], [" sa", "w"], ["u", "p"], ["×¦", "×"], [" ×", "××¨"], [" an", "other"], [" m", "ind"], [" ×", "×"], [" e", "ar"], [" I", "n"], ["an", "g"], ["se", "l"], ["× ", "××"], [" y", "et"], [" ha", "pp"], [" at", "t"], ["c", "om"], ["om", "ent"], [" G", "od"], ["Ö¹", ","], [" ×©", "×"], ["en", "er"], [" ×", "×¢×"], ["×¨", "×"], [" ×", "××"], [" look", "ed"], ["c", "ess"], [" e", "m"], ["××§", "×"], [" su", "pp"], [" c", "ar"], [" f", "ound"], ["n", "er"], [" ×", "× ×"], [" ×", "××"], [" ×¢", "××¨"], ["××ª", "×"], ["×× ", "××"], ["et", "h"], [" ××", "×"], ["×", "×¢"], ["y", "ou"], ["c", "y"], [" ×", "××ª×¨"], [" n", "ight"], [" he", "art"], [" ", "You"], [" pla", "ce"], [" ×", "××"], [" ×", "× ×"], [" ro", "om"], ["×¢", "××¨"], ["'", "t"], [" ××", "×©"], [" d", "ist"], [" ×¨", "×"], ["w", "as"], ["××", "×"], [" on", "ce"], [" in", "st"], ["××", "£"], ["××", "×"], [" se", "c"], ["t", "ed"], [" ×", "××ª"], [" th", "ings"], [" ×", "×¨××©"], [" wor", "ld"], ["t", "ing"], ["im", "es"], ["is", "hed"], ["u", "nd"], ["× ", "××"], [" p", "le"], ["d", "en"], ["×¤", "××"], ["×", "××"], [" ×", "×¨"], ["in", "ess"], ["×", "×"], [" c", "our"], [" wh", "ile"], ["××©", "×¨××"], [" s", "et"], [" p", "ers"], [" too", "k"], [" al", "ways"], ["×", "×©"], [" su", "b"], [" ex", "p"], [" ×¢×", "××"], ["×", "×"], [" f", "ar"], [" g", "ive"], ["a", "id"], ["o", "ck"], ["ow", "er"], [" le", "ft"], [" m", "oment"], ["a", "ce"], [" fe", "el"], ["re", "st"], ["n", "ing"], [" ×", "×"], ["m", "s"], [" al", "so"], ["ra", "ct"], [" ap", "pe"], ["e", "x"], ["s", "s"], [" th", "ou"], ["××", "¥"], ["ow", "ed"], [" ×", "××"], [" do", "or"], [" ××©×¨", "××"], [" he", "ard"], ["×", "××¨"], ["×¢", "××ª"], [" f", "ather"], ["××¨", "×"], ["u", "al"], ["i", "al"], ["××", "×"], ["s", "er"], [" ××ª", "×"], ["b", "y"], ["ic", "al"], ["re", "w"], [" ××", "×××"], ["en", "se"], [" a", "c"], ["××", "×"], [" ××", "×ª"], ["×", "×"], [" th", "ing"], ["d", "u"], ["×", "×"], ["v", "ent"], ["×", "×"], [" ×", "×"], [" ××", "×ª"], ["o", "v"], ["ir", "l"], [" ×", "×£"], ["el", "t"], [",", "\""], [" bec", "ause"], ["×", "×"], ["××", "×"], ["m", "ost"], [" re", "g"], [" d", "if"], ["×", "××ª"], [" ××", "×¨×"], [" l", "ove"], [" seem", "ed"], [" ×", "× "], [" again", "st"], ["×", "××ª"], [" ret", "urn"], [" an", "s"], ["\n", "\n     "], [" g", "u"], [" l", "ight"], ["s", "u"], ["×¦", "×"], [" g", "ot"], ["it", "s"], ["W", "hat"], ["i", "ld"], [" bel", "ie"], [" ×", "×"], [" go", "ing"], [" ×", "×"], [" m", "ar"], [" ×", "×§"], ["×", "××"], ["in", "ed"], [" ×", "×¢"], ["m", "y"], [" d", "one"], [" ×", "×"], [" hand", "s"], [" ×", "×"], [" ×", "××"], [" s", "l"], [" M", "iss"], [" re", "c"], [" f", "ind"], ["×©", "×"], ["××", "×"], [" n", "at"], ["ce", "pt"], ["i", "p"], [" qu", "ite"], ["×", "× ×¡"], ["oo", "l"], [" w", "a"], [" s", "at"], ["ent", "le"], [" g", "i"], [" con", "f"], ["×©", "×"], ["o", "ice"], [" my", "self"], ["    ", "    "], ["ward", "s"], ["o", "c"], ["!", "\""], [" somet", "hing"], [" ×", "× ×"], ["pp", "ed"], [" ×", "×"], [" ×", "×"], ["××¨", "××ª"], [" ×", "××©"], [" th", "ree"], [" × ", "×¢"], [" bet", "ter"], ["it", "ed"], ["I", "n"], ["ul", "ar"], ["o", "b"], [" k", "ind"], [" ××", "×"], [" ××", "××ª"], [" ××", "××"], [" × ", "×¤"], ["we", "en"], [" th", "y"], [" c", "han"], ["d", "er"], [" re", "st"], ["is", "ed"], ["××¡", "×"], ["ff", "ect"], [" W", "e"], [" ", "U"], [" as", "ked"], ["i", "red"], ["×", "×¢"], [" ×", "××"], ["××", "¥"], [" st", "r"], ["×", "××"], [" ×§", "×¨"], [" ×", "×"], ["os", "ed"], ["×ª", "× ×"], [" w", "ind"], [" un", "to"], ["×", "××ª"], [" ×¢", "×ª×"], [" ×©", "×¢"], [" f", "ell"], ["Y", "es"], [")", ","], ["c", "hed"], ["as", "on"], ["k", "s"], ["×××", "×"], [" p", "oss"], [" h", "ome"], ["×", "×"], ["ut", "h"], [" in", "t"], [" The", "re"], [" ××¤", "×©×¨"], [" ad", "d"], [" c", "o"], ["get", "her"], ["g", "r"], ["×§", "××"], [" in", "d"], [" ye", "ars"], [" ×", "××¨"], [" s", "ur"], ["?", "\""], [" s", "il"], [" ", "2"], ["au", "ght"], ["ver", "s"], ["at", "ing"], ["×¡", "×¤"], [" ××", "××"], ["×× ", "×"], [" ××", "××"], [" c", "le"], [" re", "l"], ["at", "es"], ["××¨", "××ª"], ["re", "ad"], ["×", "×"], ["sel", "ves"], [" × ", "×"], [" ×", "××"], [" ×", "×"], ["×", "×¤"], [" The", "y"], ["×", "××ª"], ["p", "r"], ["ak", "en"], ["×", "××"], ["i", "er"], ["ha", "d"], [" ×", "××"], [" p", "ur"], [" w", "ar"], [" ×", "×©×"], [" f", "oll"], ["ow", "s"], ["st", "and"], [" ×", "××"], [" do", "es"], [" ×§", "×"], [" so", "on"], ["×", "× ×"], [" in", "te"], ["d", "ay"], ["x", "t"], ["s", "h"], ["××©", "×"], [" de", "ar"], [" ×¡", "×¤×¨"], [" a", "ct"], ["t", "en"], ["E", "R"], [" ××ª", "××"], [" in", "ter"], [" to", "ld"], [" b", "oth"], ["××¤", "×"], [" ××", "××"], ["a", "ct"], [" ×¨", "××"], [" wom", "an"], [" who", "le"], ["×§", "×"], ["××", "×"], [" word", "s"], [" r", "ound"], [" â", ""], [" wh", "om"], [" c", "ertain"], [" se", "en"], [" n", "or"], ["g", "g"], ["u", "res"], [" ××", "×¨×¥"], [" × ", "×"], ["Ö¼", "."], ["ra", "w"], ["×", "×"], [" s", "ide"], [" kn", "ew"], ["×¦", "×ª"], ["×× ", "×"], ["f", "ort"], [" b", "o"], ["Ö¹", "."], ["×", "×©"], ["×", "××"], ["×ª", "×"], [" f", "elt"], ["ha", "ps"], [" ×", "×¦"], [" st", "re"], ["M", "r"], [" ×", "×× ×"], [" ×§", "×"], ["×¨×", "×"], ["Ö", "±"], [" ×", "××"], ["×", "×"], [" me", "an"], [" ×", "× "], ["××¢", "×"], [" en", "ough"], [" ha", "ving"], ["as", "ter"], ["ent", "s"], [" ×", "××"], ["ull", "y"], [" he", "l"], ["l", "ing"], [" bet", "ween"], ["××", "×"], [" o", "cc"], [" m", "other"], ["×§", "×"], [" in", "c"], ["a", "il"], ["××¨", "××"], [" ××¨", "×"], [" dis", "c"], [" ×", "×"], [" g", "entle"], ["a", "le"], ["ut", "e"], [" he", "ar"], [" beg", "an"], [" ×", "×"], ["i", "et"], ["××", "×"], [" ne", "ed"], [" c", "r"], [" ××", "××ª"], [" ×©", "×"], ["h", "im"], [" n", "ame"], ["××¢", "×"], [" ×", "×¦"], ["it", "ies"], [" g", "ener"], [" ple", "as"], ["×", "×"], ["×××ª", "×¨"], ["pl", "ied"], ["ve", "l"], ["an", "y"], ["ment", "s"], [" c", "ur"], [" f", "am"], ["v", "ant"], [" ××¢", "×"], [" ×", "××©"], [" ×", "×"], ["g", "er"], ["i", "b"], ["×¡", "×§"], ["×", "×"], [" the", "e"], [" as", "s"], ["×× ", "××"], [" ×", "××¢"], ["ou", "n"], [" ha", "lf"], [" s", "ir"], [" ×××ª", "×"], [" ×", "×ª"], ["a", "ut"], ["×", "×§"], [" pres", "ent"], [" × ", "×"], [" h", "our"], [" ×ª", "×××"], ["×", "×ª"], ["orn", "ing"], ["O", "R"], [")", "."], [" po", "int"], [" ×", "×"], [" × ", "×¤×©"], ["ate", "ly"], [" ×", "××"], [" ×©×", "××"], [" ×", "×ª"], ["er", "n"], ["×", "×"], ["l", "and"], [" t", "er"], ["S", "he"], [" her", "self"], [" ×", "×"], [" ke", "ep"], [" ×¨", "×"], ["N", "o"], [" de", "l"], ["o", "ke"], ["u", "nt"], ["W", "e"], [" ×", "××"], [" ×¨×", "×©"], [" h", "um"], ["ro", "ss"], ["at", "ch"], ["××", "××"], [" W", "hat"], ["×¨", "×¢"], [" ×©×", "××"], [" de", "c"], ["re", "m"], [" c", "are"], [" c", "he"], ["a", "h"], [" re", "f"], [" har", "d"], [" s", "w"], [" fe", "w"], ["ain", "ed"], ["re", "nt"], [" op", "en"], [" m", "in"], ["ha", "r"], [" c", "ried"], ["id", "ent"], [" m", "atter"], [" cour", "se"], [" su", "re"], [" ×", "×"], [" v", "oice"], ["×", "×"], ["b", "t"], [" in", "de"], ["in", "s"], [" am", "ong"], ["×", "×"], [" d", "ou"], ["er", "y"], [" C", "h"], ["one", "y"], ["×¨", "××ª"], ["n", "ow"], ["×¢", "×××"], ["×¤", "×¡"], ["wh", "ich"], ["is", "ter"], [" qu", "est"], [" b", "oy"], [" g", "irl"], [" turn", "ed"], ["id", "er"], [" st", "and"], [" ex", "c"], [" re", "ad"], ["ent", "ion"], ["×", "×"], [" ××", "××"], ["××¨", "×"], [" e", "ach"], ["ou", "d"], ["×", "×§"], [" ××", "×¢"], [" re", "plied"], [" I", "f"], ["ie", "ld"], [" ×××", "×¢"], [" spe", "ak"], ["ce", "i"], [" l", "and"], [" ×", "×©"], [" ×©×", "×"], [" ne", "ar"], [" l", "ess"], [" ×", "×©"], [" cont", "in"], [" T", "h"], [" ×", "×¦×"], ["s", "he"], [" ×©", "× ××"], ["T", "hat"], [" ", "'"], [" b", "us"], ["k", "ing"], ["on", "t"], [" ××", "×"], ["ou", "l"], [" ×ª", "×§"], ["m", "en"], ["u", "ck"], [" b", "est"], [" ×¢", "×©"], ["××§", "×¨"], [" g", "ave"], [" t", "alk"], [" F", "or"], ["×", "×"], [" ×©", "× ×"], [" ××", "×¨×¥"], [" ×", "×¨"], [" e", "v"], ["The", "re"], [" po", "or"], [" hel", "p"], ["×", "×§"], ["ow", "ing"], [" w", "he"], [" b", "re"], ["××¤", "×"], [" ×", "×"], [" m", "on"], ["×¡", "×¨"], ["ress", "ed"], [" ×", "××"], [" e", "l"], [" ×¢×¦", "××"], [" any", "thing"], [" h", "igh"], ["××ª", "×"], ["W", "ell"], ["T", "his"], [" ", "Y"], ["?", "â"], [" T", "his"], ["×", "×"], [" look", "ing"], [" r", "ather"], [" m", "orning"], [" ×", "×¨"], ["×ª", "××"], ["×¨×", "××ª"], [" u", "se"], [" in", "s"], ["×", "×¨"], ["×", "××"], [" ×", "×"], ["××¦", "×"], [" pers", "on"], ["××", "××"], [" s", "ince"], [" A", "n"], ["  ", " "], ["×", "×"], ["×", "×©"], ["e", "v"], [" ××¨×", "×"], [" v", "is"], [" m", "o"], [" pro", "p"], [" ××", "×¢"], [" st", "ood"], [" call", "ed"], [" p", "ol"], ["× ", "×"], ["× ", "×"], ["×", "×©"], ["× ", "×§"], ["ab", "ly"], ["n", "a"], ["al", "s"], [" sm", "all"], [" ×©", "××©"], [" ×", "××©"], [" b", "ro"], [" can", "not"], [" count", "ry"], [" ×", "×¡"], ["p", "h"], ["O", "h"], [" in", "f"], ["k", "en"], ["××¢", "×"], ["ot", "e"], ["×", "´"], [" ×", "×"], ["ain", "t"], [" belie", "ve"], [" ×", "×¡"], [" f", "ore"], ["××¨", "×"], [" h", "ope"], [" al", "most"], [" T", "hen"], [" ×©×", "× ×"], [" ×××", "××××"], ["ud", "e"], [" be", "h"], ["b", "ody"], [" day", "s"], ["la", "ck"], [" A", "s"], ["×", "××¨"], ["×¢×", "××"], [" ××¦", "×"], [" ex", "t"], ["××", "×"], [" inte", "rest"], ["××", "×"], [" br", "ought"], [" ×", "××"], [" ×", "×¤×¨"], ["×", "×¡"], [" ××¤", "× ×"], ["ie", "f"], [" ×", "×©"], [" ×¨", "×¢"], ["×¤", "×©×¨"], [" ××", "×××ª"], [" t", "ra"], ["××©", "××"], ["d", "den"], [" l", "ady"], ["f", "ully"], ["c", "ha"], [" fa", "ct"], ["o", "ot"], ["u", "b"], ["××", "×"], ["il", "ity"], ["××¨", "×ª"], ["××", "×"], [" st", "ran"], [" su", "ff"], ["er", "ing"], [" a", "w"], [" re", "ason"], ["c", "ri"], [" ×©", "× ×"], [" I", "s"], ["Ö°", "×"], [" to", "gether"], ["××", "×"], [" t", "ill"], [" C", "om"], [" ××", "××¨"], [" ××¡", "×¤×¨"], [" ×", "×××"], ["OR", "D"], [" ×¢", "××"], ["Ö·", "×"], [" ×××ª", "×"], ["××", "×"], ["××¢", "×"], ["re", "ady"], [" ×©", "××¢"], ["×", "×"], [" s", "ent"], [" d", "ire"], ["e", "c"], [" how", "ever"], [" s", "on"], ["a", "z"], ["××", "××"], ["×", "× "], ["××©", "×"], ["b", "r"], [" ××©", "×"], ["..", "."], [" ××¢", "×¦"], [" ××", "×"], [" ne", "xt"], [" c", "a"], [" c", "ond"], [" ×", "×¢×"], [" h", "or"], ["×§", "×"], [" m", "oney"], [" ××ª", "×"], ["×", "×©"], ["××", "××"], [" st", "e"], ["××", "×"], [" ×", "×"], [" ar", "t"], [" l", "o"], [" ×", "××"], ["×¢", "×"], [" d", "ark"], ["u", "ally"], ["×", "×"], [" su", "dden"], [" in", "v"], [" a", "ir"], [" ××¢", "×"], ["×", "× ×"], ["ir", "d"], [" ××", "×"], [" s", "le"], [" t", "aken"], ["te", "nd"], [" h", "on"], [" ×", "×"], ["u", "bl"], [" s", "im"], [" ×¦×¨", "××"], ["em", "ber"], [" f", "all"], ["×", "×¢"], [" ×", "×¨"], ["××", "×"], [" ×", "××"], ["b", "ed"], [" ××", "×"], ["us", "ed"], ["it", "ing"], [" p", "ri"], [" g", "one"], ["!", "â"], [" child", "ren"], ["w", "hat"], [" d", "r"], ["××", "××"], [" f", "ull"], [" ×©", "×ª"], ["ur", "ing"], [" A", "r"], ["ir", "c"], ["××", "×"], ["id", "es"], ["×", "×"], [" l", "aw"], [" ××", "× ×"], ["×¡", "××"], ["f", "ic"], [" under", "stand"], [" ××¢", "×××"], ["ce", "ed"], ["ar", "ing"], [" ×§", "××"], [" ×", "××"], [" d", "et"], ["×", "×"], ["un", "g"], ["as", "h"], [" b", "ed"], ["at", "t"], [" T", "hat"], [" L", "ORD"], ["ar", "n"], ["ar", "ge"], [" s", "ort"], [" g", "ra"], [" let", "ter"], [" ××¤", "×"], [" S", "o"], [" ", "ide"], ["×× ", "××ª"], [" de", "ath"], ["en", "e"], [" ×", "×"], [" dif", "fe"], [" ×¢×", "××"], ["u", "se"], ["××", "×"], [" J", "o"], [" re", "ally"], ["××", "××ª"], [" ×", "×¤"], [" ××", "×××"], ["u", "red"], [" s", "oul"], ["××¨", "×¨"], ["×", "×"], [" ×", "×¨×¥"], [" ×©×", "××"], ["ci", "ous"], [" w", "ife"], [" o", "pp"], [" ××", "×"], [" ×¨", "×¦"], ["×¡", "×£"], ["it", "ch"], ["s", "p"], ["ie", "w"], [" inde", "ed"], [" W", "hen"], ["×", "×¨×¥"], ["×§", "×©"], ["ha", "ve"], ["×", "××ª"], [" b", "u"], [" l", "ay"], ["y", "ing"], [" p", "ower"], [" ×", "×××"], [" f", "r"], ["for", "m"], [" al", "one"], ["×¤", "× ×"], [" s", "k"], [" dou", "bt"], ["f", "ect"], [" k", "ing"], [" ×ª", "×©"], ["×", "×§"], ["××¦", "×"], [" ××", "×ª"], ["×", "× "], [" wh", "y"], [" to", "wards"], [" f", "in"], ["××", "×"], ["an", "k"], [" w", "ater"], [" l", "au"], [" ××§", "××"], [" ××", "××"], ["or", "row"], [" f", "our"], [" le", "ast"], ["et", "s"], ["×", "×××"], [" gi", "ven"], [" ××", "××"], [" part", "ic"], [" who", "se"], [" de", "p"], ["m", "iss"], ["H", "A"], ["ry", "ing"], [" sp", "ir"], [" f", "ire"], [" ×", "×××¨"], [" ×", "×"], [" ×¤", "×"], ["e", "e"], ["×§", "×"], [" per", "haps"], ["n", "o"], ["a", "ven"], ["ot", "t"], [" re", "al"], ["××ª", "××"], ["p", "ro"], [" a", "ff"], [" ", "*"], [" ob", "ser"], [" ××§", "×"], [" ×", "××"], [" ××¢", "×¦"], [" ×", "×¡"], [" ××", "×"], ["al", "ked"], [" le", "ave"], [" ××§", "×¨"], [" ×", "×"], ["cei", "ved"], ["××ª", "×"], [" them", "selves"], [" quest", "ion"], [" pass", "ed"], ["××¦", "×"], ["le", "ct"], [" there", "fore"], ["××§", "×"], ["hi", "p"], [" p", "rom"], [" ×", "×× ×"], ["w", "er"], [" ×", "××"], ["ou", "th"], [" r", "un"], ["os", "ition"], [" cons", "ider"], ["if", "ic"], [" al", "ready"], ["o", "nder"], ["em", "pt"], ["A", "s"], [" ×", "×¤×"], [" say", "s"], [" ye", "ar"], [" ××", "××"], ["at", "i"], [" u", "nt"], ["id", "ed"], ["the", "re"], ["×", "××¨"], ["×¨×", "××"], [" su", "n"], ["ag", "es"], [" ×", "×¨"], [" E", "ur"], [" str", "ong"], [" ×", "×¨×"], [" ×ª", "××ª"], [" ×¤", "×¢×"], ["u", "ght"], [" ××", "×"], [" × ", "×¡"], [" ×", "×××"], [" s", "ound"], [" ×", "×"], ["ren", "ce"], [" t", "ri"], [" h", "old"], [" ×ª", "×¨"], [" con", "c"], ["×", "××"], ["ci", "al"], ["× ", "×"], [" ne", "cess"], [" ××", "×ª"], ["××", "×"], [" ad", "m"], ["××", "××"], [" sh", "ort"], [" tr", "ue"], ["T", "o"], ["we", "red"], [" ", "ill"], [" ××©×", "××"], [" whe", "ther"], ["×¦", "××"], ["×ª", "×"], ["re", "am"], [" ", "ri"], ["d", "o"], ["an", "ces"], [" A", "t"], [" ex", "pect"], [" el", "se"], [" ××", "×"], ["at", "ive"], ["××©", "××"], [" ×©", "×"], [" c", "ase"], [" ×¤", "×"], ["c", "ing"], ["Öµ", "×"], [" ××¢", "××¨"], ["T", "ER"], ["×", "×"], ["e", "y"], ["××", "××"], [" de", "ad"], [" as", "k"], ["w", "here"], [" other", "s"], [" ×¢×", "×"], ["×§", "×"], ["Ö¸", "×"], ["und", "red"], ["×¤", "××ª"], ["××", "×"], [" al", "ong"], [" ×", "××"], ["mer", "ic"], [" e", "ither"], [" ×", "××©"], [" ×", "×©×"], ["ubl", "ic"], [" man", "ner"], [" t", "imes"], ["××", "××ª"], [" pl", "ay"], [" w", "ish"], ["b", "and"], ["ak", "es"], ["×", "××"], [" ×", "×"], [" or", "der"], ["×©", "××"], [" ××", "×"], [" N", "o"], [" Eur", "ope"], ["am", "p"], ["lo", "ck"], [" s", "y"], ["ro", "om"], [" beh", "ind"], [" s", "ign"], ["m", "on"], [" ××", "× ×"], [" m", "is"], [" ", "es"], [" ×", "×¨"], [" ×©", "×§"], ["ress", "ion"], ["×¨×", "××ª"], ["××¨", "×"], [" ×", "×¡"], ["××¤", "×"], ["ut", "ion"], ["I", "f"], [" br", "other"], ["il", "ed"], [" ××", "×©"], [" M", "ar"], ["o", "le"], ["w", "or"], [" cha", "r"], [" friend", "s"], ["the", "y"], [" ×", "×"], [" ××", "××¨"], [" ×¢", "×ª"], ["××", "×"], ["×¦", "×"], [" pro", "f"], [" ×", "×¨"], [" f", "ur"], [" ××××¨", "××"], [" with", "in"], [" br", "ing"], [" fe", "ar"], ["××¦", "××"], [" bus", "iness"], ["The", "y"], [" s", "we"], [" ××¢", "×©××ª"], ["al", "th"], ["ou", "ra"], ["×", "×"], [" ×", "××"], ["air", "s"], ["×¦", "×"], [" of", "ten"], [" ×¤", "× ×"], ["×", "×§"], ["ur", "al"], ["M", "y"], [" ××", "×××"], ["ain", "s"], ["ac", "hed"], [" e", "as"], [" st", "art"], [" H", "is"], [" ×", "×¤"], [" ", "est"], [" li", "ve"], [" ××¢××¨", "××ª"], [" de", "f"], [" ×", "××¨"], ["××", "×"], [" d", "ro"], [" c", "ap"], [" app", "ro"], ["×", "×¨×"], ["u", "g"], [" ××", "×ª"], [" h", "us"], [" it", "self"], [" ×", "×"], ["××¨", "×ª"], [" l", "ist"], [" ××", "× ×"], [" ×¨", "×"], [" wh", "ite"], [" c", "irc"], [" cle", "ar"], [" say", "ing"], ["×", "×"], ["××", "×"], [" w", "alk"], [" ×", "×××¨"], ["××©", "×"], ["×¨×", "×"], [" ×¢", "××©××"], ["××", "×"], ["\n", "\n    "], [" ans", "wered"], ["×¦", "×"], [" ×¨×", "××"], ["li", "ke"], ["u", "ed"], [" return", "ed"], [" ear", "th"], [" ×××¨", "××"], ["×", "×"], [" ××", "××¨"], ["××¨", "××©"], [" j", "ud"], [" ad", "v"], ["×× ", "×"], [" ×", "× "], [" be", "aut"], ["×§", "×¢"], [" sec", "ond"], [" ×¢", "××"], [" ××× ", "×"], ["×¨×", "×"], ["t", "s"], ["×", "××"], [" ×", "××"], [" b", "ook"], [" × ", "×"], ["×", "××ª"], ["××", "×"], ["×©×", "×"], [" ××", "××ª×"], ["W", "hen"], ["pe", "nd"], [" × ", "×§"], [" ×", "×× ×"], ["××", "×"], [" s", "ing"], [" A", "meric"], [" ×©", "×¨"], [" ×", "×©×"], [" l", "arge"], ["ic", "es"], ["T", "h"], [" fam", "ily"], [" sub", "ject"], [" re", "qu"], ["ous", "and"], ["itt", "ing"], [" pro", "du"], [" b", "lack"], ["te", "red"], ["×", "×"], [" b", "ur"], ["H", "ow"], ["××¢", "×"], [" st", "ru"], [" ×× ", "×©××"], [" ab", "s"], [" s", "it"], [" ob", "ject"], [" ××××", "×"], [" imp", "ort"], ["T", "hen"], [" st", "ep"], [" ×¢", "× "], [" st", "ate"], ["a", "x"], [" ", "3"], [" us", "ed"], [" c", "or"], ["×", "× "], ["per", "i"], [" ××", "×¨××"], [" ××", "×"], [" E", "m"], ["××", "×"], [" ××", "×××"], [" ×", "×¡"], [" ×¡", "×"], ["et", "y"], [" t", "able"], [" ×ª", "×"], [" un", "c"], ["×", "××"], [" ×¢×", "×××"], [" ×", "××"], ["I", "I"], [" for", "m"], [" ×¢", "×©×¨"], ["×", "×"], [" me", "et"], [" gentle", "man"], ["××ª", "×"], [" ", "--"], [" le", "g"], ["××¢", "×"], ["×", "×"], ["\n", "   "], [" partic", "ular"], [" ×©", "×¢×"], [" ar", "m"], [" com", "ing"], ["×", "××"], ["ent", "y"], ["ard", "s"], ["is", "on"], [" ×", "×××¨"], [" even", "ing"], ["××", "××ª"], ["!", "â¦"], ["en", "g"], [" ×× ", "×× ×"], [" h", "undred"], [" cl", "ose"], [" ××¢", "×"], [" ××", "×"], [" ××§", "×"], [" gr", "ound"], ["×", "××"], ["in", "es"], [" dire", "ct"], [" me", "ans"], [" ×©", "××"], [" ×", "×"], ["in", "ation"], [" de", "v"], ["×", "××"], ["t", "on"], [" ××ª", "××"], ["s", "ha"], [" n", "um"], ["n", "y"], ["th", "is"], [" ×", "×"], ["f", "rom"], [" ×", "××"], [" ab", "ove"], [" ××ª", "× "], [" unt", "il"], [" ××©", "×"], ["×¦", "××"], [",", "â"], [" U", "n"], ["is", "ing"], ["h", "o"], ["u", "c"], ["e", "k"], ["×¢×", "×"], ["HA", "P"], [" comm", "on"], [" ×ª", "× "], [" ha", "st"], ["o", "int"], ["us", "s"], [" ××", "× "], ["an", "e"], ["HAP", "TER"], ["aught", "er"], [" e", "ffect"], [" m", "aster"], [" th", "us"], [" m", "er"], ["un", "e"], ["×", "×"], [" ×", "××××"], [" ×", "×"], [" B", "e"], ["××¨", "×"], [" wind", "ow"], ["×", "×¡"], ["Q", "u"], [" ××", "××"], [" b", "ody"], [" ×§", "×"], [" ××", "×©"], [" e", "qu"], ["×¢", "×¦"], ["H", "E"], ["la", "im"], [" every", "thing"], ["××¤", "×¨"], [" ×©", "×¤"], ["ir", "t"], [" pro", "v"], [" res", "pect"], [" ×", "××§"], [" ×", "××"], [" fe", "et"], [" ××", "××ª"], [" ×", "××"], ["t", "r"], ["W", "hy"], ["×", "××"], [" ans", "wer"], [" ", "ir"], [" T", "o"], [" P", "r"], [" tr", "uth"], ["ver", "n"], [" ex", "pl"], [" ××¢××¨", "×"], ["ri", "age"], [" ×", "××"], [" m", "et"], ["b", "it"], ["×", "×"], [" g", "re"], ["r", "it"], ["the", "m"], [" ××¢", "×"], ["×", "××"], ["ious", "ly"], [" ×", "××ª"], ["miss", "ion"], ["×× ", "×ª"], [" v", "al"], ["as", "ed"], [" f", "ree"], [" S", "ir"], [" ×¢", "××"], [" kn", "own"], ["××¡", "×¨"], ["×¢", "×"], ["×", "×"], [" beg", "in"], [" r", "an"], [" ×¨×", "×"], ["××§", "×"], ["×", "×¦"], ["is", "f"], [" ×××", "×"], [" ×", "××"], [" d", "raw"], ["×", "×§"], ["a", "pp"], ["Ö¸Ö¼", "×"], [" ×", "××"], [" ××", "××¨"], ["ove", "red"], [" ×", "×"], [" hum", "an"], [" nat", "ure"], ["hi", "le"], [" appe", "ar"], [" p", "ar"], [" H", "ow"], [" poss", "ible"], ["××", "×ª"], ["le", "y"], [" m", "aking"], ["l", "ook"], ["×", "××"], [" th", "ousand"], [" ×", "×"], [" s", "ense"], ["F", "or"], [" A", "l"], [" ××", "×"], ["×", "×©×¨"], [" h", "ur"], ["n", "ight"], ["as", "ion"], [" gener", "al"], [" ×", "×"], [" E", "ng"], [" ××¢", "×ª"], [" p", "ast"], [" s", "ister"], [" b", "ar"], ["×¢", "×ª×"], ["he", "ad"], ["d", "le"], ["pl", "oy"], [" ×", "××¨"], [" l", "ost"], ["id", "ence"], [" b", "es"], [" ××¤", "×××"], [" hus", "band"], [" pr", "in"], [" ey", "e"], ["××¢", "×××"], [" w", "onder"], [" ××", "××©"], ["×", "××"], [" ××", "××"], ["×", "××ª"], ["ne", "y"], [" acc", "ount"], ["v", "al"], [" d", "ri"], ["××", "×"], ["g", "ing"], ["c", "he"], ["× ", "×××"], ["med", "i"], [" L", "ord"], [" ", "ut"], [" ×¨", "××¢"], ["×©", "×"], ["××§", "×¨"], ["××¨", "×"], [" sudden", "ly"], ["× ×", "×"], ["th", "ough"], ["×¡", "×§×"], [" tr", "ou"], [" de", "ep"], [" p", "a"], ["ch", "o"], [" M", "y"], [" m", "id"], ["××ª", "×"], [" ×", "××"], [" ×", "××"], ["c", "ome"], [" ××", "×"], ["××", "×"], [" ×", "×§"], [" p", "ain"], [" se", "a"], ["××", "×"], [" ×", "×¦"], [" ××ª", "×"], [" l", "ow"], ["Ã", "©"], [" t", "en"], ["ill", "ed"], ["×", "×"], [" f", "re"], [" c", "ol"], [" diffe", "rent"], ["em", "ent"], [" v", "iew"], ["×", "×"], ["it", "ude"], [" p", "ay"], ["am", "ent"], [" me", "m"], [" pro", "per"], [" comp", "le"], [" ×©×", "××"], [" de", "al"], ["at", "s"], [" ke", "pt"], ["×©×", "×ª"], ["ur", "y"], ["w", "ould"], [" ex", "am"], ["××", "×"], [" m", "ist"], ["×¤", "×"], [" s", "ight"], [" l", "ad"], [" w", "all"], [" a", "ble"], ["S", "o"], [" ×", "××¨"], [" ×××¨", "×"], ["ing", "ly"], [" ser", "vant"], ["ant", "s"], [" ×", "×"], ["p", "ar"], [" × ", "×"], [" ", "-"], [" ×", "××¢×"], [" w", "on"], [" per", "fect"], ["××", "××ª"], [" tr", "ans"], [" con", "st"], [" ××¨××©", "××"], ["w", "ill"], ["qu", "e"], [" b", "ad"], ["u", "nder"], ["us", "h"], ["ar", "ch"], [" t", "ou"], [" ××", "× "], [" ×¤", "×ª×"], ["×¤", "××¨"], ["u", "ff"], [" ×", "××"], [" ×¢", "×"], ["c", "hes"], ["itt", "ed"], [" stran", "ge"], [" ××¨", "×"], ["r", "ing"], [" A", "ll"], ["×", "×¨×"], [" for", "t"], ["××¢", "××"], ["h", "il"], [" ×", "××"], [" s", "ix"], [" sle", "ep"], ["led", "ge"], [" ×", "×¨××©"], [" le", "ad"], [" ××", "×¡"], ["××§", "××"], [" fell", "ow"], ["×", "×"], ["r", "or"], ["d", "is"], ["×", "×"], ["as", "k"], ["we", "re"], ["iz", "ed"], ["p", "ose"], [" f", "ive"], [" f", "oot"], ["h", "ow"], ["×", "×"], ["s", "ide"], ["ct", "or"], [" ×", "×¢"], [" ××", "×§"], ["l", "ish"], ["×× ", "×××"], ["r", "ist"], [" qu", "iet"], [" m", "ine"], [" su", "m"], [" ide", "a"], [" ××", "×¨×ª"], ["××¡", "×"], [" ", "ed"], ["c", "ul"], ["ess", "ion"], [" ", "X"], [" ×××", "×××"], [" re", "d"], ["st", "er"], [" ××", "×"], ["re", "l"], [" ×¢", "××"], [" O", "n"], [" happ", "y"], [" ××", "××"], ["××", "×"], [" ×§", "×©×"], [" ×ª", "×¢"], ["××§", "××"], ["al", "ity"], ["e", "ad"], [" p", "ublic"], [" c", "ut"], [" op", "in"], ["×¡", "××£"], [" ××", "××ª"], ["×¢", "×¨×"], [" to", "wn"], [" ×¢", "××××"], [" re", "ady"], [" ar", "ms"], [" ×©", "×©"], [" b", "it"], [" ×¢", "×¨"], [" sur", "pr"], ["×", "×"], [" ××¨", "×"], [" ××", "×¨×¥"], [" m", "od"], [" ×¨", "××"], ["×", "×¡"], [" sh", "ow"], [" bec", "ome"], ["ha", "nd"], [" ×¦", "×"], [" appe", "ared"], [" pre", "t"], [" he", "ld"], [" ××", "××"], ["ag", "n"], [" ×", "×ª×"], [" go", "vern"], ["e", "f"], ["××", "×"], [" × ", "×× ×¡"], [" your", "self"], ["×¨", "×¡"], [" ", "["], [" N", "ow"], ["w", "ell"], ["g", "ot"], [" ××¨", "××"], ["××©", "×"], ["×", "××¨"], [" D", "on"], [" ×§", "×¦×ª"], [" im", "ag"], [" c", "orn"], [" o", "ught"], [" t", "aking"], ["××¢", "××ª"], ["ri", "es"], ["×", "×"], [" ××", "×£"], [" did", "n"], ["A", "t"], [" dif", "fic"], [" rem", "ember"], ["× ", "×"], ["bl", "ed"], [" ×ª", "×¤"], ["×", "××"], [" a", "ffect"], [" ×¢×", "×× ×"], [" m", "il"], ["×", "××"], ["×× ", "××ª"], [" ha", "ir"], [" ××¡", "×¤×¨"], [" ××¦", "×¢××¨"], [" d", "ra"], [" qu", "ick"], [" pe", "ace"], [" sp", "oke"], ["××¡", "×"], [" l", "ab"], ["×ª", "×§"], ["er", "m"], [" t", "re"], [" ××", "×"], ["u", "es"], [" ×§", "×"], ["pt", "ain"], [" ×", "××ª"], ["w", "hen"], ["ic", "i"], [" a", "f"], ["ter", "n"], [" ×", "×××"], [" ×", "×©×"], ["××", "××"], [" want", "ed"], [" ×", "××"], ["ur", "ch"], ["s", "c"], ["if", "ul"], ["ot", "ion"], [" spir", "it"], ["en", "ing"], ["××¨", "×"], [" ××", "×©"], ["N", "ot"], [" se", "ver"], [" ×", "×××"], [" ×", "×××"], ["ut", "es"], [" c", "reat"], [" ×", "×¨×××ª"], ["N", "ow"], [" fa", "v"], [" st", "ud"], [" acc", "ord"], [" ha", "th"], [" ××", "×"], [" â", ""], ["h", "n"], [" ××ª", "×"], [" ×", "×¨"], [" c", "al"], [" mon", "th"], [" y", "es"], [" ×", "××"], ["ra", "id"], ["× ", "×"], [" wom", "en"], ["O", "n"], [" cha", "ract"], [" go", "ld"], ["e", "ar"], ["××¤", "×"], [" ×", "××"], [" fa", "ir"], [" me", "re"], ["×", "×¢"], ["um", "p"], [" m", "a"], [" feel", "ing"], [" ac", "qu"], ["×", "××¨"], [" bl", "ood"], [" ××©", "×"], [" ××", "×§"], ["××¨", "××"], ["× ", "×©"], [" ××", "×××"], ["××", "×"], [" ×", "××"], [" st", "o"], [" ro", "ad"], [" D", "o"], ["l", "ight"], [" ×©×", "×"], ["in", "ary"], [" st", "ay"], ["××", "××ª"], ["××§", "×"], [" ×§", "×¨×"], ["××©", "×"], [" ×", "××"], ["×××¨", "××"], ["'", "d"], [" somet", "imes"], ["ru", "pt"], [" em", "ploy"], ["××¨", "×"], [" wor", "th"], [" ××©", "× ×"], [" in", "qu"], ["g", "y"], [" ×", "×××ª×¨"], [" inc", "re"], [" long", "er"], ["×¦", "××"], [" ", "ve"], ["i", "k"], ["×", "×ª×"], ["a", "ving"], [" ××", "×¢"], ["ch", "ool"], ["××¡", "××£"], [" ××¢×", "×"], ["×©×¨", "×"], [" de", "m"], ["× ", "×"], [" ×", "××¢"], ["c", "o"], [" ", "#"], [" c", "ent"], [" f", "ine"], ["at", "ure"], ["g", "o"], [" great", "er"], [" m", "ur"], [" re", "pe"], [" en", "g"], ["are", "nt"], [" ××©", "×ª"], ["×¨×", "×©×"], [" gl", "ad"], [" ×¨", "××¦×"], ["g", "es"], [" op", "ened"], [" d", "in"], ["il", "ing"], [" w", "ood"], ["××", "×"], [" bre", "ak"], [" ×", "××"], [" ar", "ound"], ["ant", "ly"], ["st", "r"], [" c", "old"], [" ×", "×¦"], ["le", "t"], [" ×", "×¡"], ["×", "×××"], [" ×¤", "×©"], [" sec", "ret"], [" M", "ad"], ["se", "qu"], [" so", "l"], [" lau", "gh"], [" m", "ark"], [" ×", "×××"], ["×§", "×ª"], [" ×¢", "×× ××"], ["\"", "â¦"], [" ××¦", "×"], [" c", "e"], [" ar", "ri"], ["××", "×"], [" comm", "and"], [" ser", "v"], [" ×©", "×ª×"], [" ×", "× ×"], [" M", "ary"], [" ×", "××¨×"], [" ne", "ither"], ["ation", "al"], ["un", "ity"], ["ir", "m"], ["× ×", "××"], [" w", "atch"], [" add", "ed"], [" d", "iv"], [" bec", "ame"], [" ××¦", "×"], ["××¨", "××ª"], [" m", "ad"], ["×", "××"], ["i", "ar"], [" W", "ell"], [" im", "medi"], ["um", "st"], ["an", "cy"], [" stre", "ng"], [" ×", "×"], ["res", "h"], [" ××", "×"], [" d", "est"], [" contin", "ued"], [" ××¦", "××"], [" reg", "ard"], ["er", "t"], ["W", "ith"], ["××", "××ª"], ["us", "hed"], [" ×", "×"], ["uth", "or"], ["is", "m"], ["××", "××ª"], ["s", "on"], [" chan", "ge"], [" ××©", "×¢×"], [" ×", "××¦"], [" dis", "p"], [" ××", "×©"], [" ××¦", "×"], [" do", "ing"], [" ×¨", "×××"], [" res", "ol"], [" m", "ove"], ["our", "s"], [" d", "uring"], ["ha", "m"], [" ×ª", "×"], [" he", "av"], [" ××", "××××"], ["im", "ent"], ["im", "p"], ["ce", "ive"], [" supp", "ose"], ["on", "y"], ["h", "ouse"], [" ×", "××"], ["××¨", "×©"], [" e", "ff"], [" ××", "××"], ["××", "××"], [" occ", "asion"], [" c", "ast"], ["×", "×©"], [" seem", "s"], [" ×©× ", "×ª"], ["× ", "×¢"], ["××", "××ª"], ["g", "in"], [" sever", "al"], [" l", "ate"], ["s", "ome"], [" ××", "××ª"], ["am", "es"], [" b", "reat"], ["×¨", "×"], [" D", "or"], [" ×××", "×"], [" ×¢××", "×"], [" ×¢", "×××"], [" ××", "×"], [" vis", "it"], [" cha", "ir"], ["'", ","], [" se", "lf"], [" ××", "××"], ["ang", "er"], ["oll", "ect"], [" he", "aven"], [" w", "alked"], ["××¦", "×¨"], ["×", "×¨×"], [" sat", "isf"], ["ren", "ch"], ["ll", "ed"], ["wh", "o"], [" ×¦", "×"], ["×", "×"], [" ×¤", "× ××"], [" ×§×", "×"], ["××", "××ª"], [" ××¢", "×©"], [" P", "ar"], [" ×", "××¨"], ["b", "s"], ["××", "×"], [" ×", "××¨"], ["××", "××"], [" × ", "×"], ["×", "×"], [" ×", "×¨×"], [" ×", "××"], [" t", "em"], [" ", "Qu"], [" ××", "×"], [" o", "bl"], [" ××¨××©", "×× ×"], [" ××¢", "×××"], [" d", "ream"], [" sm", "ile"], [" ×", "×§"], [" ××", "×"], [" × ", "××"], ["j", "ust"], ["××", "××ª"], ["p", "an"], [" ×", "×"], ["l", "er"], [" e", "le"], ["igh", "b"], ["××", "×"], [" f", "ig"], ["m", "ore"], [" le", "arn"], [" H", "er"], ["p", "re"], ["Ö¾", "Ö¾"], [" foll", "owed"], [" m", "us"], ["××¦", "××"], [" ×", "×"], ["iz", "e"], [" for", "th"], [" hor", "se"], ["en", "cy"], ["the", "ir"], ["ic", "ally"], [" c", "ause"], ["×", "×"], [" necess", "ary"], ["×¡×ª", "××¨×"], [" ××", "×"], [" ××¦", "×"], ["××©", "××"], ["l", "t"], [" m", "ain"], [" ×", "××¨"], ["×©", "××"], ["i", "ol"], ["××¡", "×£"], ["×¦", "××ª"], ["×¢", "××"], [" ", "4"], ["us", "ion"], ["× ", "×× ×"], [" ×§", "×"], ["b", "ers"], ["A", "r"], [" ××¢", "××"], ["y", "ond"], ["el", "s"], [" pri", "v"], ["××", "×©"], ["×", "××"], [" charact", "er"], [" ex", "cept"], ["×¡", "×"], [" ×ª", "×"], [".", ")"], [" ×", "××¨"], [" ro", "se"], [" do", "g"], [" ×", "×××"], ["D", "o"], [" ××", "××××"], ["Ö»", "Ö¼"], ["a", "cc"], [" ××¡", "×ª"], [" A", "d"], ["re", "g"], [" af", "raid"], [" ××¢", "×ª"], ["k", "y"], [" ×", "×©×"], ["×", "××"], ["ag", "er"], ["C", "HAPTER"], [" s", "ens"], ["×", "×"], ["×¨×", "×"], [" ××", "×"], [" ×", "××¢"], ["×", "××"], [" num", "ber"], [" pr", "ay"], [" sl", "ow"], ["res", "ent"], [" ××", "×¦"], ["×", "××"], [" d", "ut"], [" del", "ight"], ["an", "cho"], [" ××", "×§××"], [" opin", "ion"], ["on", "es"], [" pret", "ty"], [" pleas", "ure"], [" ××¨", "×¢"], [" ×", "××"], [" v", "ar"], ["vel", "op"], [" com", "fort"], ["pp", "ing"], ["O", "f"], ["ive", "ly"], [" w", "ild"], ["u", "ct"], ["g", "l"], ["ous", "ly"], [" ha", "t"], ["c", "ould"], [" Com", "mission"], [" ××× ", "× ×"], [" pro", "b"], [" t", "ried"], ["××ª", "×"], ["b", "o"], ["t", "hen"], [" ××¢", "×"], ["ust", "om"], ["ap", "pe"], ["oss", "ible"], [" ××¤", "× ××"], [" cont", "r"], [" d", "aughter"], [" ×¨", "××"], [" ×", "××"], [" sil", "ence"], ["×", "× ×"], [" ××", "×¢×ª"], ["ot", "s"], [" ×", "×¢×ª"], ["ie", "ce"], [" ×", "××"], ["m", "a"], ["×ª×", "××"], [" Ch", "rist"], [" ×", "×¡×¤×¨"], ["×", "×"], ["        ", "        "], [" wr", "ong"], ["an", "ced"], ["ou", "red"], [" ×¡", "××£"], ["ick", "ed"], ["s", "pect"], [" ×", "×× ×"], [" f", "ield"], [" ××", "×©×¨"], [" ×××", "××"], [" sp", "o"], [" in", "cl"], [" so", "ft"], ["×", "××§"], ["×¤×ª", "×"], [" ××§", "×"], [" des", "p"], [" ×¡", "×¤"], [" re", "ceived"], [" m", "ount"], [" m", "outh"], ["n", "ed"], [" sc", "ar"], ["if", "ied"], [" ×¤×ª×", "××"], [" ac", "ross"], ["w", "ise"], [" pur", "pose"], [" Europe", "an"], [" ×¨", "×©"], ["××¡", "××"], [" for", "ward"], [" off", "ic"], [" ×", "×¨×"], ["××", "××"], [" happ", "ened"], ["××", "×¢"], ["m", "p"], [" ××¨", "×§"], [" a", "v"], [" ××¢", "××¨"], ["ce", "ll"], ["×¨", "×"], ["×", "×¤"], [" st", "ri"], [" dr", "ink"], [" an", "g"], [" ×¢×", "×"], [" ×", "××©"], ["Ã", "¡"], [" ××", "×××"], [" fur", "ther"], ["××", "×"], [" see", "ing"], [" pr", "ot"], ["s", "aid"], ["×©", "×§"], [" com", "es"], ["ress", "ing"], ["d", "om"], ["×", "×"], ["××", "××"], [" be", "ar"], ["×× ", "××"], [" m", "ention"], [" f", "lo"], ["×", "××"], [" hour", "s"], ["..", ".."], ["ut", "ure"], [" or", "d"], [" ×©", "××"], [" s", "chool"], ["j", "oy"], ["eng", "th"], ["ag", "ed"], [" P", "res"], ["om", "an"], [" ××", "×"], ["le", "x"], [" an", "n"], [" ××", "×"], ["in", "ter"], ["if", "f"], ["A", "h"], [" comp", "any"], [" w", "is"], ["××", "×"], ["×¡", "×"], [" d", "i"], ["×¨", "××"], [" ××", "××"], [" p", "osition"], [" car", "ried"], [" a", "ge"], [" ××", "×"], ["ess", "ed"], [" ×¢", "×¨×"], [" certain", "ly"], [" × ×¤", "×©×"], [" li", "ving"], [" ×", "××¨×"], [" ex", "ist"], [" con", "vers"], ["××", "×"], [" prin", "ci"], [" r", "u"], ["ound", "ed"], [" ×©", "××"], [" ×", "××§"], [" be", "yond"], ["it", "al"], ["m", "es"], ["××¦", "×"], ["in", "ct"], ["I", "s"], [" ×", "××§×"], [" n", "one"], [" e", "at"], [" ×", "×¨×"], ["?", "â¦"], [" Jo", "hn"], [" an", "x"], [" ×¢", "×××"], ["××¨", "×ª"], ["y", "our"], [" ×¤", "× ××"], ["ci", "ety"], [" W", "hy"], [" se", "nd"], [" ××©", "×¤"], ["××", "×"], ["in", "ing"], [" ××©", "×"], [" ××", "×©××"], [" ××¢", "×©×"], ["m", "ing"], ["×", "×ª×"], [" circ", "umst"], ["××", "××"], [" ag", "o"], [" ×", "×¤×¨"], ["×", "××¨"], [" his", "t"], ["c", "il"], [" ent", "ered"], ["z", "e"], ["r", "ic"], [" ×", "××¨"], [" ×", "×"], [" con", "v"], [" ×", "××"], ["ce", "nd"], [" nat", "ural"], [" know", "ledge"], [" j", "oy"], [" b", "ene"], ["it", "er"], ["×ª", "××"], [" ×××¢", "×"], [" ××", "××"], ["p", "art"], [" qu", "ar"], [" en", "c"], ["ra", "ce"], ["_", "_"], [" ×", "×¤×¨"], [" sto", "pped"], ["×¢", "×"], [" tw", "enty"], ["O", "N"], [" acc", "om"], [" ×", "×"], ["×", "×"], ["bl", "ing"], ["×¨×", "×¢"], ["og", "n"], ["××ª", "×"], ["b", "ar"], ["ri", "ble"], [" c", "ross"], [" pl", "ain"], ["××", "×"], ["il", "t"], [" ×©", "×¢×"], [" pr", "ince"], [" ××", "××"], [" ×©", "×"], [" ××", "×"], [" st", "ra"], [" ×¤", "×¡"], ["×", "×"], ["e", "g"], ["×", "× "], ["ra", "el"], [" ×©", "××"], ["he", "l"], ["o", "ly"], [" comp", "an"], ["×¨×¦", "×"], [" ×", "××"], ["ard", "en"], ["ter", "s"], [" l", "aid"], [" b", "ig"], [" ×©×", "××"], [" ×", "×¡"], ["××", "××ª"], ["p", "ly"], ["c", "a"], [" P", "et"], ["ix", "ed"], [" l", "ed"], [" te", "ars"], [" think", "ing"], ["×¤", "×¢×"], [" su", "cc"], [" ××", "×"], [" ×××", "××¨"], [" ×¤", "×ª"], [" s", "n"], [" a", "uthor"], ["×", "× ×"], ["××¨", "××ª"], ["Ö´", "×"], [" thought", "s"], [" ××©", "×ª"], [" ×¨", "××"], ["×", "××ª"], ["××", "×¨"], [" ×× ", "×©×"], [" c", "ity"], [" supp", "ort"], [" ××¢", "××××"], [" ××", "×"], ["××", "××"], [" d", "anger"], [" L", "et"], ["××¤", "××ª"], [" ×", "×ª×"], ["S", "t"], ["l", "u"], ["is", "ion"], [" s", "itting"], ["as", "ure"], [" p", "en"], [" b", "right"], ["××©", "×××"], [" ×", "× ×"], ["××¡", "××"], ["if", "t"], ["× ×", "××ª"], [" wh", "is"], [" t", "rem"], [" rem", "ain"], [" li", "ps"], ["××", "××ª"], ["ci", "ally"], [" ×©", "××"], [" T", "HE"], [" swe", "et"], ["ran", "k"], [" B", "r"], [" p", "ort"], [" f", "ast"], ["×¤", "×××"], ["×¨×¦", "××ª"], [" ×", "××"], [" ××", "×¢"], ["ic", "s"], [" f", "uture"], [" ×", "××ª"], ["t", "w"], [" in", "n"], [" ××", "×ª"], [" P", "ro"], ["p", "la"], [" × ×ª", "×"], [" ×©×", "××"], [" ×¦", "×"], ["×× ", "×"], [" fa", "ith"], ["t", "ime"], [" hard", "ly"], [" ××", "×"], [" pro", "ceed"], [" en", "em"], [" â", ""], [" ×××", "×"], ["o", "ff"], ["c", "ons"], ["××¤", "×"], [" ×", "×§×¨"], ["ow", "ers"], [" st", "ory"], [" pre", "p"], [" so", "ld"], ["att", "le"], ["st", "ood"], ["oura", "ge"], [" ××ª", "××"], [" s", "qu"], ["×", "××¨"], [" t", "ry"], [" G", "r"], ["itt", "en"], ["fe", "rence"], ["er", "v"], [" ×¨×", "×©×"], ["××", "×"], [" ××", "×"], [" O", "ne"], [" rep", "ort"], ["×¨", "×§"], ["××", "××¨"], ["×", "×¤×©×¨"], ["l", "s"], ["en", "ces"], ["ond", "on"], [" min", "utes"], [" F", "rench"], ["A", "n"], ["com", "m"], [" ×××××", "×"], ["Ã", "³"], [" ev", "il"], [" f", "ool"], ["A", "ll"], [" ne", "ighb"], [" × ×©", "××¢"], ["××©", "×¨"], [" ×¤", "× "], [" ×", "×××"], ["c", "an"], [" l", "ength"], ["×©×¨", "××"], ["××¨", "×××"], [" O", "h"], [" m", "ed"], ["××¨", "××"], ["×", "× ××"], ["'", "m"], ["×§", "××"], [" streng", "th"], ["ab", "out"], ["×", "× ×"], [" tr", "ust"], ["×", "××ª"], [" ×", "×××"], [" ×", "××©×"], [" fr", "ont"], [" ××", "×©×ª"], [" ×", "××××"], [";", ";"], [" ××", "××"], [" ××", "×"], [" b", "ott"], ["×", "××"], [" sl", "ight"], [" ex", "peri"], [" C", "a"], [" trou", "ble"], [" to", "r"], ["be", "en"], [" ××", "×"], [" e", "vent"], [" set", "t"], ["×× ", "×× ×"], [" ×¢", "×©×"], ["i", "ans"], [" N", "ew"], [" ××¢", "×× ×"], [" ×", "×"], ["× ", "×¤×©"], ["××¢", "××ª"], ["ro", "y"], [" d", "read"], [" ××", "×"], ["××", "×"], ["or", "m"], [" res", "p"], ["××¦", "×××"], ["H", "is"], [" ××¤", "× ×"], [" ", "5"], [" ×¢", "× ××"], ["ist", "s"], [" ××", "×"], [" m", "iss"], [" ×", "××"], [" din", "ner"], [" g", "od"], [" sha", "d"], ["×", "×ª"], [" × ", "××ª"], [" stand", "ing"], [" N", "ot"], [" ××", "×"], [" ×ª", "×××"], ["r", "on"], ["×× ", "×"], ["c", "her"], [" att", "ention"], [" ×ª", "×"], [" ××", "×ª×"], [" ××", "×©×"], ["ber", "t"], [" for", "ce"], [" immedi", "ately"], ["××¨", "××"], ["i", "res"], ["is", "es"], [" ××ª", "×§"], [" W", "ill"], ["h", "ood"], [" import", "ant"], [" det", "erm"], ["ag", "ain"], [" ×", "××¨"], [" ××©", "××"], ["×¤", "× ××"], [" ××", "×× ×"], ["d", "d"], ["i", "ves"], [" ××§", "××"], [" ××", "×"], ["v", "an"], ["××", "×"], [" stru", "ck"], [" know", "s"], [" turn", "ing"], [" ×", "×©×"], [" obl", "ig"], [" me", "ant"], ["as", "es"], ["\"", "?"], [" ×××", "×"], ["oo", "se"], [" ××", "××"], [" ×", "×¨×"], ["p", "ed"], [" ××©", "×"], ["e", "or"], [" rem", "ark"], ["×× ", "×××ª"], [" pl", "an"], ["sh", "ould"], [" d", "ie"], [" ch", "ief"], ["×¤", "×©×"], ["en", "ess"], ["id", "ing"], ["Â", " "], ["st", "em"], [" ×", "××¨"], [" ent", "ire"], [" ×××", "×¢××"], [" de", "velop"], [" ×¤", "×¢×××"], ["a", "fter"], [" ×¢××¨", "××ª"], [" rem", "ained"], [" ××", "×"], ["×", "××¨"], ["g", "an"], [" ×ª", "×"], ["gr", "am"], [" ear", "ly"], [" h", "op"], ["w", "ick"], ["se", "m"], ["×¤×¨", "××"], ["ill", "e"], ["s", "m"], ["×× ", "×ª"], [" T", "om"], [" h", "ig"], ["k", "n"], [" gl", "ass"], [" ×©×", "×"], ["×", "××"], [" beaut", "iful"], [" obser", "ved"], [" ××¤", "×¢×"], ["××ª", "×"], [" Is", "rael"], ["×¨", "×"], ["×¨×", "××©"], [" ×", "××"], ["××", "×"], ["con", "om"], ["ore", "d"], [" × ×©", "×"], ["tain", "ed"], [" ×©×", "×ª"], ["to", "gether"], [" conc", "ern"], [" v", "iol"], [" ×¨", "××"], [" s", "ad"], [" imp", "ro"], [" m", "akes"], [" w", "at"], ["in", "to"], ["×¨", "××ª"], ["×", "×"], ["×", "×¡×¤×¨"], [" ×¢×¦", "××"], [" ×", "×××"], [" eff", "ort"], ["×¤", "×"], ["ound", "s"], ["ib", "ility"], ["××", "×ª"], ["laim", "ed"], [" ××¨", "×"], [" C", "ount"], [" f", "if"], ["m", "it"], [" ×", "×"], [" j", "o"], [" bu", "ild"], ["××¦", "×"], ["××¤", "×ª"], [" ex", "act"], ["××¤", "×"], ["or", "ry"], [" t", "one"], ["iv", "id"], ["row", "d"], [" w", "it"], ["I", "N"], [" g", "ri"], [" ×", "××"], [" comple", "te"], ["××©", "×"], ["ha", "pp"], ["×", "×ª"], [" ××", "× "],
[...]
